<unk>	0
<s>	0
</s>	0
[PAD]	0
[UNK]	0
[CLS]	0
[SEP]	0
[MASK]	0
..	-0
:“	-1
。”	-2
....	-3
破天	-4
石破天	-5
?”	-6
......	-7
什么	-8
!”	-9
石清	-10
说道	-11
自己	-12
▁石破天	-13
丁不	-14
帮主	-15
也不	-16
一个	-17
雪山	-18
丁珰	-19
万剑	-20
了一	-21
白万剑	-22
不是	-23
武功	-24
雪山派	-25
不知	-26
烟客	-27
谢烟客	-28
丁不四	-29
一声	-30
二人	-31
闵柔	-32
阿绣	-33
婆婆	-34
这一	-35
咱们	-36
夫妇	-37
▁那	-38
史婆婆	-39
爷爷	-40
弟子	-41
他们	-42
内力	-43
听得	-44
少年	-45
海石	-46
笑道	-47
心中	-48
贝海石	-49
我们	-50
长乐	-51
长乐帮	-52
出来	-53
兄弟	-54
如何	-55
怎么	-56
长剑	-57
如此	-58
丁不三	-59
心想	-60
剑法	-61
▁石清	-62
岛主	-63
的一声	-64
突然	-65
自在	-66
两人	-67
......”	-68
声道	-69
不过	-70
小丐	-71
白自在	-72
你们	-73
便是	-74
石破天道	-75
张三	-76
小子	-77
这么	-78
之中	-79
”,	-80
先生	-81
师父	-82
不能	-83
中玉	-84
侠客	-85
武林	-86
脸上	-87
石中玉	-88
知道	-89
当真	-90
不可	-91
到了	-92
都是	-93
身上	-94
只见	-95
不住	-96
儿子	-97
侠客岛	-98
不敢	-99
有人	-100
问道	-101
见到	-102
了他	-103
之下	-104
之间	-105
人家	-106
掌门	-107
原来	-108
说话	-109
起来	-110
这些	-111
不由	-112
众人	-113
师哥	-114
登时	-115
伸手	-116
这个	-117
庄主	-118
这里	-119
凌霄	-120
身子	-121
叫道	-122
凌霄城	-123
不得	-124
不会	-125
倘若	-126
心下	-127
铜牌	-128
▁史婆婆	-129
跟着	-130
师弟	-131
手中	-132
李四	-133
的一	-134
之后	-135
只是	-136
石庄主	-137
两个	-138
你的	-139
▁丁珰	-140
还是	-141
对方	-142
见他	-143
不到	-144
侍剑	-145
当下	-146
不由得	-147
一人	-148
自然	-149
十分	-150
之时	-151
那老	-152
石帮主	-153
妈妈	-154
大哥	-155
是一	-156
是我	-157
功夫	-158
汉子	-159
有什么	-160
性命	-161
▁白万剑	-162
那少年	-163
将他	-164
江湖	-165
出去	-166
姑娘	-167
这般	-168
当即	-169
给他	-170
说不	-171
这时	-172
三人	-173
两位	-174
杂种	-175
喝道	-176
句话	-177
武林中	-178
狗杂种	-179
他的	-180
这小子	-181
一笑	-182
左手	-183
为什么	-184
龙岛主	-185
只怕	-186
哈哈	-187
就是	-188
当当	-189
杀了	-190
▁谢烟客	-191
也没	-192
地道	-193
眼见	-194
女子	-195
一般	-196
上的	-197
双手	-198
说着	-199
石清夫妇	-200
▁他	-201
也是	-202
在他	-203
:‘	-204
下来	-205
人的	-206
你说	-207
便即	-208
哪里	-209
那是	-210
住了	-211
我的	-212
摇头	-213
点头	-214
到底	-215
明白	-216
天下	-217
此刻	-218
万里	-219
右手	-220
香主	-221
一招	-222
丁丁	-223
不好	-224
今日	-225
口气	-226
本来	-227
▁贝海石	-228
一时	-229
内功	-230
怒道	-231
英雄	-232
那人	-233
难道	-234
只听得	-235
出手	-236
师兄	-237
朋友	-238
▁石破天道	-239
来到	-240
果然	-241
掌门人	-242
过去	-243
这样	-244
金乌	-245
了几	-246
微微	-247
是个	-248
有一	-249
上了	-250
冲虚	-251
可是	-252
大家	-253
这位	-254
▁闵柔	-255
是什么	-256
丁丁当当	-257
上一	-258
全身	-259
只有	-260
在一	-261
想到	-262
轻轻	-263
封万里	-264
之意	-265
厉害	-266
瞧瞧	-267
万钟	-268
动手	-269
是谁	-270
死了	-271
爹爹	-272
过了	-273
中的	-274
地下	-275
夫人	-276
奶奶	-277
娘子	-278
真的	-279
耿万钟	-280
▁丁不四	-281
不见	-282
之极	-283
人人	-284
花万	-285
适才	-286
司徒	-287
声音	-288
天哥	-289
正是	-290
立时	-291
花万紫	-292
丈夫	-293
在下	-294
的大	-295
第一	-296
那个	-297
下去	-298
不起	-299
刀法	-300
却又	-301
就算	-302
玉儿	-303
脸色	-304
之上	-305
只觉	-306
同时	-307
瞧着	-308
那么	-309
十余	-310
却是	-311
虽然	-312
高三	-313
之人	-314
总舵	-315
我不	-316
给你	-317
道人	-318
▁阿绣	-319
高三娘子	-320
三个	-321
心道	-322
有些	-323
这才	-324
是不是	-325
了个	-326
他一	-327
却也	-328
大笑	-329
孩儿	-330
孩子	-331
居然	-332
在这里	-333
向他	-334
小说	-335
有的	-336
过来	-337
铁叉	-338
这一招	-339
件事	-340
你这	-341
十年	-342
各人	-343
手掌	-344
’,	-345
之事	-346
听到	-347
很好	-348
得很	-349
没有	-350
王万	-351
穴道	-352
许多	-353
道通	-354
雪山派的	-355
了这	-356
他是	-357
否则	-358
烧饼	-359
王万仞	-360
你不	-361
我是	-362
老人	-363
石夫人	-364
自己的	-365
贝先生	-366
不成	-367
他说	-368
少女	-369
肩头	-370
吴道通	-371
▁那少年	-372
不禁	-373
也好	-374
第二	-375
范一	-376
胸口	-377
高手	-378
为了	-379
大声	-380
孙女	-381
是你	-382
要杀	-383
随即	-384
的武功	-385
关东	-386
冲之	-387
叫我	-388
因此	-389
大伙	-390
天虚	-391
好了	-392
年纪	-393
旁人	-394
走到	-395
范一飞	-396
那老妇	-397
▁丁不三	-398
人物	-399
十八	-400
只得	-401
大夫	-402
此事	-403
神色	-404
老爷	-405
陈冲之	-406
上清	-407
兵刃	-408
得罪	-409
是不	-410
身来	-411
了出来	-412
大伙儿	-413
不及	-414
展飞	-415
当年	-416
母亲	-417
石壁	-418
各位	-419
听他	-420
摩天	-421
东西	-422
又道	-423
双剑	-424
只要	-425
回来	-426
手臂	-427
父母	-428
甚是	-429
说得	-430
▁白自在	-431
不料	-432
不错	-433
丝毫	-434
之际	-435
你是	-436
其实	-437
出了	-438
和他	-439
给我	-440
缓缓	-441
跟我	-442
错了	-443
上清观	-444
忽听得	-445
那小丐	-446
你一	-447
出一	-448
师叔	-449
想起	-450
慢慢	-451
站起	-452
转头	-453
这等	-454
半点	-455
只道	-456
名字	-457
多半	-458
始终	-459
寻思	-460
师妹	-461
我一	-462
杀人	-463
此时	-464
然不	-465
白痴	-466
的是	-467
眼前	-468
立即	-469
葫芦	-470
言语	-471
不知道	-472
也不知	-473
低声道	-474
忍不住	-475
老爷子	-476
谢先生	-477
向石破天	-478
不免	-479
似乎	-480
便要	-481
只须	-482
更加	-483
瘦子	-484
老者	-485
门派	-486
说不定	-487
石庄主夫妇	-488
上来	-489
之声	-490
了得	-491
单刀	-492
嘿嘿	-493
好生	-494
开了	-495
是以	-496
这几	-497
了口气	-498
江湖上	-499
金乌派	-500
。’	-501
一条	-502
了我	-503
何况	-504
又怎	-505
后来	-506
大叫	-507
当时	-508
此人	-509
白师	-510
丁珰道	-511
哈哈大笑	-512
石破天的	-513
主意	-514
十二	-515
大的	-516
擒拿	-517
泥人	-518
玄铁	-519
目光	-520
经脉	-521
罚恶	-522
腊八	-523
要我	-524
飞刀	-525
▁张三	-526
说什么	-527
这么一	-528
一惊	-529
七八	-530
两块	-531
便道	-532
口中	-533
哪知	-534
四人	-535
均想	-536
岛上	-537
提起	-538
暗暗	-539
片刻	-540
赏善	-541
难以	-542
了起来	-543
在地下	-544
摇头道	-545
石清道	-546
,“	-547
不愿	-548
不肯	-549
之前	-550
但见	-551
大悲	-552
好人	-553
少林	-554
显是	-555
欢喜	-556
的话	-557
转身	-558
那姓	-559
小丐道	-560
玄铁令	-561
其中	-562
去了	-563
周牧	-564
头顶	-565
手指	-566
抓住	-567
来的	-568
正平	-569
死尸	-570
而出	-571
自是	-572
金刀	-573
雪山剑法	-574
上前	-575
刚才	-576
又是	-577
大厅	-578
定是	-579
的事	-580
的人	-581
终于	-582
老婆	-583
芳姑	-584
说到	-585
还有	-586
老人家	-587
这件事	-588
不少	-589
便将	-590
却不	-591
又有	-592
忙道	-593
忽然	-594
怎地	-595
招数	-596
模样	-597
混蛋	-598
玄素	-599
站在	-600
这人	-601
了一眼	-602
吕正平	-603
突然间	-604
不用	-605
之外	-606
了你	-607
便在	-608
只听	-609
大有	-610
实在	-611
并不	-612
当然	-613
我这	-614
手下	-615
武学	-616
满了	-617
石郎	-618
银子	-619
腊八粥	-620
赏善罚恶	-621
不如	-622
分别	-623
啊哟	-624
坐在	-625
少爷	-626
放在	-627
有个	-628
清楚	-629
满脸	-630
群豪	-631
说来	-632
跟你	-633
了出去	-634
只不过	-635
木岛主	-636
▁龙岛主	-637
一动	-638
一阵	-639
不出	-640
不多	-641
先前	-642
再说	-643
剑招	-644
吓得	-645
回去	-646
大喜	-647
奇怪	-648
尽数	-649
干净	-650
得他	-651
手腕	-652
早已	-653
是啊	-654
法子	-655
老伯	-656
腰间	-657
摩天崖	-658
铁叉会	-659
▁石清道	-660
司徒帮主	-661
不了	-662
不再	-663
之处	-664
向后	-665
姊姊	-666
威德	-667
害怕	-668
成自	-669
本派	-670
男子	-671
群雄	-672
软鞭	-673
小兄弟	-674
成自学	-675
白师傅	-676
▁这	-677
下了	-678
会儿	-679
叫他	-680
叫做	-681
声响	-682
幸好	-683
无不	-684
有了	-685
生气	-686
眼睛	-687
胖子	-688
胡说	-689
身前	-690
身旁	-691
霎时	-692
大悲老人	-693
一剑	-694
一步	-695
不在	-696
两名	-697
倒也	-698
大粽	-699
奇道	-700
已然	-701
徒儿	-702
成了	-703
是在	-704
是好	-705
点了	-706
的小	-707
确是	-708
碧螺	-709
练功	-710
那就	-711
阿黄	-712
叹了口气	-713
威德先生	-714
微微一笑	-715
▁“	-716
一齐	-717
上去	-718
不动	-719
以为	-720
众位	-721
内息	-722
双掌	-723
反而	-724
叫你	-725
哪一	-726
四个	-727
在这	-728
多少	-729
安奉	-730
客气	-731
我也	-732
房中	-733
是他	-734
月初	-735
柯万	-736
着一	-737
着他	-738
石室	-739
石门	-740
觉得	-741
过一	-742
这是	-743
这老	-744
鲜血	-745
大粽子	-746
干什么	-747
点头道	-748
老伯伯	-749
两块铜牌	-750
雪山派弟子	-751
不去	-752
不识	-753
十天	-754
打败	-755
未必	-756
正在	-757
生怕	-758
给人	-759
走进	-760
躬身	-761
▁众人	-762
我二人	-763
柯万钧	-764
玄素庄	-765
这句话	-766
凌霄城中	-767
一刀	-768
一怔	-769
一片	-770
不论	-771
两步	-772
也已	-773
低声	-774
八道	-775
到得	-776
剑尖	-777
十三	-778
又问	-779
头来	-780
容易	-781
意思	-782
瞧去	-783
神情	-784
而去	-785
衣衫	-786
记得	-787
进来	-788
也不敢	-789
了下来	-790
安奉日	-791
米香主	-792
贝大夫	-793
和石破天	-794
”。	-795
一掌	-796
不要	-797
中原	-798
也就	-799
从来	-800
体内	-801
兀自	-802
其时	-803
再也	-804
半晌	-805
哥哥	-806
多谢	-807
妻子	-808
年来	-809
廖自	-810
心头	-811
忘了	-812
无法	-813
船头	-814
见过	-815
说了	-816
身后	-817
面前	-818
风良	-819
骂道	-820
他二人	-821
和阿绣	-822
廖自砺	-823
梅芳姑	-824
白师哥	-825
胡说八道	-826
金乌刀法	-827
▁史婆婆道	-828
一把	-829
一样	-830
万万	-831
不相	-832
九节	-833
人了	-834
便如	-835
冷冷	-836
几个	-837
出的	-838
剧毒	-839
听说	-840
大怒	-841
对他	-842
将这	-843
小弟	-844
然而	-845
糊涂	-846
走了	-847
走火	-848
这小	-849
那也	-850
那些	-851
钥匙	-852
也不能	-853
了过去	-854
声说道	-855
大声道	-856
微笑道	-857
我不是	-858
擒拿手	-859
▁耿万钟	-860
一直	-861
一股	-862
个个	-863
侯监	-864
古怪	-865
向前	-866
向来	-867
小翠	-868
得多	-869
怀中	-870
我就	-871
故意	-872
教过	-873
无人	-874
然道	-875
看来	-876
终究	-877
若是	-878
要他	-879
这两	-880
这可	-881
侯监集	-882
在一起	-883
心中一	-884
碧螺山	-885
不知如何	-886
点了点头	-887
长乐帮的	-888
▁石破天见	-889
一口	-890
一只	-891
一见	-892
三字	-893
之色	-894
从此	-895
似是	-896
便已	-897
她的	-898
才是	-899
挺剑	-900
料想	-901
本帮	-902
相貌	-903
纷纷	-904
而起	-905
脚步	-906
莫非	-907
转过	-908
进去	-909
随手	-910
什么事	-911
若不是	-912
一听	-913
下的	-914
为人	-915
之情	-916
二十	-917
从前	-918
佩服	-919
内劲	-920
出口	-921
到他	-922
功力	-923
又想	-924
吩咐	-925
喜欢	-926
定要	-927
对我	-928
就此	-929
屋顶	-930
得紧	-931
怎样	-932
我和	-933
手足	-934
指点	-935
敝帮	-936
本门	-937
沉吟	-938
照虚	-939
甚为	-940
的好	-941
腿上	-942
蝌蚪	-943
见了	-944
说过	-945
跟他	-946
那时	-947
露出	-948
顷刻	-949
一个人	-950
人人都	-951
冷笑道	-952
哪一个	-953
我妈妈	-954
颤声道	-955
白老爷子	-956
雪山弟子	-957
?’	-958
一言	-959
一面	-960
丁老	-961
万夫	-962
不对	-963
不必	-964
之内	-965
也都	-966
了去	-967
你瞧	-968
只盼	-969
图解	-970
在我	-971
在那	-972
大为	-973
大半	-974
大惊	-975
头上	-976
头发	-977
姓石	-978
小船	-979
属下	-980
开口	-981
感激	-982
我来	-983
有时	-984
毕竟	-985
渐渐	-986
罢了	-987
请你	-988
读者	-989
道理	-990
阿珰	-991
除了	-992
众兄弟	-993
的声音	-994
群弟子	-995
这些人	-996
闻万夫	-997
的一声响	-998
站起身来	-999
见石破天	-1000
一下	-1001
一双	-1002
一路	-1003
于是	-1004
从未	-1005
何必	-1006
你要	-1007
使者	-1008
修习	-1009
全然	-1010
去找	-1011
可以	-1012
可惜	-1013
嘻嘻	-1014
夫妻	-1015
娃娃	-1016
实是	-1017
对手	-1018
小心	-1019
左右	-1020
已经	-1021
并非	-1022
怎能	-1023
手铐	-1024
拆解	-1025
断了	-1026
来了	-1027
深厚	-1028
着实	-1029
聪明	-1030
贤弟	-1031
走出	-1032
还不	-1033
遇到	-1034
铁链	-1035
阴阳	-1036
龙木	-1037
▁那老	-1038
不多时	-1039
叫什么	-1040
和丁珰	-1041
孙女婿	-1042
花姑娘	-1043
手中长剑	-1044
突然之间	-1045
▁贝海石道	-1046
!’	-1047
一句	-1048
一名	-1049
一团	-1050
一日	-1051
一点	-1052
你又	-1053
你就	-1054
冷笑	-1055
到处	-1056
发出	-1057
呼延	-1058
大吃	-1059
师伯	-1060
并无	-1061
得到	-1062
得意	-1063
急忙	-1064
总是	-1065
我了	-1066
打开	-1067
接过	-1068
暗器	-1069
最好	-1070
杀他	-1071
比武	-1072
的名	-1073
真是	-1074
竟是	-1075
答应	-1076
老子	-1077
行礼	-1078
西北	-1079
要你	-1080
让他	-1081
还没	-1082
长门	-1083
门下	-1084
隐隐	-1085
须得	-1086
▁侍剑	-1087
一个个	-1088
也不会	-1089
也不是	-1090
了一声	-1091
了下去	-1092
却也不	-1093
另一个	-1094
当真是	-1095
月初八	-1096
金刀寨	-1097
▁只听得	-1098
一块	-1099
不同	-1100
不懂	-1101
两只	-1102
个儿	-1103
之心	-1104
但若	-1105
何以	-1106
使的	-1107
全无	-1108
决计	-1109
刺去	-1110
前来	-1111
十招	-1112
变成	-1113
四下	-1114
回头	-1115
回答	-1116
地方	-1117
坏人	-1118
好好	-1119
将你	-1120
小人	-1121
并肩	-1122
庙中	-1123
心里	-1124
招式	-1125
推开	-1126
无可	-1127
无数	-1128
显然	-1129
更无	-1130
更是	-1131
柴刀	-1132
比之	-1133
江中	-1134
疼痛	-1135
眉头	-1136
知他	-1137
石牢	-1138
磕头	-1139
答允	-1140
纵身	-1141
自勉	-1142
船舱	-1143
良久	-1144
要是	-1145
说是	-1146
贵帮	-1147
身边	-1148
连连	-1149
那便	-1150
那可	-1151
都已	-1152
重重	-1153
高强	-1154
了一口	-1155
二岛主	-1156
你怎么	-1157
吃了一	-1158
好不好	-1159
得罪了	-1160
想不到	-1161
柄长剑	-1162
认错了	-1163
这一下	-1164
齐自勉	-1165
▁那少女	-1166
封万里道	-1167
谢烟客道	-1168
长乐帮总舵	-1169
了两	-1170
了半	-1171
你既	-1172
凌厉	-1173
出招	-1174
剑术	-1175
却已	-1176
原是	-1177
吃了	-1178
圈子	-1179
壁上	-1180
好汉	-1181
学过	-1182
宝贝	-1183
得一	-1184
情景	-1185
惊呼	-1186
无礼	-1187
日后	-1188
早就	-1189
时辰	-1190
有所	-1191
未免	-1192
林中	-1193
桌上	-1194
正要	-1195
此后	-1196
求我	-1197
生平	-1198
用意	-1199
白的	-1200
相助	-1201
看得	-1202
而上	-1203
背心	-1204
衣服	-1205
说起	-1206
这招	-1207
这番	-1208
门外	-1209
▁只听	-1210
九节鞭	-1211
在自己	-1212
对不起	-1213
干净净	-1214
怎么办	-1215
的长剑	-1216
转头向	-1217
这一剑	-1218
这少年	-1219
那瘦子	-1220
冷冷地道	-1221
瞧了一眼	-1222
龙木二岛主	-1223
”、	-1224
一张	-1225
一眼	-1226
七人	-1227
上下	-1228
不久	-1229
不算	-1230
中间	-1231
之力	-1232
二使	-1233
他在	-1234
你也	-1235
你去	-1236
使出	-1237
便能	-1238
凝视	-1239
凶险	-1240
力道	-1241
半分	-1242
反手	-1243
四名	-1244
声息	-1245
小贼	-1246
帮中	-1247
开门	-1248
往往	-1249
恐怕	-1250
我可	-1251
抱着	-1252
木偶	-1253
毒手	-1254
毫不	-1255
洞中	-1256
父亲	-1257
理会	-1258
眼中	-1259
眼光	-1260
破绽	-1261
神功	-1262
种种	-1263
群道	-1264
耳朵	-1265
脾气	-1266
衣袖	-1267
身份	-1268
运气	-1269
这种	-1270
道长	-1271
险些	-1272
饶人	-1273
高明	-1274
黑白	-1275
齐声	-1276
▁只见	-1277
却不知	-1278
呼延万	-1279
地瞧着	-1280
师兄弟	-1281
柄飞刀	-1282
这一次	-1283
这两个	-1284
这孩子	-1285
那女子	-1286
闵柔道	-1287
陈香主	-1288
▁那老妇	-1289
丁不三道	-1290
大吃一惊	-1291
干干净净	-1292
过不多时	-1293
雪山派掌门人	-1294
▁第	-1295
一红	-1296
不上	-1297
中了	-1298
仍是	-1299
他虽	-1300
伤了	-1301
但他	-1302
偏偏	-1303
入了	-1304
其余	-1305
出声	-1306
剑锋	-1307
又惊	-1308
口道	-1309
可别	-1310
哪有	-1311
在后	-1312
奈何	-1313
好看	-1314
将我	-1315
小腹	-1316
左肩	-1317
帮众	-1318
待得	-1319
得了	-1320
我便	-1321
我又	-1322
我跟	-1323
所在	-1324
拱手	-1325
拳脚	-1326
文字	-1327
时候	-1328
明明	-1329
暗中	-1330
有点	-1331
本事	-1332
树枝	-1333
武当	-1334
永远	-1335
江南	-1336
汴梁	-1337
泪水	-1338
用力	-1339
留情	-1340
紫烟	-1341
给她	-1342
而行	-1343
脑袋	-1344
自行	-1345
船上	-1346
赞道	-1347
跃起	-1348
身材	-1349
都不	-1350
长长	-1351
闻到	-1352
阁下	-1353
一句话	-1354
伸手去	-1355
又惊又	-1356
就是了	-1357
朗声道	-1358
木兄弟	-1359
的内力	-1360
轻轻一	-1361
这么说	-1362
那少女	-1363
那汉子	-1364
高个儿	-1365
▁范一飞	-1366
你为什么	-1367
吃了一惊	-1368
呼延万善	-1369
一定	-1370
三十	-1371
不信	-1372
中毒	-1373
为他	-1374
主地	-1375
义气	-1376
九人	-1377
事情	-1378
人来	-1379
人都	-1380
你再	-1381
八九	-1382
再加	-1383
初时	-1384
劲风	-1385
喝酒	-1386
回到	-1387
大师	-1388
大病	-1389
太阳	-1390
妙谛	-1391
家伙	-1392
寻常	-1393
悄悄	-1394
想来	-1395
我去	-1396
抱拳	-1397
拼命	-1398
敌人	-1399
无比	-1400
是了	-1401
来越	-1402
树干	-1403
梁自	-1404
气死	-1405
生死	-1406
的心	-1407
真正	-1408
而来	-1409
至于	-1410
见她	-1411
规矩	-1412
轻功	-1413
这就	-1414
那日	-1415
”、“	-1416
▁冲虚	-1417
了一会	-1418
他们的	-1419
关东四	-1420
到底是	-1421
厉声道	-1422
又是一	-1423
和闵柔	-1424
大门派	-1425
总舵主	-1426
我师父	-1427
梁自进	-1428
衣汉子	-1429
衫弟子	-1430
越来越	-1431
▁丁珰道	-1432
▁石中玉	-1433
▁陈冲之	-1434
上凌霄城	-1435
他老人家	-1436
史婆婆道	-1437
着石破天	-1438
霎时之间	-1439
一场	-1440
一起	-1441
下手	-1442
不定	-1443
不绝	-1444
不胜	-1445
中年	-1446
了三	-1447
二字	-1448
人之	-1449
令人	-1450
会众	-1451
你别	-1452
到来	-1453
动弹	-1454
双目	-1455
双臂	-1456
发觉	-1457
受伤	-1458
另外	-1459
右臂	-1460
土地	-1461
在你	-1462
在她	-1463
外号	-1464
女儿	-1465
学得	-1466
将那	-1467
尽皆	-1468
左掌	-1469
已将	-1470
得好	-1471
微笑	-1472
怎会	-1473
性子	-1474
我要	-1475
我说	-1476
所以	-1477
所授	-1478
拿起	-1479
掌力	-1480
数十	-1481
既然	-1482
派的	-1483
渔村	-1484
眼色	-1485
瞧他	-1486
瞧得	-1487
离去	-1488
精神	-1489
纵然	-1490
老实	-1491
而下	-1492
联手	-1493
背后	-1494
船板	-1495
认得	-1496
谢某	-1497
豪杰	-1498
走吧	-1499
还手	-1500
远远	-1501
迟疑	-1502
顺着	-1503
▁这时	-1504
一口气	-1505
了一个	-1506
了不起	-1507
他夫妇	-1508
倒也不	-1509
岂不是	-1510
清楚楚	-1511
的弟子	-1512
那老人	-1513
阿绣道	-1514
三月初八	-1515
司徒大哥	-1516
清清楚楚	-1517
这几句话	-1518
金乌派的	-1519
▁高三娘子	-1520
一切	-1521
丁氏	-1522
不便	-1523
世上	-1524
也要	-1525
你想	-1526
使得	-1527
做了	-1528
光闪	-1529
别说	-1530
刷刷	-1531
剑柄	-1532
另一	-1533
叫化	-1534
号令	-1535
同门	-1536
后艄	-1537
听了	-1538
咳嗽	-1539
四字	-1540
在地	-1541
女侠	-1542
好像	-1543
好笑	-1544
姿式	-1545
学到	-1546
学艺	-1547
将她	-1548
小包	-1549
帮会	-1550
异常	-1551
得知	-1552
得胜	-1553
心神	-1554
快步	-1555
怒气	-1556
愚兄	-1557
我在	-1558
我那	-1559
手上	-1560
招架	-1561
教的	-1562
数招	-1563
时分	-1564
有趣	-1565
正好	-1566
此番	-1567
没了	-1568
然后	-1569
现下	-1570
的手	-1571
眼泪	-1572
碰到	-1573
神志	-1574
第三	-1575
红了	-1576
脸颊	-1577
要害	-1578
走开	-1579
身穿	-1580
辽东	-1581
过招	-1582
迷迷	-1583
重伤	-1584
风流	-1585
高兴	-1586
▁群雄	-1587
▁那人	-1588
但听得	-1589
你们的	-1590
在一旁	-1591
多半是	-1592
帮主的	-1593
白师兄	-1594
立时便	-1595
老混蛋	-1596
谁也不	-1597
身上的	-1598
▁忽听得	-1599
▁那老人	-1600
便在此时	-1601
又有什么	-1602
说到这里	-1603
贝海石道	-1604
长乐帮中	-1605
▁石清夫妇	-1606
得干干净净	-1607
一来	-1608
一生	-1609
一番	-1610
不明	-1611
不自	-1612
为难	-1613
乘机	-1614
今来	-1615
他便	-1616
他既	-1617
令他	-1618
以一	-1619
伤人	-1620
住他	-1621
何处	-1622
何等	-1623
便向	-1624
便宜	-1625
便有	-1626
便请	-1627
做声	-1628
全是	-1629
决不	-1630
前辈	-1631
劲力	-1632
取出	-1633
受了	-1634
变招	-1635
古往	-1636
叫人	-1637
台穴	-1638
同小	-1639
名叫	-1640
后心	-1641
向我	-1642
呼吸	-1643
咽喉	-1644
在外	-1645
大事	-1646
大大	-1647
大树	-1648
太太	-1649
女贼	-1650
好手	-1651
委实	-1652
子中	-1653
定了	-1654
寨主	-1655
小小	-1656
尴尬	-1657
岂有	-1658
岂能	-1659
已有	-1660
师娘	-1661
干吗	-1662
心念	-1663
急道	-1664
情势	-1665
惊惶	-1666
惊道	-1667
感到	-1668
手脚	-1669
摇了	-1670
摇晃	-1671
放下	-1672
教他	-1673
教我	-1674
无事	-1675
是否	-1676
横野	-1677
毒药	-1678
用心	-1679
竟会	-1680
竟然	-1681
而已	-1682
而死	-1683
若有	-1684
药酒	-1685
行事	-1686
被窝	-1687
要穴	-1688
认错	-1689
识得	-1690
该当	-1691
说的	-1692
走近	-1693
送了	-1694
逃走	-1695
陡然	-1696
难过	-1697
▁两人	-1698
▁天虚	-1699
丝毫不	-1700
也不用	-1701
众弟子	-1702
住了他	-1703
你奶奶	-1704
全然不	-1705
到哪里	-1706
名弟子	-1707
向自己	-1708
大家都	-1709
孙女儿	-1710
尤得胜	-1711
泥人儿	-1712
灵台穴	-1713
瘦二人	-1714
的汉子	-1715
米横野	-1716
肝宝贝	-1717
自主地	-1718
见帮主	-1719
这二人	-1720
霎时间	-1721
▁那胖子	-1722
两位哥哥	-1723
古往今来	-1724
呼的一声	-1725
哈哈一笑	-1726
土地庙中	-1727
白万剑道	-1728
长门弟子	-1729
▁白万剑道	-1730
雪山派剑法	-1731
一沉	-1732
一碗	-1733
不下	-1734
不但	-1735
不像	-1736
不行	-1737
两截	-1738
中有	-1739
也有	-1740
仍然	-1741
以后	-1742
以致	-1743
伤疤	-1744
伸出	-1745
你了	-1746
你可	-1747
你怎	-1748
你真	-1749
便不	-1750
便去	-1751
修为	-1752
全力	-1753
凝神	-1754
几乎	-1755
几句	-1756
几时	-1757
出现	-1758
出言	-1759
刀剑	-1760
别人	-1761
力气	-1762
千万	-1763
半空	-1764
发作	-1765
发抖	-1766
变化	-1767
只想	-1768
右掌	-1769
吴钩	-1770
呛啷	-1771
和我	-1772
商议	-1773
善恶	-1774
喝了	-1775
固然	-1776
多大	-1777
大了	-1778
大骂	-1779
好吧	-1780
子来	-1781
子的	-1782
宁可	-1783
容貌	-1784
对付	-1785
尚未	-1786
居士	-1787
待会	-1788
得住	-1789
快去	-1790
总算	-1791
惭愧	-1792
愚茶	-1793
或许	-1794
打得	-1795
抵挡	-1796
担心	-1797
拔出	-1798
招招	-1799
挡开	-1800
挥出	-1801
敌手	-1802
斜身	-1803
施展	-1804
无耻	-1805
最后	-1806
有何	-1807
来啦	-1808
此处	-1809
此言	-1810
武艺	-1811
气寒	-1812
注解	-1813
甬道	-1814
直到	-1815
着的	-1816
祖师	-1817
笑话	-1818
而然	-1819
而立	-1820
背上	-1821
解开	-1822
身形	-1823
躲在	-1824
还礼	-1825
这套	-1826
这次	-1827
避开	-1828
那边	-1829
铁片	-1830
闷香	-1831
面子	-1832
飞出	-1833
三十年	-1834
不相同	-1835
了一条	-1836
什么都	-1837
从来没	-1838
你不是	-1839
充满了	-1840
十八路	-1841
可不是	-1842
好得很	-1843
姓石的	-1844
我自己	-1845
找不到	-1846
根手指	-1847
梅女侠	-1848
这许多	-1849
那老者	-1850
▁那小丐	-1851
侍剑姊姊	-1852
侯监集上	-1853
和白万剑	-1854
摇了摇头	-1855
摩天居士	-1856
朗声说道	-1857
气寒西北	-1858
气死我了	-1859
胖瘦二人	-1860
自然而然	-1861
认错了人	-1862
说不出的	-1863
这位大哥	-1864
雪山派中	-1865
▁石破天心想	-1866
一件	-1867
一震	-1868
一颗	-1869
下山	-1870
不大	-1871
不妨	-1872
不尽	-1873
不想	-1874
世兄	-1875
也无	-1876
也难	-1877
了吧	-1878
二位	-1879
人多	-1880
仁厚	-1881
他又	-1882
以及	-1883
但愿	-1884
你如	-1885
先行	-1886
全帮	-1887
别的	-1888
前面	-1889
动了	-1890
却没	-1891
又再	-1892
双脚	-1893
只好	-1894
右腿	-1895
叹道	-1896
呆了	-1897
喀喇	-1898
图谱	-1899
在旁	-1900
奔到	-1901
好意	-1902
妈的	-1903
官差	-1904
小二	-1905
尚有	-1906
尸身	-1907
左臂	-1908
强劲	-1909
快快	-1910
想要	-1911
感情	-1912
成为	-1913
我没	-1914
我看	-1915
手持	-1916
打听	-1917
挥刀	-1918
掌中	-1919
救人	-1920
数丈	-1921
来历	-1922
来得	-1923
武侠	-1924
毙命	-1925
江水	-1926
火神	-1927
物事	-1928
狂妄	-1929
狠辣	-1930
生的	-1931
疯子	-1932
的神	-1933
相似	-1934
相救	-1935
着脸	-1936
祖孙	-1937
精妙	-1938
结拜	-1939
缦胡	-1940
罗汉	-1941
老大	-1942
胜于	-1943
自当	-1944
自知	-1945
自称	-1946
舒服	-1947
要将	-1948
越快	-1949
输了	-1950
过得	-1951
过的	-1952
退后	-1953
送到	-1954
道士	-1955
馒头	-1956
了几下	-1957
他性命	-1958
你武功	-1959
决不会	-1960
十余招	-1961
四爷爷	-1962
店小二	-1963
模一样	-1964
没什么	-1965
火神龙	-1966
的剑法	-1967
的功夫	-1968
过头来	-1969
这样的	-1970
那死尸	-1971
顷刻间	-1972
▁花万紫	-1973
了一会儿	-1974
喝腊八粥	-1975
在江湖上	-1976
在石破天	-1977
手下留情	-1978
石壁上的	-1979
碧螺山去	-1980
英雄好汉	-1981
那少年道	-1982
风火神龙	-1983
▁龙岛主道	-1984
长乐帮帮主	-1985
▁又	-1986
一世	-1987
一些	-1988
一根	-1989
丁家	-1990
三名	-1991
不休	-1992
不断	-1993
不服	-1994
不说	-1995
中所	-1996
之旁	-1997
之物	-1998
乱跳	-1999
了开	-2000
二哥	-2001
今天	-2002
他不	-2003
休息	-2004
但觉	-2005
但这	-2006
你有	-2007
你没	-2008
依着	-2009
侠义	-2010
便知	-2011
便走	-2012
克制	-2013
全神	-2014
再来	-2015
匹马	-2016
只一	-2017
向外	-2018
君子	-2019
听着	-2020
呼呼	-2021
喝彩	-2022
四周	-2023
多年	-2024
大变	-2025
大爷	-2026
大胆	-2027
天地	-2028
好玩	-2029
姓名	-2030
定然	-2031
害死	-2032
少阳	-2033
带着	-2034
年轻	-2035
床上	-2036
强盗	-2037
当日	-2038
得上	-2039
心惊	-2040
忘记	-2041
念头	-2042
恩公	-2043
成名	-2044
房门	-2045
才好	-2046
打我	-2047
打扰	-2048
找寻	-2049
拉着	-2050
拔剑	-2051
拾起	-2052
指着	-2053
接到	-2054
故事	-2055
数日	-2056
文馨	-2057
既已	-2058
既是	-2059
有余	-2060
气息	-2061
求你	-2062
热气	-2063
燕窝	-2064
甚好	-2065
生了	-2066
留在	-2067
的脸	-2068
相对	-2069
相斗	-2070
着手	-2071
禁地	-2072
稍有	-2073
糊糊	-2074
素来	-2075
经过	-2076
结义	-2077
绝无	-2078
老儿	-2079
而同	-2080
胜败	-2081
脚下	-2082
自大	-2083
自幼	-2084
话来	-2085
该死	-2086
起了	-2087
跟随	-2088
跪倒	-2089
这场	-2090
连声	-2091
邀宴	-2092
邀请	-2093
那位	-2094
都有	-2095
醒转	-2096
重大	-2097
铐镣	-2098
门的	-2099
闪避	-2100
震得	-2101
面目	-2102
颇有	-2103
风声	-2104
飞鱼	-2105
高人	-2106
▁原来	-2107
▁当下	-2108
一个大	-2109
不出来	-2110
不过三	-2111
了一步	-2112
众师弟	-2113
十余人	-2114
只见他	-2115
可不能	-2116
史小翠	-2117
同小可	-2118
大弟子	-2119
小娃娃	-2120
我夫妇	-2121
我怎么	-2122
插口道	-2123
柔声道	-2124
没想到	-2125
的言语	-2126
石室中	-2127
胡大哥	-2128
那姑娘	-2129
那胖子	-2130
阿绣的	-2131
飞鱼帮	-2132
丁珰笑道	-2133
侠客岛去	-2134
侠客岛的	-2135
嗤的一声	-2136
如何是好	-2137
妙谛大师	-2138
摩天崖上	-2139
武侠小说	-2140
武林中的	-2141
紫烟岛上	-2142
迷迷糊糊	-2143
那老妇道	-2144
非同小可	-2145
黑白双剑	-2146
▁封万里道	-2147
向石破天道	-2148
是什么东西	-2149
史婆婆和阿绣	-2150
,‘	-2151
一柄	-2152
丁三	-2153
下三	-2154
下落	-2155
不理	-2156
不约	-2157
两字	-2158
临头	-2159
乃是	-2160
之所	-2161
之手	-2162
之言	-2163
也真	-2164
交情	-2165
亲眼	-2166
亲自	-2167
他为	-2168
令郎	-2169
传授	-2170
伸掌	-2171
住口	-2172
你若	-2173
侧头	-2174
假的	-2175
假装	-2176
像是	-2177
关心	-2178
再好	-2179
却见	-2180
厅上	-2181
又不	-2182
双双	-2183
反正	-2184
变色	-2185
另有	-2186
可笑	-2187
可说	-2188
吃饭	-2189
咳咳	-2190
喃喃	-2191
嗔道	-2192
嗤嗤	-2193
围攻	-2194
大驾	-2195
天谢	-2196
女人	-2197
她说	-2198
好处	-2199
岂不	-2200
平安	-2201
平平	-2202
廖的	-2203
当先	-2204
心上	-2205
我想	-2206
或是	-2207
所知	-2208
打架	-2209
折断	-2210
掌法	-2211
掷出	-2212
摔倒	-2213
擒住	-2214
放了	-2215
数百	-2216
无论	-2217
是非	-2218
望去	-2219
本领	-2220
树后	-2221
梅花	-2222
没人	-2223
浑厚	-2224
海中	-2225
灵虚	-2226
烈火	-2227
煮饭	-2228
爪手	-2229
相信	-2230
眼下	-2231
破口	-2232
窗外	-2233
站着	-2234
竟将	-2235
端的	-2236
等一	-2237
粗浅	-2238
而不	-2239
胆子	-2240
自尽	-2241
茫然	-2242
落地	-2243
蓦地	-2244
要紧	-2245
言道	-2246
讯息	-2247
设法	-2248
识字	-2249
话说	-2250
误会	-2251
说他	-2252
转眼	-2253
轻易	-2254
过他	-2255
还在	-2256
这话	-2257
远处	-2258
通红	-2259
那一	-2260
里的	-2261
里面	-2262
野猪	-2263
门户	-2264
随着	-2265
雪花	-2266
面相	-2267
马蹄	-2268
骇然	-2269
:“‘	-2270
▁那姓	-2271
一会儿	-2272
一颗心	-2273
七十二	-2274
上一步	-2275
不见了	-2276
也未必	-2277
也没有	-2278
了一阵	-2279
了过来	-2280
些什么	-2281
他妈的	-2282
他武功	-2283
你是我	-2284
原来是	-2285
向石清	-2286
周世兄	-2287
哪一位	-2288
安寨主	-2289
将出来	-2290
少林寺	-2291
少林派	-2292
每一招	-2293
眼见他	-2294
笑嘻嘻	-2295
虎爪手	-2296
谢天谢	-2297
跟我说	-2298
那人道	-2299
镣手铐	-2300
▁安奉日	-2301
▁王万仞	-2302
▁那瘦子	-2303
两位岛主	-2304
也没什么	-2305
也没有了	-2306
你这小子	-2307
使九节鞭	-2308
侠客岛上	-2309
半点声息	-2310
善恶二使	-2311
大声叫道	-2312
将石破天	-2313
无论如何	-2314
李四二人	-2315
武功高强	-2316
砰的一声	-2317
过了良久	-2318
还有什么	-2319
这么一来	-2320
那高个儿	-2321
不由自主地	-2322
▁一	-2323
▁她	-2324
一会	-2325
一座	-2326
一笔	-2327
一道	-2328
上乘	-2329
不停	-2330
不四	-2331
不怕	-2332
不接	-2333
不敌	-2334
不易	-2335
不清	-2336
不着	-2337
不管	-2338
不觉	-2339
不足	-2340
不通	-2341
且慢	-2342
两声	-2343
两条	-2344
丫头	-2345
之地	-2346
了些	-2347
了的	-2348
二来	-2349
于他	-2350
五个	-2351
仔细	-2352
任由	-2353
但想	-2354
你到	-2355
使剑	-2356
侥幸	-2357
便会	-2358
便欲	-2359
免得	-2360
六个	-2361
其后	-2362
冲着	-2363
几天	-2364
几步	-2365
出于	-2366
出房	-2367
出版	-2368
分手	-2369
剑伤	-2370
加害	-2371
危急	-2372
双眼	-2373
双足	-2374
反击	-2375
取胜	-2376
只管	-2377
右肩	-2378
向她	-2379
和你	-2380
在前	-2381
在此	-2382
坚儿	-2383
外人	-2384
大名	-2385
失色	-2386
好啦	-2387
好在	-2388
好极	-2389
妇人	-2390
学了	-2391
学会	-2392
室中	-2393
对望	-2394
少阴	-2395
就没	-2396
左足	-2397
已在	-2398
应道	-2399
当世	-2400
当作	-2401
心事	-2402
快说	-2403
怔怔	-2404
急于	-2405
恼怒	-2406
想必	-2407
惶恐	-2408
成春	-2409
我把	-2410
手法	-2411
扶起	-2412
抓起	-2413
招呼	-2414
放屁	-2415
教训	-2416
数寸	-2417
斗得	-2418
明知	-2419
本想	-2420
本是	-2421
松江	-2422
柿子	-2423
每个	-2424
比拼	-2425
毫无	-2426
法门	-2427
淡淡	-2428
深深	-2429
爹娘	-2430
牙齿	-2431
犯上	-2432
男女	-2433
疑团	-2434
相距	-2435
眼看	-2436
离开	-2437
稀奇	-2438
纵横	-2439
线路	-2440
老三	-2441
而且	-2442
肚子	-2443
脱手	-2444
脱身	-2445
自从	-2446
艄公	-2447
艘船	-2448
良心	-2449
被子	-2450
西域	-2451
要去	-2452
解释	-2453
诛灭	-2454
话声	-2455
诧异	-2456
语气	-2457
语音	-2458
说我	-2459
请柬	-2460
诸般	-2461
贵派	-2462
踏上	-2463
身侧	-2464
轻响	-2465
轿中	-2466
较量	-2467
退开	-2468
送命	-2469
遇上	-2470
那样	-2471
钻研	-2472
镇上	-2473
镇江	-2474
长江	-2475
难当	-2476
颇为	-2477
饶了	-2478
首脑	-2479
香气	-2480
骂我	-2481
▁周牧	-2482
▁这一	-2483
三个人	-2484
不明白	-2485
不能再	-2486
了一顿	-2487
了几句	-2488
二十年	-2489
他心中	-2490
你不用	-2491
傻小子	-2492
大厅上	-2493
害死了	-2494
将下来	-2495
将自己	-2496
愚夫妇	-2497
成一团	-2498
我也不	-2499
我叫你	-2500
打了个	-2501
抓住了	-2502
梅文馨	-2503
爷爷的	-2504
登时便	-2505
自然是	-2506
见到他	-2507
说不出	-2508
运内力	-2509
这中间	-2510
面相觑	-2511
▁梅芳姑	-2512
▁雪山派	-2513
丁不三的	-2514
丁不四道	-2515
丁氏兄弟	-2516
不会武功	-2517
不约而同	-2518
不自禁地	-2519
你老人家	-2520
你说什么	-2521
关东群豪	-2522
到凌霄城	-2523
动弹不得	-2524
十天之内	-2525
又惊又喜	-2526
啪的一声	-2527
回过头来	-2528
小弟夫妇	-2529
心肝宝贝	-2530
我不知道	-2531
来到中原	-2532
江湖上的	-2533
白自在的	-2534
着手成春	-2535
脸上一红	-2536
谢天谢地	-2537
转过身来	-2538
面面相觑	-2539
龙岛主道	-2540
▁便在此时	-2541
一日不过三	-2542
在凌霄城中	-2543
长乐帮群豪	-2544
十八路擒拿手	-2545
石破天摇头道	-2546
’。	-2547
一一	-2548
一出	-2549
一年	-2550
一株	-2551
一闪	-2552
三位	-2553
不似	-2554
不转	-2555
不轻	-2556
不远	-2557
为之	-2558
举剑	-2559
之势	-2560
之命	-2561
之法	-2562
亲热	-2563
人一	-2564
他想	-2565
他知	-2566
以免	-2567
以前	-2568
伤痕	-2569
余人	-2570
你倒	-2571
你却	-2572
便了	-2573
便似	-2574
便可	-2575
便行	-2576
便问	-2577
俯身	-2578
倒是	-2579
做饭	-2580
元澄	-2581
光临	-2582
克星	-2583
入门	-2584
六合	-2585
冒充	-2586
几人	-2587
几名	-2588
出剑	-2589
出神	-2590
刀柄	-2591
到第	-2592
剑上	-2593
半天	-2594
却听	-2595
去向	-2596
又去	-2597
又将	-2598
又要	-2599
双膝	-2600
口边	-2601
只因	-2602
右腕	-2603
各处	-2604
向下	-2605
呆呆	-2606
喉头	-2607
喜道	-2608
喝干	-2609
图形	-2610
在舱	-2611
坐下	-2612
堂中	-2613
大作	-2614
大侠	-2615
大感	-2616
头皮	-2617
女拈	-2618
好歹	-2619
好酒	-2620
威力	-2621
威名	-2622
安慰	-2623
定会	-2624
小舟	-2625
展开	-2626
山上	-2627
岂知	-2628
师门	-2629
应付	-2630
底下	-2631
店中	-2632
开山	-2633
弯刀	-2634
意欲	-2635
手里	-2636
才能	-2637
打扮	-2638
打死	-2639
打通	-2640
找到	-2641
拿了	-2642
挣扎	-2643
挥剑	-2644
掠过	-2645
放心	-2646
数年	-2647
旁敲	-2648
无踪	-2649
昏迷	-2650
显得	-2651
晚上	-2652
有过	-2653
未曾	-2654
本已	-2655
杀你	-2656
杀我	-2657
杨光	-2658
松针	-2659
极少	-2660
桌旁	-2661
此物	-2662
死不	-2663
比剑	-2664
比我	-2665
气得	-2666
流下	-2667
深山	-2668
烦恼	-2669
犹似	-2670
狠狠	-2671
猜想	-2672
王八	-2673
甚高	-2674
白马	-2675
的了	-2676
的情	-2677
的那	-2678
直响	-2679
真有	-2680
眼里	-2681
着玩	-2682
着那	-2683
空手	-2684
穿过	-2685
竟没	-2686
端起	-2687
笑容	-2688
纵声	-2689
练得	-2690
老天	-2691
老是	-2692
肚腹	-2693
自语	-2694
若非	-2695
菜肴	-2696
落下	-2697
落在	-2698
行动	-2699
表现	-2700
说完	-2701
请坐	-2702
贯注	-2703
走去	-2704
踏步	-2705
踏进	-2706
身受	-2707
轻薄	-2708
辈子	-2709
迅速	-2710
还道	-2711
进房	-2712
都要	-2713
酸麻	-2714
非但	-2715
顺手	-2716
颤动	-2717
高深	-2718
鬼头	-2719
?”“	-2720
▁展飞	-2721
▁眼见	-2722
。’”	-2723
一个小	-2724
丁老三	-2725
丁老四	-2726
下三滥	-2727
不知他	-2728
为两截	-2729
也是一	-2730
了一大	-2731
了他的	-2732
什么的	-2733
从怀中	-2734
你师父	-2735
侠客行	-2736
决不能	-2737
却不是	-2738
又何必	-2739
呼的一	-2740
四下里	-2741
在哪里	-2742
大丈夫	-2743
大大的	-2744
天下无	-2745
女拈针	-2746
对自己	-2747
封师兄	-2748
封师哥	-2749
小叫化	-2750
得多了	-2751
我本来	-2752
我瞧瞧	-2753
我跟你	-2754
打败了	-2755
料不到	-2756
松江府	-2757
果然是	-2758
烧饼铺	-2759
的人物	-2760
的内功	-2761
的女子	-2762
的少年	-2763
的模样	-2764
第二个	-2765
老太太	-2766
老疯子	-2767
船舱中	-2768
要杀他	-2769
讲义气	-2770
跟你说	-2771
这老儿	-2772
那么你	-2773
闹着玩	-2774
▁柯万钧	-2775
也不知道	-2776
了这许多	-2777
向白万剑	-2778
喝了一口	-2779
在他身上	-2780
天虚道人	-2781
愚茶道长	-2782
放在心上	-2783
无可奈何	-2784
玉女拈针	-2785
石破天一	-2786
躬身行礼	-2787
送了性命	-2788
黄衫弟子	-2789
▁丁不三道	-2790
▁耿万钟道	-2791
石破天奇道	-2792
铁叉会会众	-2793
雪山派掌门	-2794
关东四大门派	-2795
长乐帮的帮主	-2796
▁但	-2797
▁在	-2798
一探	-2799
一滴	-2800
一遍	-2801
三弟	-2802
上岸	-2803
上手	-2804
上有	-2805
上门	-2806
上风	-2807
不三	-2808
不值	-2809
不做	-2810
不许	-2811
世务	-2812
中一	-2813
中又	-2814
中国	-2815
临敌	-2816
主人	-2817
举手	-2818
之余	-2819
之类	-2820
九九	-2821
也得	-2822
了来	-2823
五人	-2824
交给	-2825
交集	-2826
人情	-2827
从他	-2828
他就	-2829
任何	-2830
伤心	-2831
伸指	-2832
何不	-2833
作品	-2834
你叫	-2835
你快	-2836
偶尔	-2837
先后	-2838
关头	-2839
再看	-2840
冤家	-2841
冯振	-2842
凝聚	-2843
几下	-2844
出掌	-2845
出鞘	-2846
分心	-2847
刺来	-2848
势必	-2849
勉强	-2850
十多	-2851
半夜	-2852
半截	-2853
卖饼	-2854
危难	-2855
却仍	-2856
又向	-2857
发现	-2858
只能	-2859
可就	-2860
叱喝	-2861
听来	-2862
告辞	-2863
和人	-2864
哭道	-2865
嘴里	-2866
回事	-2867
坐起	-2868
坐骑	-2869
复原	-2870
大功	-2871
大盛	-2872
大都	-2873
大门	-2874
天色	-2875
头脑	-2876
奔行	-2877
好端	-2878
如果	-2879
妙极	-2880
姓丁	-2881
学武	-2882
尊驾	-2883
小儿	-2884
左脚	-2885
左腿	-2886
平时	-2887
开来	-2888
归来	-2889
当众	-2890
当地	-2891
待我	-2892
徒弟	-2893
得满	-2894
得远	-2895
心愿	-2896
快走	-2897
怀里	-2898
怒喝	-2899
怕了	-2900
急速	-2901
恭谨	-2902
悬枢	-2903
情由	-2904
惊异	-2905
惊讶	-2906
我已	-2907
或者	-2908
所教	-2909
手忙	-2910
打了	-2911
打你	-2912
扶着	-2913
抢到	-2914
抱住	-2915
掌上	-2916
接住	-2917
接连	-2918
放开	-2919
断剑	-2920
斯文	-2921
旁观	-2922
无知	-2923
无穷	-2924
早知	-2925
暗自	-2926
最多	-2927
有之	-2928
杀死	-2929
树林	-2930
梅雪	-2931
梦中	-2932
欺侮	-2933
正自	-2934
每日	-2935
沉重	-2936
活着	-2937
淋漓	-2938
滚去	-2939
爱子	-2940
犯了	-2941
狗熊	-2942
甚多	-2943
畜生	-2944
眼望	-2945
眼睁	-2946
眼花	-2947
穴上	-2948
等等	-2949
筋斗	-2950
算是	-2951
管教	-2952
素闻	-2953
缓步	-2954
而至	-2955
肌肤	-2956
胆敢	-2957
腹中	-2958
船家	-2959
草丛	-2960
荒山	-2961
药物	-2962
莫怪	-2963
衣襟	-2964
要不	-2965
讥刺	-2966
记忆	-2967
说出	-2968
贱人	-2969
赶到	-2970
身周	-2971
转念	-2972
迅捷	-2973
过意	-2974
还能	-2975
递给	-2976
通虚	-2977
避过	-2978
都给	-2979
醒了	-2980
门规	-2981
随时	-2982
难得	-2983
青年	-2984
顿足	-2985
额头	-2986
骗子	-2987
黯然	-2988
▁李四	-2989
七十三	-2990
不得了	-2991
不敢再	-2992
两人都	-2993
个明白	-2994
之极的	-2995
也不过	-2996
了一下	-2997
了几声	-2998
了开去	-2999
了进去	-3000
他不知	-3001
你到底	-3002
你叫我	-3003
你心中	-3004
你爹爹	-3005
你自己	-3006
便听得	-3007
冯振武	-3008
又不是	-3009
又有谁	-3010
听到了	-3011
呛啷啷	-3012
咱二人	-3013
哪知他	-3014
多谢你	-3015
大踏步	-3016
天大的	-3017
姓白的	-3018
将下去	-3019
将过来	-3020
小丫头	-3021
总不能	-3022
我知道	-3023
我自然	-3024
数十年	-3025
明白了	-3026
杀了他	-3027
柄铁叉	-3028
沉吟道	-3029
温仁厚	-3030
耳听得	-3031
花师妹	-3032
这两位	-3033
避开了	-3034
那女贼	-3035
鬼头刀	-3036
一模一样	-3037
为什么要	-3038
低声问道	-3039
全神贯注	-3040
去侠客岛	-3041
吴道通的	-3042
大不相同	-3043
开口说话	-3044
心念一动	-3045
武林中人	-3046
满脸通红	-3047
破口大骂	-3048
闵柔夫妇	-3049
顿了一顿	-3050
▁张三笑道	-3051
叫什么名字	-3052
在紫烟岛上	-3053
眼见石破天	-3054
石破天笑道	-3055
自然而然地	-3056
雪山剑法的	-3057
▁石清和闵柔	-3058
赏善罚恶使者	-3059
一事	-3060
一字	-3061
一指	-3062
一枚	-3063
一皱	-3064
七十	-3065
万分	-3066
丈许	-3067
三天	-3068
三步	-3069
上船	-3070
上马	-3071
下属	-3072
不发	-3073
不合	-3074
不够	-3075
不小	-3076
不快	-3077
不来	-3078
不致	-3079
不语	-3080
世界	-3081
两处	-3082
举止	-3083
之位	-3084
之士	-3085
之理	-3086
乖乖	-3087
也必	-3088
也能	-3089
了吗	-3090
了搔	-3091
了数	-3092
二月	-3093
二百	-3094
于你	-3095
五六	-3096
五指	-3097
交代	-3098
今后	-3099
他也	-3100
他只	-3101
他自	-3102
他连	-3103
传来	-3104
作者	-3105
你在	-3106
你来	-3107
你记	-3108
侧击	-3109
便逃	-3110
信将	-3111
做梦	-3112
儿的	-3113
充满	-3114
光照	-3115
入魔	-3116
八方	-3117
共有	-3118
其他	-3119
其妙	-3120
内心	-3121
再杀	-3122
写的	-3123
冰碧	-3124
几声	-3125
刀锋	-3126
列位	-3127
到你	-3128
刺出	-3129
前往	-3130
剑光	-3131
剧震	-3132
十之	-3133
半边	-3134
却在	-3135
去看	-3136
参研	-3137
又如	-3138
又来	-3139
取过	-3140
只剩	-3141
可喜	-3142
可有	-3143
可比	-3144
可没	-3145
可真	-3146
名不	-3147
吐露	-3148
向你	-3149
听见	-3150
呜咽	-3151
味道	-3152
呼叫	-3153
唿哨	-3154
四支	-3155
在内	-3156
坐倒	-3157
声势	-3158
声色	-3159
处处	-3160
处置	-3161
多了	-3162
多日	-3163
大发	-3164
大呼	-3165
大开	-3166
大是	-3167
大腿	-3168
大难	-3169
太过	-3170
失望	-3171
奇了	-3172
奔跑	-3173
好事	-3174
好的	-3175
安排	-3176
官人	-3177
宝剑	-3178
小命	-3179
尸首	-3180
屋中	-3181
岂敢	-3182
左首	-3183
已是	-3184
带了	-3185
干的	-3186
干系	-3187
平常	-3188
并没	-3189
开心	-3190
引见	-3191
形式	-3192
待他	-3193
得出	-3194
得甚	-3195
得过	-3196
微一	-3197
微感	-3198
忌惮	-3199
忍耐	-3200
忠厚	-3201
快刀	-3202
快马	-3203
恍然	-3204
恰好	-3205
我再	-3206
我只	-3207
我怎	-3208
我有	-3209
我真	-3210
我瞧	-3211
所使	-3212
所学	-3213
所绘	-3214
手按	-3215
才道	-3216
打个	-3217
投江	-3218
投海	-3219
抢攻	-3220
护住	-3221
报仇	-3222
按住	-3223
挡架	-3224
掌心	-3225
探头	-3226
掷去	-3227
提到	-3228
插在	-3229
撞到	-3230
收回	-3231
放入	-3232
料到	-3233
方位	-3234
方能	-3235
无力	-3236
无地	-3237
无异	-3238
无影	-3239
无恙	-3240
时刻	-3241
暂且	-3242
更没	-3243
曾听	-3244
最高	-3245
有气	-3246
有礼	-3247
服侍	-3248
杀得	-3249
正中	-3250
正想	-3251
死鬼	-3252
毒酒	-3253
沿着	-3254
滋味	-3255
满是	-3256
满腹	-3257
火酒	-3258
点点	-3259
牢牢	-3260
犬子	-3261
犹如	-3262
现出	-3263
现身	-3264
理睬	-3265
甚至	-3266
生性	-3267
生生	-3268
男人	-3269
疑心	-3270
白老	-3271
的狗	-3272
盘桓	-3273
相交	-3274
相见	-3275
看了	-3276
真相	-3277
社会	-3278
神态	-3279
稀松	-3280
究竟	-3281
窗子	-3282
竟也	-3283
第十	-3284
索性	-3285
累得	-3286
繁复	-3287
纵跃	-3288
练剑	-3289
绝技	-3290
继续	-3291
罕见	-3292
美貌	-3293
老四	-3294
老夫	-3295
而复	-3296
而过	-3297
耳中	-3298
胡子	-3299
胡闹	-3300
脚乱	-3301
自言	-3302
自负	-3303
至少	-3304
舌头	-3305
舱中	-3306
船中	-3307
艺术	-3308
苍老	-3309
若要	-3310
苦苦	-3311
荒唐	-3312
虎猛	-3313
虽是	-3314
虽高	-3315
血迹	-3316
行人	-3317
行走	-3318
裤管	-3319
观看	-3320
角边	-3321
解药	-3322
言下	-3323
诡计	-3324
谁是	-3325
谈论	-3326
越说	-3327
跪下	-3328
运力	-3329
运劲	-3330
这份	-3331
这对	-3332
这条	-3333
退出	-3334
道路	-3335
都会	-3336
金龙	-3337
门边	-3338
闪身	-3339
问你	-3340
随口	-3341
难听	-3342
难怪	-3343
难逃	-3344
难题	-3345
青气	-3346
青龙	-3347
鞭法	-3348
食指	-3349
高高	-3350
麻雀	-3351
齐的	-3352
’!”	-3353
▁小丐	-3354
一个字	-3355
一个是	-3356
一件事	-3357
丁三爷	-3358
不喜欢	-3359
不是我	-3360
不要脸	-3361
不起来	-3362
不转睛	-3363
不过来	-3364
为人所	-3365
九九丸	-3366
也不禁	-3367
也不肯	-3368
了半天	-3369
从来不	-3370
他母亲	-3371
何香主	-3372
你儿子	-3373
侍剑道	-3374
信将疑	-3375
倘若我	-3376
做帮主	-3377
光闪闪	-3378
全身发	-3379
再加上	-3380
出来了	-3381
出来的	-3382
到了一	-3383
变成了	-3384
名其妙	-3385
回来了	-3386
多了一	-3387
大厅中	-3388
大雪山	-3389
小孩子	-3390
就算是	-3391
年纪虽	-3392
得饶人	-3393
心中却	-3394
怎么了	-3395
悬枢穴	-3396
我兄弟	-3397
我爹爹	-3398
打死了	-3399
拜天地	-3400
搔了搔	-3401
是我的	-3402
朋友们	-3403
武功的	-3404
浑小子	-3405
渔村中	-3406
爷爷说	-3407
玄冰碧	-3408
的刀法	-3409
的帮主	-3410
的性命	-3411
的手掌	-3412
的招数	-3413
的神色	-3414
瞧不起	-3415
石壁上	-3416
石大哥	-3417
老天爷	-3418
要杀我	-3419
身子一	-3420
这时候	-3421
这番话	-3422
遇上了	-3423
那也不	-3424
那也是	-3425
那便是	-3426
那男子	-3427
那老贼	-3428
部小说	-3429
锭银子	-3430
长长的	-3431
陡然间	-3432
院子中	-3433
▁封万里	-3434
一个女子	-3435
不知不觉	-3436
什么地方	-3437
刷的一声	-3438
叫了出来	-3439
和丁不四	-3440
将信将疑	-3441
当的一声	-3442
得饶人处	-3443
心中一凛	-3444
心想自己	-3445
手忙脚乱	-3446
旁敲侧击	-3447
无影无踪	-3448
武功了得	-3449
武林高手	-3450
比拼内力	-3451
泥人身上	-3452
目不转睛	-3453
石破天和	-3454
石破天在	-3455
练功走火	-3456
脸上神色	-3457
脸色大变	-3458
谁也不敢	-3459
走火入魔	-3460
足镣手铐	-3461
过了一会	-3462
过意不去	-3463
退了一步	-3464
那女子道	-3465
那怎么办	-3466
青衫弟子	-3467
▁胖瘦二人	-3468
▁范一飞等	-3469
上凌霄城去	-3470
不约而同地	-3471
情不自禁地	-3472
玄冰碧火酒	-3473
石破天内力	-3474
雪山派门下	-3475
雪山群弟子	-3476
赏善罚恶二使	-3477
雪山派群弟子	-3478
▁石破天点头道	-3479
》、	-3480
一家	-3481
一拳	-3482
一概	-3483
一次	-3484
一跃	-3485
万年	-3486
万死	-3487
三四	-3488
三年	-3489
三招	-3490
下次	-3491
下马	-3492
不作	-3493
不忍	-3494
不早	-3495
不死	-3496
不瞒	-3497
不等	-3498
不耐	-3499
临死	-3500
丹田	-3501
为主	-3502
为尊	-3503
举起	-3504
之高	-3505
也未	-3506
了么	-3507
了头	-3508
了她	-3509
互相	-3510
五行	-3511
交攻	-3512
人么	-3513
亿刀	-3514
从小	-3515
从窗	-3516
他却	-3517
他对	-3518
他已	-3519
令牌	-3520
以来	-3521
伙计	-3522
会有	-3523
伤口	-3524
似的	-3525
低头	-3526
低微	-3527
作乱	-3528
你先	-3529
你跟	-3530
你还	-3531
使劲	-3532
使用	-3533
侄女	-3534
便和	-3535
便往	-3536
便想	-3537
便来	-3538
倏地	-3539
倒了	-3540
倒转	-3541
做我	-3542
关切	-3543
关怀	-3544
其间	-3545
再没	-3546
冤枉	-3547
冷汗	-3548
几年	-3549
几招	-3550
凶狠	-3551
击中	-3552
刀来	-3553
分辨	-3554
前后	-3555
剑下	-3556
剑势	-3557
办到	-3558
助他	-3559
包裹	-3560
卑鄙	-3561
却只	-3562
厅中	-3563
去势	-3564
去救	-3565
去的	-3566
又见	-3567
双笔	-3568
双腿	-3569
反弹	-3570
反掌	-3571
发足	-3572
变了	-3573
变幻	-3574
古诗	-3575
吃的	-3576
各种	-3577
同去	-3578
同月	-3579
同道	-3580
向上	-3581
向着	-3582
听她	-3583
哎哟	-3584
哼哼	-3585
唯恐	-3586
唯有	-3587
喜悦	-3588
喜色	-3589
嗓子	-3590
四十	-3591
四肢	-3592
四面	-3593
回剑	-3594
回归	-3595
图中	-3596
圈套	-3597
均是	-3598
均有	-3599
均知	-3600
坐着	-3601
外面	-3602
多有	-3603
多说	-3604
大嫂	-3605
大汉	-3606
大石	-3607
大祸	-3608
大进	-3609
天上	-3610
太也	-3611
头去	-3612
夹击	-3613
夺眶	-3614
奔出	-3615
好啊	-3616
好说	-3617
如山	-3618
威震	-3619
嫣然	-3620
安某	-3621
宗师	-3622
宛然	-3623
宾客	-3624
寒气	-3625
寒热	-3626
察看	-3627
察觉	-3628
将来	-3629
小米	-3630
尺许	-3631
岩石	-3632
崖上	-3633
席上	-3634
干人	-3635
并未	-3636
幸亏	-3637
张口	-3638
当着	-3639
得悉	-3640
得手	-3641
心口	-3642
心意	-3643
忙问	-3644
快活	-3645
忽道	-3646
怀疑	-3647
思索	-3648
性格	-3649
恭敬	-3650
情急	-3651
愕然	-3652
成亲	-3653
成的	-3654
我倒	-3655
房里	-3656
手来	-3657
打紧	-3658
把我	-3659
折磨	-3660
抵御	-3661
拍出	-3662
拔步	-3663
拿着	-3664
掌风	-3665
探出	-3666
接了	-3667
接任	-3668
接着	-3669
放他	-3670
放手	-3671
救了	-3672
救命	-3673
文艺	-3674
无辜	-3675
时时	-3676
晕眩	-3677
暗算	-3678
有谁	-3679
有难	-3680
本就	-3681
杀害	-3682
杀手	-3683
极快	-3684
枣子	-3685
树上	-3686
样子	-3687
椅上	-3688
椅脚	-3689
此举	-3690
每人	-3691
每天	-3692
毙了	-3693
求恳	-3694
沉沉	-3695
没能	-3696
洞房	-3697
消息	-3698
清掌	-3699
温柔	-3700
滚来	-3701
潇洒	-3702
激烈	-3703
火把	-3704
火折	-3705
熊耳	-3706
熟悉	-3707
爱怜	-3708
牢中	-3709
率领	-3710
甚轻	-3711
留下	-3712
略一	-3713
痛得	-3714
痴痴	-3715
白剑	-3716
百出	-3717
盘膝	-3718
直如	-3719
相互	-3720
相干	-3721
看时	-3722
着了	-3723
着地	-3724
瞧出	-3725
砍去	-3726
破了	-3727
碧针	-3728
站定	-3729
笑了	-3730
笔账	-3731
第四	-3732
等人	-3733
等你	-3734
筵席	-3735
算得	-3736
粥碗	-3737
糟了	-3738
素知	-3739
索解	-3740
红晕	-3741
红绸	-3742
绝非	-3743
老弟	-3744
而为	-3745
而落	-3746
而言	-3747
而论	-3748
耳光	-3749
聚会	-3750
胜过	-3751
脚猫	-3752
腰带	-3753
臂膀	-3754
自已	-3755
花园	-3756
若再	-3757
若说	-3758
苦涩	-3759
落入	-3760
蒙面	-3761
藏身	-3762
蜡烛	-3763
行径	-3764
解下	-3765
言出	-3766
计较	-3767
认为	-3768
讥嘲	-3769
讨好	-3770
记着	-3771
记起	-3772
试试	-3773
说也	-3774
说去	-3775
诸人	-3776
读书	-3777
谁也	-3778
跟在	-3779
踌躇	-3780
轿夫	-3781
达摩	-3782
过人	-3783
运行	-3784
还得	-3785
这便	-3786
这儿	-3787
送死	-3788
逼得	-3789
那倒	-3790
酒杯	-3791
钦佩	-3792
铁钳	-3793
铁青	-3794
长叹	-3795
问起	-3796
阅历	-3797
陪着	-3798
隐居	-3799
隐瞒	-3800
隔了	-3801
雄浑	-3802
雪明	-3803
震断	-3804
颤抖	-3805
飞身	-3806
骗人	-3807
▁但见	-3808
▁其时	-3809
▁各人	-3810
一人道	-3811
一声响	-3812
一见到	-3813
一辈子	-3814
不敢多	-3815
不敢有	-3816
不知是	-3817
不舒服	-3818
两个人	-3819
为兄弟	-3820
为帮主	-3821
了两个	-3822
二十四	-3823
人多势	-3824
从屋顶	-3825
他内力	-3826
他当真	-3827
他心下	-3828
他手中	-3829
他自己	-3830
他身子	-3831
会不会	-3832
伸手便	-3833
但随即	-3834
你妈妈	-3835
你要我	-3836
你跟我	-3837
使一招	-3838
便不能	-3839
便将他	-3840
六合掌	-3841
几个人	-3842
凭武功	-3843
出一股	-3844
到后来	-3845
十余丈	-3846
十八个	-3847
半空中	-3848
取出一	-3849
叫自己	-3850
各人的	-3851
吴钩霜	-3852
和张三	-3853
咱们到	-3854
咱们就	-3855
四个字	-3856
在手中	-3857
奶奶的	-3858
好小子	-3859
小米粥	-3860
年同月	-3861
当然是	-3862
往哪里	-3863
怎么会	-3864
怒之下	-3865
我只须	-3866
我真的	-3867
所授的	-3868
手功夫	-3869
打什么	-3870
摇摇头	-3871
新官人	-3872
是哪一	-3873
有一股	-3874
梅花拳	-3875
汴梁城	-3876
点点头	-3877
烈火丹	-3878
熊耳山	-3879
爷爷也	-3880
猛听得	-3881
王八蛋	-3882
的一响	-3883
的一招	-3884
的不是	-3885
的名头	-3886
的名字	-3887
的所在	-3888
目光中	-3889
眼睁睁	-3890
知道的	-3891
石牢中	-3892
糊涂了	-3893
终究是	-3894
给人家	-3895
耿师哥	-3896
自己人	-3897
蓦地里	-3898
说得上	-3899
这一刀	-3900
这一掌	-3901
这些日	-3902
那不是	-3903
那姓梅	-3904
长江中	-3905
▁小丐道	-3906
▁尤得胜	-3907
▁廖自砺	-3908
▁这一下	-3909
丁不四的	-3910
上清观的	-3911
为了什么	-3912
也就是了	-3913
从前的事	-3914
众位朋友	-3915
元澄道人	-3916
内功第一	-3917
到底是谁	-3918
卖饼老者	-3919
又惊又怒	-3920
咱们这就	-3921
哪里还有	-3922
喃喃地道	-3923
嘿嘿冷笑	-3924
在武林中	-3925
大声说道	-3926
夺眶而出	-3927
好端端的	-3928
如此了得	-3929
如此说来	-3930
小小年纪	-3931
心中一喜	-3932
忠厚老实	-3933
感到一阵	-3934
我跟你说	-3935
接到铜牌	-3936
擒拿手法	-3937
来干什么	-3938
滚来滚去	-3939
白自在道	-3940
白衣汉子	-3941
石破天又	-3942
石破天只	-3943
碧针清掌	-3944
祖孙二人	-3945
稀松平常	-3946
站在一旁	-3947
脚步声响	-3948
自言自语	-3949
莫名其妙	-3950
蒙面女子	-3951
赴侠客岛	-3952
跟随在后	-3953
踏上一步	-3954
转念又想	-3955
这傻小子	-3956
邀宴铜牌	-3957
那姓白的	-3958
金龙鞭法	-3959
▁石破天向	-3960
丁不四怒道	-3961
上清观群道	-3962
五行六合掌	-3963
吴钩霜雪明	-3964
在土地庙中	-3965
▁石破天心道	-3966
▁石破天见他	-3967
那便如何是好	-3968
金乌派的开山	-3969
雪山派掌门人威德先生	-3970
。‘	-3971
。“	-3972
一共	-3973
一凛	-3974
一分	-3975
一到	-3976
一呆	-3977
一处	-3978
一拉	-3979
一线	-3980
一缩	-3981
一身	-3982
一转	-3983
万翼	-3984
三分	-3985
三剑	-3986
不堪	-3987
不忘	-3988
不痛	-3989
不离	-3990
不肖	-3991
不解	-3992
不该	-3993
不难	-3994
不顾	-3995
与他	-3996
且看	-3997
东北	-3998
东南	-3999
两口	-4000
两股	-4001
个人	-4002
为此	-4003
举目	-4004
义兄	-4005
之主	-4006
之大	-4007
之快	-4008
之态	-4009
之故	-4010
之气	-4011
之精	-4012
之至	-4013
之象	-4014
之辈	-4015
之面	-4016
乌龟	-4017
也即	-4018
也想	-4019
也罢	-4020
也说	-4021
书生	-4022
了七	-4023
事先	-4024
于我	-4025
人众	-4026
今口	-4027
今年	-4028
从没	-4029
他所	-4030
他没	-4031
以他	-4032
仰慕	-4033
伏魔	-4034
伙人	-4035
伶俐	-4036
伸臂	-4037
何足	-4038
余地	-4039
作为	-4040
你使	-4041
你便	-4042
你和	-4043
你当	-4044
你把	-4045
你看	-4046
使个	-4047
依样	-4048
依法	-4049
依稀	-4050
侧身	-4051
便只	-4052
便杀	-4053
便见	-4054
保佑	-4055
倒似	-4056
倒地	-4057
做替	-4058
偷偷	-4059
傍晚	-4060
傻子	-4061
僵尸	-4062
六出	-4063
几位	-4064
几次	-4065
出门	-4066
击出	-4067
击落	-4068
分明	-4069
分说	-4070
则是	-4071
创造	-4072
刺入	-4073
削下	-4074
剧痛	-4075
加上	-4076
十万	-4077
十五	-4078
千里	-4079
单是	-4080
南海	-4081
却都	-4082
厅门	-4083
历史	-4084
厉声	-4085
原因	-4086
去请	-4087
去跟	-4088
又没	-4089
又给	-4090
又说	-4091
双眉	-4092
发怒	-4093
受到	-4094
变故	-4095
叛徒	-4096
只叫	-4097
只说	-4098
可好	-4099
吃肉	-4100
各派	-4101
同行	-4102
名声	-4103
名的	-4104
向左	-4105
向旁	-4106
向那	-4107
吟吟	-4108
含糊	-4109
听人	-4110
听越	-4111
启禀	-4112
和气	-4113
商量	-4114
喝骂	-4115
嘀咕	-4116
因而	-4117
圆圈	-4118
地来	-4119
均觉	-4120
坏了	-4121
坏事	-4122
墙上	-4123
墨剑	-4124
声中	-4125
外的	-4126
大喝	-4127
大梁	-4128
太玄	-4129
太阴	-4130
失了	-4131
失常	-4132
失手	-4133
头儿	-4134
好听	-4135
威风	-4136
安好	-4137
完了	-4138
定有	-4139
宝刀	-4140
对头	-4141
将一	-4142
小的	-4143
尚在	-4144
就会	-4145
尽是	-4146
屈指	-4147
山洞	-4148
岁的	-4149
崆峒	-4150
差着	-4151
已久	-4152
已知	-4153
市镇	-4154
师傅	-4155
干了	-4156
平生	-4157
床前	-4158
弯腰	-4159
强敌	-4160
当场	-4161
往他	-4162
径自	-4163
待要	-4164
得你	-4165
心思	-4166
心情	-4167
必定	-4168
念念	-4169
怒骂	-4170
怪我	-4171
情形	-4172
情知	-4173
惊叫	-4174
惊喜	-4175
惨白	-4176
惯了	-4177
想个	-4178
我先	-4179
我叫	-4180
我吃	-4181
我听	-4182
我自	-4183
我道	-4184
所为	-4185
所作	-4186
才知	-4187
打他	-4188
打发	-4189
打在	-4190
打算	-4191
抓去	-4192
抖动	-4193
抚摸	-4194
抢上	-4195
抬起	-4196
抿嘴	-4197
拆招	-4198
拜倒	-4199
拜堂	-4200
拳掌	-4201
拼斗	-4202
指使	-4203
指教	-4204
插入	-4205
握住	-4206
携着	-4207
摸到	-4208
撞去	-4209
救我	-4210
教你	-4211
数月	-4212
料理	-4213
施为	-4214
无声	-4215
无奇	-4216
无意	-4217
无碍	-4218
无聊	-4219
明亮	-4220
明晃	-4221
昔年	-4222
是死	-4223
是给	-4224
晃的	-4225
暗叫	-4226
暴躁	-4227
曾经	-4228
有声	-4229
有多	-4230
有如	-4231
有鬼	-4232
机关	-4233
来势	-4234
来去	-4235
来处	-4236
松手	-4237
极大	-4238
极是	-4239
柄剑	-4240
格开	-4241
桌子	-4242
椅子	-4243
次序	-4244
死去	-4245
死在	-4246
残忍	-4247
毒掌	-4248
毒辣	-4249
比他	-4250
比画	-4251
气恼	-4252
没用	-4253
河南	-4254
泛泛	-4255
洋洋	-4256
海滩	-4257
海边	-4258
深恐	-4259
火堆	-4260
炎炎	-4261
爱惜	-4262
犹豫	-4263
狗屁	-4264
独斗	-4265
狼狈	-4266
环境	-4267
理他	-4268
甚麼	-4269
画的	-4270
疤痕	-4271
白衣	-4272
白袍	-4273
百岁	-4274
的便	-4275
的木	-4276
的精	-4277
的面	-4278
皮肉	-4279
盈盈	-4280
目中	-4281
目睹	-4282
相同	-4283
相差	-4284
相接	-4285
相比	-4286
看到	-4287
真好	-4288
真气	-4289
瞧你	-4290
瞧在	-4291
知晓	-4292
石氏	-4293
祖母	-4294
禀告	-4295
秘奥	-4296
空隙	-4297
立刻	-4298
站立	-4299
竟尔	-4300
等到	-4301
糟糕	-4302
纠缠	-4303
纯熟	-4304
练成	-4305
绝顶	-4306
缩回	-4307
罢手	-4308
羞愧	-4309
翻身	-4310
老贼	-4311
而入	-4312
而是	-4313
而笑	-4314
而退	-4315
胁下	-4316
胜了	-4317
胡人	-4318
能为	-4319
脑中	-4320
脑筋	-4321
脖子	-4322
脚上	-4323
脸现	-4324
脸露	-4325
自觉	-4326
自身	-4327
舍命	-4328
良机	-4329
若不	-4330
若无	-4331
虚传	-4332
虽不	-4333
行去	-4334
要想	-4335
见识	-4336
见这	-4337
誓言	-4338
认出	-4339
认定	-4340
记挂	-4341
试演	-4342
诚恳	-4343
询问	-4344
谁都	-4345
败将	-4346
赔礼	-4347
赔罪	-4348
赢了	-4349
走上	-4350
赵客	-4351
越好	-4352
足尖	-4353
跃开	-4354
跟她	-4355
跪地	-4356
踉跄	-4357
踪迹	-4358
蹄声	-4359
身去	-4360
身手	-4361
身畔	-4362
迎面	-4363
运使	-4364
近来	-4365
还要	-4366
这事	-4367
这边	-4368
进内	-4369
连使	-4370
连续	-4371
连说	-4372
迷惘	-4373
追寻	-4374
退了	-4375
送他	-4376
逍遥	-4377
那船	-4378
重逢	-4379
铜钱	-4380
门气	-4381
闪开	-4382
问他	-4383
间便	-4384
院子	-4385
随便	-4386
难看	-4387
青袍	-4388
面的	-4389
顺势	-4390
顽皮	-4391
领教	-4392
饿了	-4393
魁梧	-4394
麻烦	-4395
龙潭	-4396
▁一个	-4397
》、《	-4398
三个月	-4399
三人的	-4400
上一眼	-4401
下毒手	-4402
不住地	-4403
不耐烦	-4404
且饶人	-4405
两兄弟	-4406
两匹马	-4407
个时辰	-4408
也不可	-4409
也不想	-4410
也不懂	-4411
了一些	-4412
了一剑	-4413
了一只	-4414
了一招	-4415
了上去	-4416
了你啦	-4417
二人都	-4418
亲生的	-4419
人家的	-4420
什么人	-4421
什么叫	-4422
他说到	-4423
以内力	-4424
你又怎	-4425
你还是	-4426
使单刀	-4427
便不再	-4428
入内力	-4429
几句话	-4430
到了极	-4431
到自己	-4432
前帮主	-4433
十余名	-4434
南大夫	-4435
又如何	-4436
又瞧瞧	-4437
口而出	-4438
只吓得	-4439
只听他	-4440
只盼他	-4441
只见她	-4442
只道他	-4443
司徒横	-4444
向帮主	-4445
和自己	-4446
哪知道	-4447
四个人	-4448
在关东	-4449
在背后	-4450
在门外	-4451
大大有	-4452
大宗师	-4453
大豪杰	-4454
太玄经	-4455
夫妇俩	-4456
夫妇的	-4457
始终没	-4458
姓什么	-4459
实在太	-4460
对不住	-4461
小混蛋	-4462
小蝌蚪	-4463
差不多	-4464
得远了	-4465
微微一	-4466
忘记了	-4467
怀好意	-4468
怔怔地	-4469
慢慢再	-4470
我们的	-4471
我就是	-4472
我瞧着	-4473
我还是	-4474
所教的	-4475
打开了	-4476
抓住他	-4477
拉着他	-4478
掌心中	-4479
擒拿法	-4480
有一个	-4481
有点儿	-4482
木罗汉	-4483
杀人的	-4484
武当派	-4485
死尸船	-4486
江湖的	-4487
汪万翼	-4488
没一个	-4489
深深一	-4490
男子汉	-4491
的一条	-4492
的下落	-4493
的对手	-4494
的情景	-4495
的神气	-4496
的身子	-4497
着实不	-4498
石大嫂	-4499
石师弟	-4500
硬生生	-4501
笑吟吟	-4502
第一个	-4503
紫烟岛	-4504
红了脸	-4505
给他们	-4506
能不能	-4507
脚步声	-4508
苦笑道	-4509
虎猛堂	-4510
要杀你	-4511
见到的	-4512
言语中	-4513
评乱跳	-4514
说自己	-4515
谁也没	-4516
谁要你	-4517
越听越	-4518
越说越	-4519
足少阳	-4520
跟我们	-4521
跟着她	-4522
过了好	-4523
还不是	-4524
这三人	-4525
这会儿	-4526
这叫做	-4527
这样吧	-4528
道石门	-4529
长剑一	-4530
顾不得	-4531
▁吕正平	-4532
▁成自学	-4533
▁木岛主	-4534
▁那女子	-4535
▁那老者	-4536
▁闵柔道	-4537
一句话没	-4538
一怔之下	-4539
一时之间	-4540
七十三招	-4541
七十二路	-4542
万料不到	-4543
三十年来	-4544
不好意思	-4545
不定主意	-4546
不知去向	-4547
与白万剑	-4548
九节软鞭	-4549
人多势众	-4550
做替死鬼	-4551
再也不敢	-4552
十分厉害	-4553
名不虚传	-4554
向丁不四	-4555
呼的一掌	-4556
和雪山派	-4557
嘻嘻一笑	-4558
大病之后	-4559
夫妇二人	-4560
年同月同	-4561
感激不尽	-4562
手下败将	-4563
拳脚第一	-4564
搔了搔头	-4565
教过他的	-4566
敝帮帮主	-4567
是什么人	-4568
是武林中	-4569
晕了过去	-4570
此言一出	-4571
沉吟半晌	-4572
犯上作乱	-4573
玄素双剑	-4574
王万仞道	-4575
石破天见	-4576
脸色铁青	-4577
见那少年	-4578
说了出来	-4579
身受重伤	-4580
躬身说道	-4581
这四个字	-4582
这样一个	-4583
连连摇头	-4584
那也罢了	-4585
那是什么	-4586
那老人道	-4587
阿绣姑娘	-4588
雪花六出	-4589
▁过了良久	-4590
上碧螺山去	-4591
不由得心中	-4592
到底是什么	-4593
向高三娘子	-4594
和石清夫妇	-4595
在摩天崖上	-4596
我和木兄弟	-4597
是什么意思	-4598
是雪山派的	-4599
说不出话来	-4600
▁龙木二岛主	-4601
再好也没有了	-4602
男子汉大丈夫	-4603
▁石破天和丁珰	-4604
得饶人处且饶人	-4605
转头向石破天道	-4606
’?	-4607
一位	-4608
一半	-4609
一去	-4610
一夜	-4611
一大	-4612
一头	-4613
一套	-4614
一想	-4615
一无	-4616
一派	-4617
一看	-4618
一瞥	-4619
一跳	-4620
一蹬	-4621
一黑	-4622
万马	-4623
三声	-4624
上冲	-4625
上崖	-4626
不善	-4627
不喜	-4628
不惭	-4629
不意	-4630
不深	-4631
不眨	-4632
不答	-4633
不迟	-4634
丑脸	-4635
两旁	-4636
个大	-4637
个性	-4638
丫环	-4639
中也	-4640
中剑	-4641
中宫	-4642
为师	-4643
举刀	-4644
之功	-4645
之名	-4646
之强	-4647
之缨	-4648
也只	-4649
也还	-4650
了六	-4651
了结	-4652
争春	-4653
争辩	-4654
事到	-4655
二道	-4656
于此	-4657
云云	-4658
云气	-4659
五支	-4660
交在	-4661
交手	-4662
亲手	-4663
人命	-4664
人士	-4665
人声	-4666
人所	-4667
人手	-4668
仇人	-4669
他和	-4670
他意	-4671
他来	-4672
他若	-4673
他要	-4674
他这	-4675
仗义	-4676
以便	-4677
仰天	-4678
会意	-4679
会的	-4680
伤害	-4681
伸足	-4682
但如	-4683
何时	-4684
余下	-4685
作个	-4686
作了	-4687
作伪	-4688
作响	-4689
你总	-4690
你我	-4691
你爱	-4692
你自	-4693
使招	-4694
侍仆	-4695
便死	-4696
便没	-4697
倒有	-4698
偏生	-4699
做个	-4700
做过	-4701
偷袭	-4702
充沛	-4703
入内	-4704
入鞘	-4705
八个	-4706
八名	-4707
关键	-4708
兵器	-4709
其事	-4710
内有	-4711
再不	-4712
再要	-4713
再见	-4714
冲天	-4715
凝目	-4716
几上	-4717
几日	-4718
出任	-4719
,	-4720
。	-4721
不	-4722
一	-4723
.	-4724
的	-4725
了	-4726
“	-4727
”	-4728
道	-4729
是	-4730
:	-4731
人	-4732
他	-4733
▁	-4734
石	-4735
我	-4736
这	-4737
你	-4738
来	-4739
天	-4740
中	-4741
说	-4742
在	-4743
?	-4744
得	-4745
上	-4746
之	-4747
大	-4748
那	-4749
子	-4750
破	-4751
手	-4752
有	-4753
也	-4754
到	-4755
剑	-4756
下	-4757
自	-4758
去	-4759
便	-4760
个	-4761
出	-4762
么	-4763
只	-4764
心	-4765
好	-4766
见	-4767
丁	-4768
又	-4769
时	-4770
声	-4771
白	-4772
然	-4773
小	-4774
主	-4775
三	-4776
过	-4777
、	-4778
着	-4779
身	-4780
当	-4781
们	-4782
万	-4783
帮	-4784
头	-4785
地	-4786
要	-4787
!	-4788
想	-4789
知	-4790
却	-4791
将	-4792
两	-4793
可	-4794
师	-4795
什	-4796
四	-4797
老	-4798
起	-4799
向	-4800
清	-4801
此	-4802
听	-4803
已	-4804
为	-4805
无	-4806
如	-4807
儿	-4808
都	-4809
功	-4810
弟	-4811
和	-4812
长	-4813
二	-4814
武	-4815
年	-4816
而	-4817
后	-4818
夫	-4819
山	-4820
爷	-4821
笑	-4822
门	-4823
十	-4824
没	-4825
叫	-4826
会	-4827
她	-4828
婆	-4829
生	-4830
事	-4831
气	-4832
招	-4833
口	-4834
客	-4835
但	-4836
派	-4837
就	-4838
己	-4839
对	-4840
多	-4841
内	-4842
少	-4843
力	-4844
里	-4845
以	-4846
刀	-4847
眼	-4848
再	-4849
掌	-4850
给	-4851
还	-4852
雪	-4853
前	-4854
能	-4855
法	-4856
住	-4857
何	-4858
真	-4859
死	-4860
意	-4861
话	-4862
谢	-4863
名	-4864
打	-4865
瞧	-4866
开	-4867
脸	-4868
珰	-4869
跟	-4870
杀	-4871
相	-4872
间	-4873
成	-4874
怎	-4875
岛	-4876
难	-4877
高	-4878
家	-4879
走	-4880
从	-4881
位	-4882
所	-4883
哥	-4884
些	-4885
几	-4886
日	-4887
动	-4888
双	-4889
若	-4890
分	-4891
问	-4892
妇	-4893
才	-4894
正	-4895
行	-4896
阿	-4897
于	-4898
使	-4899
点	-4900
兄	-4901
面	-4902
回	-4903
贝	-4904
女	-4905
即	-4906
柔	-4907
烟	-4908
喝	-4909
看	-4910
明	-4911
轻	-4912
众	-4913
先	-4914
虽	-4915
情	-4916
半	-4917
处	-4918
倒	-4919
海	-4920
色	-4921
本	-4922
’	-4923
咱	-4924
神	-4925
发	-4926
全	-4927
同	-4928
闵	-4929
绣	-4930
‘	-4931
数	-4932
八	-4933
命	-4934
定	-4935
实	-4936
史	-4937
用	-4938
转	-4939
连	-4940
惊	-4941
外	-4942
学	-4943
快	-4944
飞	-4945
张	-4946
竟	-4947
微	-4948
等	-4949
左	-4950
字	-4951
步	-4952
言	-4953
做	-4954
怕	-4955
妈	-4956
哪	-4957
娘	-4958
喜	-4959
乐	-4960
原	-4961
非	-4962
玉	-4963
进	-4964
各	-4965
其	-4966
船	-4967
请	-4968
林	-4969
般	-4970
光	-4971
别	-4972
样	-4973
父	-4974
怒	-4975
极	-4976
甚	-4977
觉	-4978
更	-4979
由	-4980
花	-4981
伤	-4982
右	-4983
吃	-4984
江	-4985
方	-4986
第	-4987
风	-4988
旁	-4989
伸	-4990
敢	-4991
既	-4992
侠	-4993
虚	-4994
干	-4995
害	-4996
比	-4997
足	-4998
放	-4999
教	-5000
谁	-5001
重	-5002
解	-5003
冲	-5004
入	-5005
急	-5006
脚	-5007
句	-5008
总	-5009
立	-5010
作	-5011
性	-5012
指	-5013
未	-5014
铁	-5015
啊	-5016
直	-5017
突	-5018
边	-5019
酒	-5020
算	-5021
刻	-5022
落	-5023
似	-5024
暗	-5025
令	-5026
把	-5027
东	-5028
哈	-5029
强	-5030
接	-5031
种	-5032
庄	-5033
七	-5034
平	-5035
越	-5036
呼	-5037
姓	-5038
奇	-5039
金	-5040
拿	-5041
城	-5042
毒	-5043
刺	-5044
吧	-5045
很	-5046
响	-5047
必	-5048
路	-5049
者	-5050
丐	-5051
亲	-5052
今	-5053
经	-5054
随	-5055
反	-5056
忙	-5057
通	-5058
齐	-5059
汉	-5060
啦	-5061
练	-5062
坐	-5063
早	-5064
木	-5065
爹	-5066
龙	-5067
关	-5068
尽	-5069
怪	-5070
远	-5071
斗	-5072
满	-5073
变	-5074
势	-5075
忽	-5076
深	-5077
火	-5078
目	-5079
与	-5080
凌	-5081
太	-5082
穴	-5083
衣	-5084
余	-5085
香	-5086
狗	-5087
冷	-5088
徒	-5089
物	-5090
牌	-5091
错	-5092
待	-5093
群	-5094
并	-5095
提	-5096
树	-5097
登	-5098
红	-5099
加	-5100
往	-5101
马	-5102
抓	-5103
站	-5104
找	-5105
让	-5106
送	-5107
西	-5108
奶	-5109
姑	-5110
摇	-5111
断	-5112
李	-5113
理	-5114
认	-5115
臂	-5116
底	-5117
条	-5118
恶	-5119
终	-5120
胜	-5121
雄	-5122
须	-5123
交	-5124
侍	-5125
思	-5126
求	-5127
安	-5128
次	-5129
铜	-5130
骂	-5131
敌	-5132
服	-5133
受	-5134
慢	-5135
房	-5136
救	-5137
击	-5138
感	-5139
记	-5140
霄	-5141
低	-5142
孩	-5143
料	-5144
痛	-5145
带	-5146
黑	-5147
许	-5148
最	-5149
月	-5150
倘	-5151
封	-5152
息	-5153
语	-5154
乱	-5155
劲	-5156
寻	-5157
厉	-5158
柄	-5159
世	-5160
母	-5161
观	-5162
居	-5163
肩	-5164
退	-5165
九	-5166
五	-5167
缓	-5168
胡	-5169
闪	-5170
及	-5171
取	-5172
均	-5173
望	-5174
横	-5175
水	-5176
丈	-5177
善	-5178
杂	-5179
义	-5180
梅	-5181
至	-5182
血	-5183
仍	-5184
免	-5185
罪	-5186
岂	-5187
应	-5188
拳	-5189
纵	-5190
因	-5191
烧	-5192
片	-5193
跃	-5194
周	-5195
爱	-5196
礼	-5197
黄	-5198
件	-5199
传	-5200
失	-5201
每	-5202
腿	-5203
阳	-5204
决	-5205
湖	-5206
英	-5207
运	-5208
逃	-5209
像	-5210
块	-5211
抢	-5212
离	-5213
空	-5214
苦	-5215
厅	-5216
拜	-5217
王	-5218
现	-5219
紫	-5220
沉	-5221
照	-5222
玄	-5223
精	-5224
近	-5225
展	-5226
异	-5227
愿	-5228
答	-5229
震	-5230
壁	-5231
紧	-5232
音	-5233
威	-5234
容	-5235
伯	-5236
则	-5237
奔	-5238
文	-5239
果	-5240
隐	-5241
另	-5242
吗	-5243
留	-5244
顶	-5245
伙	-5246
抱	-5247
六	-5248
忍	-5249
念	-5250
识	-5251
推	-5252
显	-5253
毫	-5254
百	-5255
败	-5256
闻	-5257
阴	-5258
险	-5259
合	-5260
常	-5261
活	-5262
流	-5263
耳	-5264
乌	-5265
信	-5266
妙	-5267
或	-5268
胸	-5269
药	-5270
青	-5271
嘿	-5272
擒	-5273
攻	-5274
曾	-5275
病	-5276
耿	-5277
肯	-5278
厚	-5279
被	-5280
友	-5281
尸	-5282
禁	-5283
饭	-5284
刚	-5285
单	-5286
素	-5287
图	-5288
易	-5289
疑	-5290
绝	-5291
挥	-5292
视	-5293
跳	-5294
陈	-5295
举	-5296
否	-5297
孙	-5298
挡	-5299
热	-5300
背	-5301
该	-5302
鞭	-5303
千	-5304
碗	-5305
首	-5306
机	-5307
欢	-5308
脉	-5309
吴	-5310
式	-5311
怀	-5312
收	-5313
粥	-5314
结	-5315
脑	-5316
鬼	-5317
幸	-5318
穿	-5319
贼	-5320
避	-5321
渐	-5322
适	-5323
饼	-5324
依	-5325
古	-5326
形	-5327
初	-5328
撞	-5329
良	-5330
计	-5331
钟	-5332
挺	-5333
灵	-5334
腰	-5335
舵	-5336
论	-5337
叉	-5338
拆	-5339
朋	-5340
嘴	-5341
根	-5342
番	-5343
凝	-5344
叹	-5345
泥	-5346
糊	-5347
久	-5348
凶	-5349
故	-5350
遇	-5351
体	-5352
痴	-5353
瘦	-5354
露	-5355
丝	-5356
侧	-5357
堂	-5358
拔	-5359
欲	-5360
狠	-5361
端	-5362
腹	-5363
假	-5364
司	-5365
哼	-5366
奉	-5367
姊	-5368
尚	-5369
米	-5370
美	-5371
范	-5372
豪	-5373
乎	-5374
呆	-5375
梁	-5376
寒	-5377
廖	-5378
拉	-5379
洞	-5380
窗	-5381
脱	-5382
激	-5383
称	-5384
胆	-5385
衫	-5386
赶	-5387
迷	-5388
银	-5389
兵	-5390
复	-5391
尖	-5392
松	-5393
贵	-5394
且	-5395
刃	-5396
化	-5397
崖	-5398
忘	-5399
斜	-5400
管	-5401
软	-5402
净	-5403
呢	-5404
圈	-5405
场	-5406
坏	-5407
妹	-5408
架	-5409
男	-5410
阵	-5411
;	-5412
写	-5413
差	-5414
模	-5415
确	-5416
股	-5417
领	-5418
云	-5419
包	-5420
团	-5421
屋	-5422
楚	-5423
笔	-5424
纷	-5425
肉	-5426
貌	-5427
剧	-5428
南	-5429
始	-5430
探	-5431
饶	-5432
室	-5433
弹	-5434
德	-5435
注	-5436
泪	-5437
牢	-5438
装	-5439
郎	-5440
颤	-5441
摩	-5442
睡	-5443
细	-5444
腕	-5445
舱	-5446
莫	-5447
追	-5448
顺	-5449
偏	-5450
制	-5451
士	-5452
晚	-5453
猛	-5454
眉	-5455
纪	-5456
踏	-5457
辈	-5458
临	-5459
仞	-5460
修	-5461
妻	-5462
摸	-5463
玩	-5464
砍	-5465
集	-5466
晃	-5467
碰	-5468
节	-5469
虎	-5470
公	-5471
夺	-5472
宝	-5473
店	-5474
摔	-5475
翻	-5476
致	-5477
除	-5478
任	-5479
偷	-5480
折	-5481
桌	-5482
胖	-5483
艺	-5484
赏	-5485
乘	-5486
候	-5487
悲	-5488
插	-5489
罚	-5490
角	-5491
怔	-5492
恐	-5493
新	-5494
某	-5495
皮	-5496
碧	-5497
蛋	-5498
逼	-5499
骗	-5500
代	-5501
哭	-5502
墙	-5503
官	-5504
影	-5505
邀	-5506
吓	-5507
套	-5508
守	-5509
报	-5510
浑	-5511
混	-5512
滚	-5513
盼	-5514
镇	-5515
争	-5516
咳	-5517
完	-5518
扶	-5519
格	-5520
讨	-5521
书	-5522
嘻	-5523
扑	-5524
拍	-5525
按	-5526
罢	-5527
草	-5528
际	-5529
共	-5530
叔	-5531
属	-5532
座	-5533
板	-5534
欺	-5535
腊	-5536
停	-5537
凭	-5538
战	-5539
拼	-5540
究	-5541
遭	-5542
北	-5543
寨	-5544
尊	-5545
惜	-5546
抵	-5547
掷	-5548
索	-5549
较	-5550
仇	-5551
兴	-5552
冰	-5553
切	-5554
创	-5555
办	-5556
助	-5557
号	-5558
娃	-5559
岁	-5560
恨	-5561
懂	-5562
截	-5563
祖	-5564
稍	-5565
粗	-5566
肚	-5567
读	-5568
赞	-5569
输	-5570
野	-5571
咬	-5572
引	-5573
弯	-5574
恼	-5575
支	-5576
芦	-5577
菜	-5578
葫	-5579
袖	-5580
诸	-5581
醒	-5582
量	-5583
顾	-5584
骨	-5585
傻	-5586
充	-5587
巧	-5588
愚	-5589
朗	-5590
消	-5591
烈	-5592
疾	-5593
缩	-5594
躲	-5595
颇	-5596
麻	-5597
哟	-5598
夜	-5599
敬	-5600
约	-5601
芳	-5602
藏	-5603
贤	-5604
休	-5605
况	-5606
刷	-5607
吟	-5608
持	-5609
犯	-5610
盘	-5611
睛	-5612
硬	-5613
稀	-5614
试	-5615
钱	-5616
顿	-5617
告	-5618
投	-5619
狂	-5620
迟	-5621
铐	-5622
份	-5623
佩	-5624
傅	-5625
吕	-5626
咽	-5627
器	-5628
围	-5629
庙	-5630
略	-5631
监	-5632
祸	-5633
静	-5634
参	-5635
吐	-5636
唉	-5637
射	-5638
枝	-5639
止	-5640
涂	-5641
钻	-5642
闹	-5643
匙	-5644
悄	-5645
授	-5646
改	-5647
敝	-5648
施	-5649
杯	-5650
梦	-5651
油	-5652
牧	-5653
跪	-5654
《	-5655
保	-5656
历	-5657
抖	-5658
护	-5659
柯	-5660
温	-5661
皆	-5662
乃	-5663
含	-5664
吸	-5665
嗤	-5666
存	-5667
扯	-5668
晕	-5669
术	-5670
毕	-5671
独	-5672
短	-5673
累	-5674
茶	-5675
误	-5676
陡	-5677
陪	-5678
食	-5679
饮	-5680
危	-5681
岸	-5682
惶	-5683
担	-5684
熟	-5685
线	-5686
膝	-5687
规	-5688
调	-5689
递	-5690
速	-5691
针	-5692
锋	-5693
鲜	-5694
》	-5695
亮	-5696
凉	-5697
味	-5698
弄	-5699
恩	-5700
挂	-5701
枚	-5702
淡	-5703
画	-5704
疯	-5705
盗	-5706
赴	-5707
霎	-5708
排	-5709
椅	-5710
磕	-5711
窝	-5712
羞	-5713
蒙	-5714
踪	-5715
辣	-5716
迫	-5717
钧	-5718
闭	-5719
习	-5720
兀	-5721
利	-5722
勉	-5723
恭	-5724
承	-5725
抛	-5726
散	-5727
氏	-5728
聚	-5729
聪	-5730
螺	-5731
迎	-5732
遍	-5733
钩	-5734
镣	-5735
驾	-5736
鼻	-5737
冒	-5738
削	-5739
喉	-5740
土	-5741
宾	-5742
换	-5743
掉	-5744
河	-5745
粽	-5746
系	-5747
联	-5748
艄	-5749
轿	-5750
偶	-5751
床	-5752
归	-5753
愧	-5754
戴	-5755
烦	-5756
皱	-5757
艘	-5758
防	-5759
侯	-5760
圆	-5761
尤	-5762
捉	-5763
斩	-5764
春	-5765
毛	-5766
痕	-5767
盛	-5768
议	-5769
评	-5770
躬	-5771
辱	-5772
饿	-5773
严	-5774
亦	-5775
付	-5776
台	-5777
咐	-5778
喀	-5779
婿	-5780
抽	-5781
晌	-5782
柴	-5783
毙	-5784
烛	-5785
睁	-5786
负	-5787
部	-5788
链	-5789
飘	-5790
乖	-5791
亏	-5792
仰	-5793
劝	-5794
商	-5795
夹	-5796
广	-5797
径	-5798
惨	-5799
捏	-5800
掠	-5801
治	-5802
滴	-5803
示	-5804
袋	-5805
仁	-5806
伏	-5807
劈	-5808
固	-5809
塞	-5810
尺	-5811
愈	-5812
扬	-5813
摆	-5814
朝	-5815
犹	-5816
环	-5817
砺	-5818
糟	-5819
荒	-5820
谈	-5821
蹄	-5822
逢	-5823
颊	-5824
齿	-5825
克	-5826
匹	-5827
唯	-5828
境	-5829
妄	-5830
屁	-5831
昏	-5832
景	-5833
朵	-5834
材	-5835
煮	-5836
疼	-5837
翠	-5838
舍	-5839
舒	-5840
薄	-5841
跌	-5842
踢	-5843
钥	-5844
闯	-5845
隔	-5846
俱	-5847
允	-5848
劫	-5849
密	-5850
延	-5851
彩	-5852
慌	-5853
慰	-5854
拱	-5855
携	-5856
替	-5857
汗	-5858
瞒	-5859
研	-5860
绑	-5861
置	-5862
荡	-5863
诗	-5864
质	-5865
配	-5866
顷	-5867
丑	-5868
划	-5869
卖	-5870
压	-5871
垂	-5872
妨	-5873
布	-5874
忧	-5875
悟	-5876
悬	-5877
托	-5878
抬	-5879
整	-5880
查	-5881
涌	-5882
游	-5883
疤	-5884
绕	-5885
造	-5886
酸	-5887
鱼	-5888
买	-5889
吩	-5890
啷	-5891
委	-5892
寸	-5893
怨	-5894
惭	-5895
曲	-5896
沙	-5897
猜	-5898
电	-5899
绘	-5900
舌	-5901
茫	-5902
蚪	-5903
蝌	-5904
袍	-5905
讲	-5906
铺	-5907
靠	-5908
勾	-5909
州	-5910
巴	-5911
扫	-5912
扮	-5913
永	-5914
碎	-5915
筋	-5916
续	-5917
肴	-5918
誓	-5919
迹	-5920
驰	-5921
骇	-5922
丛	-5923
互	-5924
冤	-5925
准	-5926
劳	-5927
啪	-5928
喂	-5929
喃	-5930
够	-5931
奈	-5932
搔	-5933
星	-5934
期	-5935
杰	-5936
溜	-5937
灭	-5938
烂	-5939
焦	-5940
版	-5941
盖	-5942
稳	-5943
簿	-5944
缘	-5945
缠	-5946
肝	-5947
讥	-5948
讯	-5949
诚	-5950
谋	-5951
赔	-5952
趣	-5953
辞	-5954
迅	-5955
钢	-5956
限	-5957
魔	-5958
养	-5959
凛	-5960
副	-5961
咦	-5962
喇	-5963
坚	-5964
娇	-5965
席	-5966
府	-5967
态	-5968
扭	-5969
捷	-5970
握	-5971
搜	-5972
撑	-5973
残	-5974
浅	-5975
滑	-5976
私	-5977
秘	-5978
竖	-5979
耻	-5980
释	-5981
题	-5982
务	-5983
喷	-5984
备	-5985
宁	-5986
宗	-5987
幼	-5988
恰	-5989
惧	-5990
执	-5991
拂	-5992
拾	-5993
曰	-5994
枉	-5995
株	-5996
爽	-5997
状	-5998
矩	-5999
矮	-6000
罗	-6001
耐	-6002
脾	-6003
阻	-6004
骑	-6005
丢	-6006
俩	-6007
借	-6008
印	-6009
姿	-6010
宴	-6011
察	-6012
层	-6013
度	-6014
志	-6015
愕	-6016
愤	-6017
损	-6018
桥	-6019
燕	-6020
牙	-6021
牵	-6022
甜	-6023
禀	-6024
福	-6025
积	-6026
绽	-6027
罕	-6028
肿	-6029
臭	-6030
舞	-6031
裤	-6032
裹	-6033
设	-6034
跑	-6035
辰	-6036
逆	-6037
闲	-6038
闷	-6039
阁	-6040
鼓	-6041
丧	-6042
值	-6043
孔	-6044
怜	-6045
恳	-6046
惹	-6047
挟	-6048
捧	-6049
村	-6050
污	-6051
汴	-6052
沿	-6053
爪	-6054
猪	-6055
砰	-6056
绿	-6057
舟	-6058
苍	-6059
贯	-6060
透	-6061
鞘	-6062
內	-6063
占	-6064
君	-6065
宜	-6066
尾	-6067
市	-6068
扎	-6069
扰	-6070
掩	-6071
敲	-6072
暴	-6073
洋	-6074
畏	-6075
粉	-6076
纯	-6077
融	-6078
表	-6079
袭	-6080
触	-6081
谛	-6082
贪	-6083
赢	-6084
躺	-6085
违	-6086
颈	-6087
颜	-6088
丹	-6089
侄	-6090
倚	-6091
凑	-6092
列	-6093
医	-6094
叶	-6095
咕	-6096
品	-6097
国	-6098
增	-6099
尔	-6100
屈	-6101
峰	-6102
弱	-6103
忌	-6104
挑	-6105
搭	-6106
杨	-6107
柱	-6108
段	-6109
洗	-6110
济	-6111
淮	-6112
渔	-6113
漆	-6114
演	-6115
珠	-6116
疏	-6117
睬	-6118
穷	-6119
肠	-6120
谅	-6121
账	-6122
陆	-6123
院	-6124
僵	-6125
具	-6126
堪	-6127
户	-6128
抗	-6129
挨	-6130
振	-6131
撕	-6132
枪	-6133
柳	-6134
毁	-6135
波	-6136
熊	-6137
畔	-6138
碍	-6139
篇	-6140
责	-6141
载	-6142
辩	-6143
辽	-6144
达	-6145
述	-6146
途	-6147
隙	-6148
丫	-6149
仙	-6150
华	-6151
厮	-6152
嗽	-6153
堆	-6154
奸	-6155
嫂	-6156
宽	-6157
尬	-6158
尴	-6159
废	-6160
弃	-6161
悉	-6162
拦	-6163
挣	-6164
撒	-6165
暇	-6166
洒	-6167
炎	-6168
特	-6169
界	-6170
腾	-6171
莽	-6172
蠢	-6173
谨	-6174
谱	-6175
赖	-6176
赵	-6177
锁	-6178
颗	-6179
专	-6180
乡	-6181
俯	-6182
倏	-6183
僻	-6184
元	-6185
嚷	-6186
局	-6187
忠	-6188
怦	-6189
悦	-6190
扣	-6191
批	-6192
技	-6193
抄	-6194
擦	-6195
斯	-6196
映	-6197
森	-6198
泛	-6199
源	-6200
甬	-6201
盈	-6202
笨	-6203
缨	-6204
聂	-6205
膀	-6206
觑	-6207
诧	-6208
象	-6209
贱	-6210
资	-6211
邪	-6212
鄙	-6213
采	-6214
钉	-6215
镖	-6216
附	-6217
雀	-6218
雅	-6219
鸡	-6220
丰	-6221
仗	-6222
侮	-6223
俊	-6224
倍	-6225
倾	-6226
凄	-6227
凡	-6228
割	-6229
午	-6230
呛	-6231
嗔	-6232
夷	-6233
它	-6234
寺	-6235
岭	-6236
巾	-6237
帆	-6238
御	-6239
惯	-6240
戏	-6241
抚	-6242
援	-6243
斟	-6244
旧	-6245
朱	-6246
柿	-6247
溅	-6248
滋	-6249
滥	-6250
灯	-6251
灰	-6252
率	-6253
瞬	-6254
移	-6255
竹	-6256
类	-6257
缚	-6258
肌	-6259
补	-6260
访	-6261
诛	-6262
诡	-6263
距	-6264
郁	-6265
额	-6266
馒	-6267
馨	-6268
魂	-6269
鲁	-6270
串	-6271
亡	-6272
侵	-6273
兼	-6274
剩	-6275
哇	-6276
哑	-6277
啸	-6278
嗯	-6279
奥	-6280
寂	-6281
悔	-6282
患	-6283
拖	-6284
暖	-6285
歇	-6286
殿	-6287
汹	-6288
湿	-6289
澄	-6290
爬	-6291
猫	-6292
甘	-6293
瞥	-6294
秋	-6295
程	-6296
筷	-6297
缦	-6298
肤	-6299
艳	-6300
蓦	-6301
详	-6302
贴	-6303
费	-6304
逐	-6305
饰	-6306
鹤	-6307
丸	-6308
丽	-6309
佛	-6310
健	-6311
催	-6312
傲	-6313
剥	-6314
匆	-6315
卑	-6316
吁	-6317
吞	-6318
启	-6319
呜	-6320
咯	-6321
喘	-6322
墨	-6323
孤	-6324
孽	-6325
巨	-6326
幻	-6327
愁	-6328
斫	-6329
普	-6330
暂	-6331
枣	-6332
歉	-6333
殊	-6334
泣	-6335
淋	-6336
焉	-6337
犬	-6338
瓦	-6339
益	-6340
盒	-6341
瞪	-6342
统	-6343
继	-6344
耀	-6345
肖	-6346
蓝	-6347
讶	-6348
诀	-6349
证	-6350
辨	-6351
逍	-6352
逞	-6353
遵	-6354
锐	-6355
黯	-6356
(	-6357
乍	-6358
仔	-6359
侥	-6360
僧	-6361
减	-6362
博	-6363
卜	-6364
卧	-6365
叛	-6366
吊	-6367
呸	-6368
哨	-6369
唐	-6370
噩	-6371
堕	-6372
壮	-6373
奋	-6374
妥	-6375
宛	-6376
戟	-6377
抹	-6378
拈	-6379
挖	-6380
描	-6381
揭	-6382
搁	-6383
智	-6384
欠	-6385
歹	-6386
浓	-6387
浪	-6388
漏	-6389
漫	-6390
灾	-6391
田	-6392
畅	-6393
眶	-6394
磨	-6395
社	-6396
策	-6397
维	-6398
脏	-6399
虑	-6400
蛇	-6401
襟	-6402
训	-6403
赫	-6404
铮	-6405
锅	-6406
锦	-6407
陷	-6408
雷	-6409
颠	-6410
饥	-6411
驶	-6412
)	-6413
乞	-6414
仆	-6415
厌	-6416
叱	-6417
嘱	-6418
园	-6419
域	-6420
妖	-6421
宵	-6422
宿	-6423
岩	-6424
怯	-6425
慕	-6426
拒	-6427
揖	-6428
搏	-6429
昔	-6430
晨	-6431
柬	-6432
概	-6433
测	-6434
涉	-6435
涔	-6436
爸	-6437
牛	-6438
狼	-6439
秀	-6440
童	-6441
竭	-6442
简	-6443
簌	-6444
繁	-6445
纠	-6446
覆	-6447
词	-6448
贺	-6449
躁	-6450
遗	-6451
遮	-6452
锭	-6453
霜	-6454
顽	-6455
驼	-6456
伪	-6457
伶	-6458
例	-6459
冯	-6460
勤	-6461
升	-6462
吵	-6463
吹	-6464
咚	-6465
噗	-6466
埋	-6467
姐	-6468
宫	-6469
寡	-6470
帽	-6471
忆	-6472
恍	-6473
慈	-6474
戒	-6475
拙	-6476
拥	-6477
搂	-6478
效	-6479
斤	-6480
旋	-6481
枕	-6482
染	-6483
栗	-6484
民	-6485
汪	-6486
沟	-6487
泊	-6488
浮	-6489
淫	-6490
滩	-6491
漓	-6492
烤	-6493
狮	-6494
珍	-6495
瓜	-6496
笼	-6497
肢	-6498
街	-6499
褚	-6500
询	-6501
豁	-6502
跨	-6503
辛	-6504
逾	-6505
遥	-6506
锤	-6507
阅	-6508
雾	-6509
龟	-6510
业	-6511
享	-6512
亿	-6513
伴	-6514
俐	-6515
俗	-6516
倦	-6517
兢	-6518
劣	-6519
匾	-6520
卢	-6521
卷	-6522
叙	-6523
吉	-6524
吻	-6525
呵	-6526
哎	-6527
啰	-6528
啼	-6529
喊	-6530
嗓	-6531
嚓	-6532
基	-6533
娶	-6534
嫌	-6535
导	-6536
岔	-6537
序	-6538
悍	-6539
惘	-6540
惴	-6541
慨	-6542
扇	-6543
扳	-6544
措	-6545
掳	-6546
斥	-6547
族	-6548
旺	-6549
昨	-6550
晓	-6551
权	-6552
枢	-6553
枯	-6554
欣	-6555
汤	-6556
沾	-6557
涨	-6558
港	-6559
滔	-6560
烘	-6561
煞	-6562
畜	-6563
祝	-6564
秽	-6565
窍	-6566
符	-6567
绵	-6568
绸	-6569
缝	-6570
罩	-6571
翼	-6572
耗	-6573
聊	-6574
肆	-6575
肘	-6576
胁	-6577
获	-6578
裂	-6579
诈	-6580
谦	-6581
谷	-6582
豹	-6583
赌	-6584
轮	-6585
轰	-6586
迈	-6587
钦	-6588
钳	-6589
霍	-6590
鸟	-6591
亭	-6592
伦	-6593
佳	-6594
促	-6595
兜	-6596
兰	-6597
兽	-6598
区	-6599
唇	-6600
唿	-6601
嘲	-6602
噎	-6603
嚼	-6604
夕	-6605
夸	-6606
嫣	-6607
宣	-6608
巡	-6609
工	-6610
幅	-6611
幽	-6612
庸	-6613
录	-6614
彼	-6615
忿	-6616
怖	-6617
恙	-6618
悠	-6619
惮	-6620
披	-6621
挤	-6622
揣	-6623
朦	-6624
桓	-6625
棍	-6626
歌	-6627
歪	-6628
泄	-6629
泰	-6630
浸	-6631
涩	-6632
潇	-6633
炭	-6634
烹	-6635
狡	-6636
癫	-6637
眨	-6638
睹	-6639
筵	-6640
箭	-6641
篙	-6642
篷	-6643
糕	-6644
纹	-6645
羹	-6646
耽	-6647
肺	-6648
胧	-6649
腐	-6650
蓄	-6651
蜡	-6652
诱	-6653
诺	-6654
谎	-6655
谓	-6656
豫	-6657
赠	-6658
赤	-6659
跄	-6660
踉	-6661
蹿	-6662
辜	-6663
选	-6664
酣	-6665
醉	-6666
闩	-6667
阔	-6668
零	-6669
鞋	-6670
项	-6671
饱	-6672
验	-6673
魁	-6674
默	-6675
佑	-6676
兔	-6677
判	-6678
勇	-6679
匪	-6680
哀	-6681
嗒	-6682
嗡	-6683
嘉	-6684
夏	-6685
婚	-6686
嫁	-6687
嫩	-6688
孝	-6689
宰	-6690
峻	-6691
弓	-6692
怠	-6693
恃	-6694
恕	-6695
戳	-6696
押	-6697
抿	-6698
拗	-6699
拨	-6700
捡	-6701
掀	-6702
擅	-6703
旨	-6704
昆	-6705
朴	-6706
殷	-6707
津	-6708
湛	-6709
炙	-6710
猎	-6711
甩	-6712
甫	-6713
痊	-6714
痒	-6715
眩	-6716
矫	-6717
纸	-6718
缺	-6719
翅	-6720
肥	-6721
艰	-6722
苏	-6723
荣	-6724
蒸	-6725
觅	-6726
讪	-6727
践	-6728
踌	-6729
蹬	-6730
躇	-6731
遣	-6732
邻	-6733
霸	-6734
鞍	-6735
魄	-6736
麼	-6737
黝	-6738
丙	-6739
价	-6740
偿	-6741
傍	-6742
冃	-6743
冠	-6744
凤	-6745
刑	-6746
卸	-6747
厢	-6748
厥	-6749
厨	-6750
叮	-6751
哧	-6752
唤	-6753
嗖	-6754
嘀	-6755
嘛	-6756
嘟	-6757
嘶	-6758
坠	-6759
奄	-6760
妒	-6761
寿	-6762
峒	-6763
崆	-6764
帖	-6765
廊	-6766
恋	-6767
惑	-6768
慷	-6769
懒	-6770
拢	-6771
捣	-6772
据	-6773
掏	-6774
揉	-6775
揪	-6776
摘	-6777
攀	-6778
敛	-6779
斑	-6780
末	-6781
束	-6782
柏	-6783
梧	-6784
椎	-6785
沫	-6786
渊	-6787
潭	-6788
炉	-6789
熄	-6790
狈	-6791
瓷	-6792
甲	-6793
申	-6794
症	-6795
盆	-6796
省	-6797
眯	-6798
祟	-6799
窦	-6800
级	-6801
络	-6802
缆	-6803
网	-6804
胃	-6805
脊	-6806
脖	-6807
膏	-6808
臀	-6809
臼	-6810
芝	-6811
蜜	-6812
衰	-6813
警	-6814
谊	-6815
财	-6816
货	-6817
贫	-6818
赐	-6819
踹	-6820
迭	-6821
逸	-6822
钵	-6823
锚	-6824
闺	-6825
雨	-6826
飒	-6827
馆	-6828
乒	-6829
乓	-6830
产	-6831
仑	-6832
册	-6833
冥	-6834
凿	-6835
刁	-6836
剐	-6837
勿	-6838
匕	-6839
叨	-6840
吏	-6841
吱	-6842
呀	-6843
呕	-6844
呻	-6845
唾	-6846
喧	-6847
嗫	-6848
噫	-6849
困	-6850
壶	-6851
奕	-6852
尝	-6853
届	-6854
屑	-6855
嵌	-6856
建	-6857
弥	-6858
忖	-6859
忤	-6860
惋	-6861
挽	-6862
捋	-6863
搞	-6864
撇	-6865
攸	-6866
敷	-6867
斧	-6868
旷	-6869
昂	-6870
栽	-6871
案	-6872
沓	-6873
沛	-6874
泉	-6875
泼	-6876
涕	-6877
淳	-6878
添	-6879
滞	-6880
炕	-6881
炼	-6882
燃	-6883
狞	-6884
瓶	-6885
疚	-6886
砸	-6887
筹	-6888
籍	-6889
粒	-6890
缭	-6891
耸	-6892
肾	-6893
脓	-6894
腆	-6895
腔	-6896
腥	-6897
腼	-6898
膛	-6899
航	-6900
舷	-6901
葬	-6902
蓬	-6903
蚀	-6904
蛮	-6905
袜	-6906
诣	-6907
谣	-6908
趁	-6909
跤	-6910
蹙	-6911
迢	-6912
键	-6913
降	-6914
隆	-6915
飕	-6916
鸣	-6917
鸦	-6918
鼠	-6919
井	-6920
亚	-6921
京	-6922
伉	-6923
俏	-6924
俪	-6925
偌	-6926
刘	-6927
剖	-6928
努	-6929
匀	-6930
匿	-6931
卓	-6932
卦	-6933
县	-6934
哄	-6935
哽	-6936
嘤	-6937
嚅	-6938
坦	-6939
塌	-6940
宏	-6941
宠	-6942
富	-6943
屏	-6944
岳	-6945
崩	-6946
希	-6947
帷	-6948
庆	-6949
庭	-6950
忒	-6951
忝	-6952
憎	-6953
憾	-6954
戮	-6955
拇	-6956
挚	-6957
挫	-6958
摊	-6959
政	-6960
旦	-6961
昧	-6962
晦	-6963
构	-6964
款	-6965
汩	-6966
涎	-6967
涯	-6968
渗	-6969
漂	-6970
漠	-6971
潜	-6972
灿	-6973
烁	-6974
熬	-6975
狭	-6976
猾	-6977
獐	-6978
玷	-6979
琢	-6980
琴	-6981
町	-6982
疲	-6983
皇	-6984
盏	-6985
盟	-6986
督	-6987
砂	-6988
砖	-6989
碟	-6990
祷	-6991
秃	-6992
稚	-6993
稻	-6994
窃	-6995
窥	-6996
章	-6997
绊	-6998
绍	-6999
绪	-7000
绳	-7001
缸	-7002
考	-7003
脆	-7004
膻	-7005
菩	-7006
萨	-7007
著	-7008
葛	-7009
虫	-7010
虬	-7011
蟹	-7012
衔	-7013
袅	-7014
裸	-7015
讽	-7016
诊	-7017
豆	-7018
赋	-7019
赦	-7020
趟	-7021
蹑	-7022
迁	-7023
迸	-7024
逊	-7025
逝	-7026
郑	-7027
酷	-7028
阖	-7029
陋	-7030
障	-7031
霉	-7032
靴	-7033
预	-7034
颖	-7035
驹	-7036
骸	-7037
髯	-7038
鬓	-7039
鲸	-7040
鹅	-7041
黏	-7042
○	-7043
亥	-7044
仿	-7045
企	-7046
侃	-7047
侣	-7048
倔	-7049
债	-7050
儒	-7051
军	-7052
冬	-7053
凳	-7054
凸	-7055
凹	-7056
厂	-7057
吼	-7058
咀	-7059
哂	-7060
哉	-7061
哗	-7062
唣	-7063
啧	-7064
嗜	-7065
嗦	-7066
嘭	-7067
囚	-7068
坑	-7069
坡	-7070
堵	-7071
寥	-7072
尘	-7073
屠	-7074
峭	-7075
巅	-7076
川	-7077
帕	-7078
帝	-7079
庐	-7080
彭	-7081
循	-7082
忸	-7083
怩	-7084
恁	-7085
恻	-7086
悴	-7087
悸	-7088
悻	-7089
惩	-7090
惺	-7091
憔	-7092
扁	-7093
拟	-7094
捕	-7095
捶	-7096
搐	-7097
搪	-7098
搬	-7099
搽	-7100
操	-7101
敁	-7102
旗	-7103
旬	-7104
旭	-7105
晰	-7106
暮	-7107
朽	-7108
析	-7109
柜	-7110
栈	-7111
校	-7112
桨	-7113
棋	-7114
檐	-7115
欧	-7116
歧	-7117
汕	-7118
池	-7119
汽	-7120
沮	-7121
浊	-7122
涛	-7123
涧	-7124
淹	-7125
溢	-7126
溪	-7127
滨	-7128
炯	-7129
焚	-7130
煤	-7131
爆	-7132
猝	-7133
献	-7134
玫	-7135
班	-7136
瑰	-7137
甸	-7138
疽	-7139
磋	-7140
稽	-7141
窒	-7142
纤	-7143
纳	-7144
绉	-7145
缎	-7146
翩	-7147
耍	-7148
职	-7149
肃	-7150
腑	-7151
舐	-7152
艾	-7153
茅	-7154
萧	-7155
蔼	-7156
袱	-7157
裁	-7158
裙	-7159
褪	-7160
订	-7161
讹	-7162
诉	-7163
诵	-7164
谆	-7165
贸	-7166
贻	-7167
赎	-7168
超	-7169
辅	-7170
逗	-7171
遂	-7172
邱	-7173
酱	-7174
醋	-7175
鉴	-7176
钝	-7177
锈	-7178
镯	-7179
镶	-7180
間	-7181
闰	-7182
队	-7183
陵	-7184
雌	-7185
靥	-7186
颂	-7187
馋	-7188
骤	-7189
髻	-7190
鲍	-7191
鹰	-7192
鼎	-7193
乏	-7194
乔	-7195
乳	-7196
予	-7197
仲	-7198
伟	-7199
俠	-7200
俦	-7201
倜	-7202
倪	-7203
偕	-7204
傀	-7205
傥	-7206
儡	-7207
兑	-7208
兮	-7209
农	-7210
刹	-7211
剜	-7212
剽	-7213
劭	-7214
勒	-7215
匠	-7216
卩	-7217
叠	-7218
叩	-7219
召	-7220
吆	-7221
吾	-7222
咒	-7223
咿	-7224
唠	-7225
啐	-7226
啖	-7227
啜	-7228
噤	-7229
圣	-7230
坍	-7231
坛	-7232
垫	-7233
培	-7234
塔	-7235
壯	-7236
壳	-7237
奏	-7238
奖	-7239
奧	-7240
奴	-7241
妩	-7242
娴	-7243
媚	-7244
孰	-7245
宅	-7246
宇	-7247
宥	-7248
寞	-7249
屉	-7250
峨	-7251
嵋	-7252
帐	-7253
庚	-7254
庞	-7255
康	-7256
弦	-7257
彳	-7258
彻	-7259
律	-7260
徙	-7261
徵	-7262
忡	-7263
怡	-7264
恢	-7265
惕	-7266
惟	-7267
惠	-7268
慑	-7269
懦	-7270
戾	-7271
扔	-7272
抑	-7273
抒	-7274
拘	-7275
拣	-7276
括	-7277
拭	-7278
挛	-7279
挪	-7280
捺	-7281
搅	-7282
摧	-7283
撤	-7284
撩	-7285
敏	-7286
昭	-7287
昽	-7288
晏	-7289
晒	-7290
晶	-7291
杜	-7292
栅	-7293
桩	-7294
梢	-7295
棵	-7296
歼	-7297
殴	-7298
毡	-7299
氐	-7300
氤	-7301
氳	-7302
汁	-7303
汄	-7304
泡	-7305
洁	-7306
洪	-7307
润	-7308
涵	-7309
淘	-7310
渡	-7311
湍	-7312
湾	-7313
溯	-7314
漾	-7315
潮	-7316
澈	-7317
瀑	-7318
灶	-7319
炖	-7320
炸	-7321
烜	-7322
焙	-7323
焰	-7324
煎	-7325
狰	-7326
猿	-7327
球	-7328
瓣	-7329
甶	-7330
疮	-7331
痉	-7332
瘫	-7333
癞	-7334
癯	-7335
盯	-7336
睨	-7337
睫	-7338
瞎	-7339
瞑	-7340
矢	-7341
矣	-7342
祥	-7343
禽	-7344
税	-7345
稔	-7346
窄	-7347
窘	-7348
笃	-7349
笛	-7350
筒	-7351
纭	-7352
绞	-7353
缴	-7354
羡	-7355
腻	-7356
芒	-7357
苫	-7358
荦	-7359
荫	-7360
荷	-7361
莹	-7362
葸	-7363
蕴	-7364
藐	-7365
虹	-7366
褥	-7367
诲	-7368
谬	-7369
趋	-7370
跚	-7371
跛	-7372
踩	-7373
踱	-7374
蹒	-7375
车	-7376
轨	-7377
逻	-7378
遁	-7379
铸	-7380
销	-7381
锯	-7382
镜	-7383
镬	-7384
阱	-7385
陕	-7386
陲	-7387
雕	-7388
霓	-7389
颏	-7390
餐	-7391
骄	-7392
骏	-7393
骚	-7394
骛	-7395
鸭	-7396
鹿	-7397
鼋	-7398
〇	-7399
丞	-7400
亇	-7401
亩	-7402
仄	-7403
仓	-7404
仟	-7405
仪	-7406
估	-7407
伺	-7408
佻	-7409
俟	-7410
倨	-7411
偎	-7412
傳	-7413
典	-7414
冕	-7415
冻	-7416
删	-7417
剪	-7418
励	-7419
勃	-7420
匡	-7421
卫	-7422
卵	-7423
呂	-7424
呈	-7425
呐	-7426
员	-7427
呰	-7428
咄	-7429
咎	-7430
咧	-7431
咸	-7432
哦	-7433
哿	-7434
唆	-7435
唧	-7436
啄	-7437
喏	-7438
喟	-7439
喻	-7440
嘘	-7441
噜	-7442
囊	-7443
囫	-7444
囵	-7445
坳	-7446
垣	-7447
填	-7448
墩	-7449
夤	-7450
契	-7451
奚	-7452
妁	-7453
妓	-7454
妞	-7455
妾	-7456
娱	-7457
媳	-7458
嬉	-7459
孟	-7460
孪	-7461
宋	-7462
审	-7463
寄	-7464
尉	-7465
尼	-7466
尿	-7467
屎	-7468
履	-7469
岢	-7470
巍	-7471
巢	-7472
幕	-7473
库	-7474
廿	-7475
弑	-7476
弧	-7477
彤	-7478
役	-7479
徐	-7480
徽	-7481
怅	-7482
怏	-7483
怫	-7484
恒	-7485
愠	-7486
愣	-7487
慎	-7488
憋	-7489
憨	-7490
懊	-7491
懑	-7492
戚	-7493
扒	-7494
扩	-7495
扼	-7496
拌	-7497
拐	-7498
择	-7499
捆	-7500
摄	-7501
撰	-7502
擂	-7503
擠	-7504
昌	-7505
曳	-7506
曼	-7507
朔	-7508
杆	-7509
杭	-7510
标	-7511
栩	-7512
桃	-7513
梆	-7514
梨	-7515
梳	-7516
槐	-7517
毅	-7518
汇	-7519
汨	-7520
沌	-7521
沸	-7522
洛	-7523
洲	-7524
浒	-7525
浦	-7526
浩	-7527
浴	-7528
液	-7529
淌	-7530
淙	-7531
渝	-7532
渠	-7533
潸	-7534
炊	-7535
炒	-7536
炮	-7537
炷	-7538
烫	-7539
熏	-7540
燥	-7541
牲	-7542
狐	-7543
狯	-7544
狱	-7545
狸	-7546
猩	-7547
猱	-7548
猴	-7549
瑛	-7550
璧	-7551
畴	-7552
疗	-7553
疹	-7554
皓	-7555
盐	-7556
眦	-7557
睦	-7558
矇	-7559
码	-7560
砌	-7561
碌	-7562
磊	-7563
禅	-7564
秉	-7565
科	-7566
稼	-7567
稿	-7568
穗	-7569
窈	-7570
笠	-7571
笺	-7572
箸	-7573
篮	-7574
簇	-7575
簕	-7576
籁	-7577
粘	-7578
粮	-7579
糖	-7580
纱	-7581
织	-7582
绎	-7583
缕	-7584
编	-7585
缰	-7586
罄	-7587
羊	-7588
羔	-7589
翔	-7590
翘	-7591
聘	-7592
肮	-7593
育	-7594
胚	-7595
胥	-7596
胯	-7597
胱	-7598
胳	-7599
脂	-7600
腋	-7601
膂	-7602
膳	-7603
臝	-7604
舁	-7605
荆	-7606
荇	-7607
营	-7608
萼	-7609
藉	-7610
藕	-7611
蘸	-7612
蚣	-7613
蛙	-7614
蜂	-7615
蜈	-7616
螃	-7617
蠕	-7618
衅	-7619
衍	-7620
衡	-7621
衷	-7622
袄	-7623
褛	-7624
觞	-7625
誉	-7626
讳	-7627
谄	-7628
谒	-7629
豸	-7630
贞	-7631
购	-7632
赘	-7633
跋	-7634
踊	-7635
踞	-7636
蹈	-7637
躯	-7638
轧	-7639
轩	-7640
辘	-7641
迂	-7642
迄	-7643
返	-7644
逛	-7645
遏	-7646
邙	-7647
邯	-7648
郊	-7649
郸	-7650
酥	-7651
醺	-7652
铋	-7653
锄	-7654
锣	-7655
闳	-7656
霆	-7657
霭	-7658
靡	-7659
韧	-7660
韵	-7661
颁	-7662
颓	-7663
驴	-7664
骼	-7665
髓	-7666
魅	-7667
魏	-7668
鸿	-7669
鼾	-7670
齊	-7671
龄	-7672
±	-7673
】	-7674
丌	-7675
丟	-7676
両	-7677
乩	-7678
乾	-7679
亍	-7680
亘	-7681
亟	-7682
亨	-7683
亵	-7684
仃	-7685
仅	-7686
介	-7687
仝	-7688
仴	-7689
伍	-7690
优	-7691
伛	-7692
佐	-7693
佚	-7694
佞	-7695
佢	-7696
佯	-7697
佶	-7698
供	-7699
侦	-7700
侩	-7701
侪	-7702
俞	-7703
俨	-7704
倩	-7705
僭	-7706
兌	-7707
党	-7708
兩	-7709
兹	-7710
冀	-7711
冈	-7712
冼	-7713
冽	-7714
凋	-7715
凍	-7716
凰	-7717
刊	-7718
刎	-7719
剂	-7720
剿	-7721
勝	-7722
勺	-7723
匝	-7724
卣	-7725
厄	-7726
厕	-7727
厘	-7728
叟	-7729
吠	-7730
呔	-7731
咂	-7732
咙	-7733
咤	-7734
哲	-7735
唬	-7736
唱	-7737
啮	-7738
喋	-7739
喑	-7740
嗅	-7741
嗣	-7742
嘈	-7743
噪	-7744
嚏	-7745
囯	-7746
囱	-7747
囲	-7748
國	-7749
圓	-7750
坊	-7751
坎	-7752
垓	-7753
垩	-7754
堉	-7755
塑	-7756
塘	-7757
央	-7758
奠	-7759
妃	-7760
姥	-7761
姨	-7762
婴	-7763
嫉	-7764
嫡	-7765
嬴	-7766
孺	-7767
寝	-7768
屯	-7769
岖	-7770
峋	-7771
峡	-7772
崇	-7773
崈	-7774
崎	-7775
崛	-7776
崽	-7777
嵩	-7778
嶙	-7779
巷	-7780
帅	-7781
帏	-7782
帘	-7783
廉	-7784
廢	-7785
弁	-7786
弊	-7787
弔	-7788
彦	-7789
彰	-7790
彷	-7791
征	-7792
徨	-7793
忐	-7794
忑	-7795
忾	-7796
怼	-7797
怿	-7798
悚	-7799
您	-7800
悯	-7801
惆	-7802
惚	-7803
惫	-7804
惬	-7805
愀	-7806
愆	-7807
愉	-7808
愫	-7809
慧	-7810
慵	-7811
懈	-7812
戈	-7813
戍	-7814
戎	-7815
拄	-7816
拧	-7817
挠	-7818
挢	-7819
捂	-7820
捐	-7821
捤	-7822
捭	-7823
捻	-7824
捽	-7825
掂	-7826
掇	-7827
掖	-7828
控	-7829
揄	-7830
揶	-7831
搀	-7832
搓	-7833
摒	-7834
撂	-7835
撬	-7836
撵	-7837
擎	-7838
敞	-7839
斋	-7840
旲	-7841
昼	-7842
晖	-7843
晤	-7844
暈	-7845
曦	-7846
杉	-7847
杓	-7848
杞	-7849
杳	-7850
枭	-7851
栏	-7852
核	-7853
栺	-7854
桀	-7855
桅	-7856
桐	-7857
桔	-7858
档	-7859
桶	-7860
梃	-7861
梗	-7862
梭	-7863
梯	-7864
检	-7865
棉	-7866
棒	-7867
棕	-7868
棘	-7869
植	-7870
椰	-7871
榈	-7872
槊	-7873
槛	-7874
樱	-7875
樽	-7876
橇	-7877
橘	-7878
橛	-7879
橹	-7880
檀	-7881
殃	-7882
殆	-7883
殓	-7884
殡	-7885
毎	-7886
氺	-7887
汸	-7888
沈	-7889
沐	-7890
沖	-7891
沦	-7892
沧	-7893
沽	-7894
泫	-7895
泯	-7896
泳	-7897
洽	-7898
浃	-7899
浆	-7900
浇	-7901
涟	-7902
涡	-7903
涣	-7904
淑	-7905
淤	-7906
渍	-7907
渚	-7908
渴	-7909
湃	-7910
湘	-7911
湮	-7912
溃	-7913
溆	-7914
漪	-7915
澎	-7916
澡	-7917
濡	-7918
灌	-7919
災	-7920
炅	-7921
炫	-7922
炳	-7923
炽	-7924
煌	-7925
煽	-7926
熔	-7927
熨	-7928
熹	-7929
燧	-7930
牟	-7931
牺	-7932
狄	-7933
狴	-7934
狷	-7935
猥	-7936
猬	-7937
獠	-7938
獾	-7939
玛	-7940
琀	-7941
琐	-7942
琵	-7943
琶	-7944
瑙	-7945
璉	-7946
瓮	-7947
甭	-7948
異	-7949
疙	-7950
疫	-7951
痪	-7952
痹	-7953
瘟	-7954
瘤	-7955
瘩	-7956
瘾	-7957
皁	-7958
皂	-7959
皎	-7960
盎	-7961
盲	-7962
眷	-7963
眸	-7964
睇	-7965
瞠	-7966
瞭	-7967
砟	-7968
硝	-7969
祜	-7970
祭	-7971
稠	-7972
穠	-7973
窖	-7974
窜	-7975
窟	-7976
窻	-7977
窿	-7978
竺	-7979
笥	-7980
笫	-7981
筲	-7982
篑	-7983
簧	-7984
簸	-7985
粤	-7986
粪	-7987
粲	-7988
糙	-7989
綜	-7990
纓	-7991
