<pad>	0
<unk>	0
<s>	0
</s>	0
[CLS]	0
[SEP]	0
[MASK]	0
20	-0
可以	-1
公司	-2
工作	-3
发展	-4
中国	-5
我们	-6
企业	-7
00	-8
一个	-9
产品	-10
技术	-11
进行	-12
服务	-13
自己	-14
使用	-15
管理	-16
治疗	-17
生产	-18
▁,	-19
国家	-20
需要	-21
201	-22
问题	-23
通过	-24
建设	-25
生活	-26
患者	-27
时间	-28
▁1	-29
如果	-30
没有	-31
主要	-32
设备	-33
专业	-34
市场	-35
安全	-36
好的	-37
教育	-38
系统	-39
重要	-40
就是	-41
具有	-42
10	-43
社会	-44
提供	-45
研究	-46
工程	-47
影响	-48
项目	-49
设计	-50
质量	-51
行业	-52
方面	-53
同时	-54
可能	-55
要求	-56
他们	-57
经济	-58
所以	-59
▁2	-60
情况	-61
白癜	-62
白癜风	-63
环境	-64
的人	-65
因为	-66
以及	-67
不同	-68
是一	-69
活动	-70
材料	-71
很多	-72
选择	-73
世界	-74
出现	-75
什么	-76
非常	-77
这个	-78
一些	-79
大的	-80
提高	-81
作用	-82
文化	-83
”,	-84
能力	-85
▁3	-86
中心	-87
人员	-88
学习	-89
一定	-90
大学	-91
中的	-92
医院	-93
健康	-94
这样	-95
作为	-96
也是	-97
处理	-98
精神	-99
信息	-100
▁。	-101
大家	-102
目前	-103
因此	-104
产业	-105
对于	-106
创新	-107
▁、	-108
国际	-109
人的	-110
合作	-111
成为	-112
相关	-113
过程	-114
但是	-115
表示	-116
根据	-117
19	-118
一般	-119
发生	-120
时候	-121
这些	-122
应用	-123
的一	-124
有限	-125
人民	-126
孩子	-127
科技	-128
能够	-129
▁在	-130
注意	-131
以上	-132
自己的	-133
已经	-134
组织	-135
第一	-136
功能	-137
学校	-138
方法	-139
学生	-140
其他	-141
部分	-142
。”	-143
客户	-144
全国	-145
实现	-146
比较	-147
标准	-148
建筑	-149
不能	-150
不断	-151
方式	-152
集团	-153
城市	-154
12	-155
科学	-156
其中	-157
了解	-158
由于	-159
工业	-160
到了	-161
200	-162
获得	-163
导致	-164
政府	-165
这种	-166
”。	-167
投资	-168
有限公司	-169
包括	-170
都是	-171
结构	-172
的是	-173
不是	-174
控制	-175
数据	-176
疾病	-177
品牌	-178
采用	-179
单位	-180
开始	-181
30	-182
用于	-183
北京	-184
效果	-185
而且	-186
容易	-187
不会	-188
那么	-189
▁(	-190
增加	-191
各种	-192
11	-193
基础	-194
平台	-195
▁4	-196
领域	-197
造成	-198
202	-199
提升	-200
现在	-201
地区	-202
积极	-203
希望	-204
美国	-205
需求	-206
产生	-207
一步	-208
代表	-209
15	-210
国内	-211
必须	-212
保护	-213
制造	-214
比赛	-215
开展	-216
有效	-217
水平	-218
还是	-219
资源	-220
身体	-221
▁2、	-222
性能	-223
内容	-224
完成	-225
学院	-226
部门	-227
的时候	-228
价格	-229
发现	-230
个人	-231
会议	-232
更加	-233
或者	-234
解决	-235
介绍	-236
用户	-237
全面	-238
年的	-239
不仅	-240
经营	-241
皮肤	-242
开发	-243
为了	-244
形成	-245
加工	-246
之后	-247
网络	-248
消费	-249
上的	-250
不要	-251
保持	-252
坚持	-253
书记	-254
来说	-255
达到	-256
应该	-257
机构	-258
历史	-259
汽车	-260
综合	-261
一起	-262
利用	-263
拥有	-264
增长	-265
我国	-266
特别	-267
知道	-268
原因	-269
),	-270
新的	-271
分析	-272
:“	-273
100	-274
如何	-275
避免	-276
所有	-277
还有	-278
50	-279
自然	-280
帮助	-281
认为	-282
▁3、	-283
基本	-284
稳定	-285
第二	-286
销售	-287
责任	-288
领导	-289
检查	-290
食品	-291
及时	-292
业务	-293
▁1、	-294
现代	-295
分钟	-296
传统	-297
引起	-298
▁“	-299
上海	-300
来的	-301
关系	-302
优势	-303
规定	-304
智能	-305
运动	-306
支持	-307
之一	-308
更多	-309
过程中	-310
时代	-311
这一	-312
直接	-313
人才	-314
存在	-315
进一步	-316
参加	-317
了一	-318
结合	-319
机械	-320
电子	-321
条件	-322
随着	-323
严重	-324
亿元	-325
重点	-326
减少	-327
人们	-328
持续	-329
虽然	-330
症状	-331
检测	-332
加强	-333
取得	-334
操作	-335
施工	-336
知识	-337
丰富	-338
体系	-339
自动	-340
有关	-341
,“	-342
政策	-343
努力	-344
目标	-345
职业	-346
系列	-347
%,	-348
负责	-349
进入	-350
全球	-351
实际	-352
经过	-353
这是	-354
今年	-355
成本	-356
成功	-357
推动	-358
甚至	-359
18	-360
范围	-361
保证	-362
因素	-363
专家	-364
得到	-365
方案	-366
旅游	-367
医疗	-368
教学	-369
价值	-370
地方	-371
超过	-372
正常	-373
交通	-374
特色	-375
▁5	-376
降低	-377
促进	-378
朋友	-379
艺术	-380
广泛	-381
研发	-382
性的	-383
1.	-384
之间	-385
一直	-386
安装	-387
受到	-388
食物	-389
只有	-390
物质	-391
特点	-392
是一种	-393
充分	-394
温度	-395
表面	-396
中央	-397
网站	-398
现场	-399
的发展	-400
任何	-401
长期	-402
工艺	-403
继续	-404
培训	-405
16	-406
才能	-407
推进	-408
计划	-409
共同	-410
交流	-411
最后	-412
显示	-413
体育	-414
实施	-415
表现	-416
许多	-417
压力	-418
——	-419
能源	-420
建立	-421
保障	-422
思想	-423
游戏	-424
面积	-425
体的	-426
成立	-427
未来	-428
从而	-429
年来	-430
经验	-431
生物	-432
先进	-433
14	-434
一次	-435
委员	-436
空气	-437
以下	-438
良好的	-439
事业	-440
期间	-441
关于	-442
并且	-443
出了	-444
0.	-445
做好	-446
环保	-447
报告	-448
主义	-449
药物	-450
癫痫	-451
政治	-452
战略	-453
有的	-454
生态	-455
家庭	-456
女性	-457
简单	-458
污染	-459
量的	-460
一种	-461
以来	-462
培养	-463
两个	-464
空间	-465
不可	-466
规划	-467
变化	-468
高的	-469
发挥	-470
改革	-471
建议	-472
按照	-473
金属	-474
联网	-475
000	-476
)、	-477
的大	-478
规模	-479
团队	-480
核心	-481
就会	-482
模式	-483
宣传	-484
党的	-485
卫生	-486
关键	-487
落实	-488
%。	-489
参与	-490
13	-491
第三	-492
疫情	-493
是在	-494
的重要	-495
玻璃	-496
员工	-497
心理	-498
快速	-499
一样	-500
怎么	-501
满足	-502
是否	-503
我们的	-504
氧化	-505
起来	-506
细胞	-507
制作	-508
接受	-509
感染	-510
也有	-511
不过	-512
▁一	-513
金融	-514
发布	-515
)。	-516
的高	-517
然后	-518
十分	-519
25	-520
措施	-521
理念	-522
法律	-523
化学	-524
竞争	-525
记者	-526
优秀	-527
维护	-528
不同的	-529
指导	-530
的话	-531
银行	-532
电影	-533
无法	-534
完善	-535
营养	-536
行为	-537
▁4、	-538
合理	-539
状态	-540
医生	-541
运行	-542
方便	-543
结果	-544
确保	-545
作品	-546
程度	-547
实验	-548
明显	-549
此外	-550
除了	-551
左右	-552
他的	-553
小时	-554
指出	-555
万元	-556
增强	-557
力量	-558
打造	-559
形式	-560
你的	-561
牛皮	-562
儿童	-563
风险	-564
发展的	-565
完全	-566
带来	-567
”、	-568
教师	-569
效率	-570
日本	-571
其实	-572
我的	-573
尤其	-574
主任	-575
设施	-576
深入	-577
40	-578
17	-579
▁本	-580
计算	-581
60	-582
经常	-583
自身	-584
看到	-585
的情况	-586
分别	-587
考虑	-588
联合	-589
方向	-590
喜欢	-591
重要的	-592
申请	-593
制度	-594
牛皮癣	-595
一定要	-596
阶段	-597
越来	-598
▁据	-599
决定	-600
任务	-601
都有	-602
饮食	-603
厂家	-604
越来越	-605
比如	-606
农业	-607
党员	-608
组成	-609
关注	-610
基地	-611
出的	-612
此次	-613
--	-614
适合	-615
速度	-616
一下	-617
注册	-618
》,	-619
也会	-620
的工作	-621
24	-622
化的	-623
区域	-624
另外	-625
包装	-626
交易	-627
▁2.	-628
病情	-629
调整	-630
具体	-631
球队	-632
▁二	-633
消费者	-634
绿色	-635
意义	-636
首先	-637
的治疗	-638
干部	-639
运输	-640
生命	-641
群众	-642
普通	-643
有些	-644
重大	-645
实践	-646
下降	-647
今天	-648
劳动	-649
反应	-650
中华	-651
多种	-652
2020	-653
主题	-654
的事	-655
2.	-656
也不	-657
严格	-658
媒体	-659
广大	-660
属于	-661
党委	-662
符合	-663
的新	-664
民族	-665
意识	-666
▁6	-667
行动	-668
毕业	-669
成果	-670
是一个	-671
针对	-672
之前	-673
办公	-674
这里	-675
优质	-676
考试	-677
贡献	-678
成绩	-679
来看	-680
收入	-681
通常	-682
正在	-683
科研	-684
日常	-685
品质	-686
老师	-687
做到	-688
香港	-689
协会	-690
句话	-691
资金	-692
软件	-693
执行	-694
创造	-695
规范	-696
运营	-697
手术	-698
近平	-699
互联网	-700
2021	-701
故事	-702
最终	-703
预防	-704
的问题	-705
刺激	-706
机会	-707
强度	-708
调查	-709
费用	-710
多的	-711
塑料	-712
习近平	-713
人体	-714
明确	-715
2019	-716
一定的	-717
电视	-718
生素	-719
▁1.	-720
贯彻	-721
物流	-722
改善	-723
目的	-724
来自	-725
80	-726
只要	-727
的产品	-728
理论	-729
防止	-730
不得	-731
哪些	-732
▁3.	-733
它的	-734
整个	-735
恢复	-736
都会	-737
全部	-738
。“	-739
个月	-740
2018	-741
双方	-742
力的	-743
整体	-744
白斑	-745
咨询	-746
感觉	-747
数字	-748
当地	-749
加入	-750
提出	-751
23	-752
后的	-753
视频	-754
山东	-755
行政	-756
从事	-757
保险	-758
▁三	-759
特殊	-760
赛季	-761
相对	-762
只是	-763
不少	-764
产品的	-765
改变	-766
▁公司	-767
机的	-768
美元	-769
平方	-770
含有	-771
an	-772
面对	-773
》、	-774
2022	-775
开放	-776
分为	-777
委员会	-778
植物	-779
基金	-780
青年	-781
认真	-782
化工	-783
现象	-784
深圳	-785
每天	-786
常见	-787
商业	-788
困难	-789
音乐	-790
高质量	-791
免疫	-792
准备	-793
大型	-794
位于	-795
公共	-796
领先	-797
习惯	-798
广州	-799
确定	-800
人类	-801
集中	-802
内的	-803
大多	-804
高度	-805
3.	-806
正式	-807
有一	-808
这样的	-809
进行了	-810
保温	-811
重视	-812
供应	-813
医学	-814
位置	-815
临床	-816
文明	-817
并不	-818
出口	-819
手机	-820
大量	-821
可能会	-822
各类	-823
患者的	-824
多个	-825
”、“	-826
技能	-827
▁《	-828
有机	-829
真正	-830
课程	-831
相信	-832
统一	-833
广东	-834
维生素	-835
体验	-836
具备	-837
展示	-838
病毒	-839
也可以	-840
的作用	-841
节能	-842
如此	-843
接触	-844
创业	-845
70	-846
再次	-847
教授	-848
寿命	-849
有所	-850
报道	-851
企业的	-852
联系	-853
加快	-854
腐蚀	-855
购买	-856
连续	-857
正确	-858
二十	-859
资料	-860
危害	-861
监督	-862
500	-863
想要	-864
意见	-865
球员	-866
__	-867
始终	-868
性和	-869
发病	-870
为主	-871
28	-872
原则	-873
下来	-874
公里	-875
时期	-876
新闻	-877
蛋白	-878
▁我	-879
就业	-880
欢迎	-881
资产	-882
等方面	-883
21	-884
必要	-885
采取	-886
垃圾	-887
白癜风的	-888
强调	-889
用的	-890
试验	-891
智慧	-892
颜色	-893
理解	-894
生活中	-895
的小	-896
机器	-897
社会主义	-898
下面	-899
样的	-900
安排	-901
实力	-902
无论	-903
冠军	-904
in	-905
过去	-906
2017	-907
机制	-908
》、《	-909
道路	-910
当然	-911
26	-912
类型	-913
融合	-914
分子	-915
生的	-916
程序	-917
逐渐	-918
元素	-919
机关	-920
银屑	-921
▁5、	-922
可靠	-923
银屑病	-924
测试	-925
每个	-926
新时代	-927
发作	-928
认识	-929
各项	-930
中医	-931
污水	-932
联赛	-933
全体	-934
要注意	-935
丰富的	-936
同学	-937
投入	-938
更好	-939
清洗	-940
高速	-941
例如	-942
食用	-943
这句话	-944
的影响	-945
动力	-946
贸易	-947
它们	-948
▁第	-949
处于	-950
酒店	-951
199	-952
生长	-953
举办	-954
展开	-955
详细	-956
职工	-957
觉得	-958
去年	-959
等等	-960
纤维	-961
形象	-962
自由	-963
不足	-964
不到	-965
有着	-966
往往	-967
血管	-968
是什么	-969
说过	-970
东西	-971
出来	-972
情绪	-973
7.	-974
负责人	-975
知名	-976
强化	-977
的主要	-978
排名	-979
同比	-980
升级	-981
复杂	-982
就可以	-983
幸福	-984
22	-985
大会	-986
成长	-987
强的	-988
商品	-989
成员	-990
神经	-991
相比	-992
队伍	-993
含量	-994
家长	-995
广告	-996
主席	-997
举行	-998
曾经	-999
干燥	-1000
同志	-1001
合金	-1002
动物	-1003
学科	-1004
股份	-1005
专业的	-1006
最大	-1007
浙江	-1008
资格	-1009
经理	-1010
统计	-1011
良好	-1012
合同	-1013
结束	-1014
迅速	-1015
利于	-1016
父母	-1017
消防	-1018
制定	-1019
四川	-1020
▁这	-1021
吸收	-1022
尤其是	-1023
装饰	-1024
高效	-1025
4.	-1026
循环	-1027
认证	-1028
观众	-1029
适应	-1030
涉及	-1031
农村	-1032
室内	-1033
工作的	-1034
然而	-1035
最大的	-1036
平方米	-1037
称为	-1038
说明	-1039
仍然	-1040
一体	-1041
营销	-1042
内部	-1043
人士	-1044
数量	-1045
办法	-1046
河南	-1047
制品	-1048
成分	-1049
以后	-1050
另一	-1051
不良	-1052
人工	-1053
管道	-1054
社区	-1055
的时间	-1056
装置	-1057
当时	-1058
江苏	-1059
董事	-1060
应当	-1061
公司的	-1062
连接	-1063
电力	-1064
如今	-1065
测量	-1066
电机	-1067
还要	-1068
告诉	-1069
大大	-1070
配合	-1071
90	-1072
2016	-1073
上市	-1074
扩大	-1075
最高	-1076
清洁	-1077
▁如果	-1078
太阳	-1079
高温	-1080
高校	-1081
近年来	-1082
各地	-1083
他们的	-1084
有了	-1085
主持	-1086
本次	-1087
吸引	-1088
护理	-1089
文件	-1090
突破	-1091
展现	-1092
优化	-1093
电池	-1094
推广	-1095
下的	-1096
居民	-1097
气体	-1098
er	-1099
值得	-1100
支付	-1101
特别是	-1102
分泌	-1103
涂料	-1104
度的	-1105
成都	-1106
根本	-1107
少年	-1108
更多的	-1109
州市	-1110
决赛	-1111
重庆	-1112
而是	-1113
on	-1114
会上	-1115
风格	-1116
红色	-1117
最佳	-1118
示范	-1119
欧洲	-1120
维修	-1121
车辆	-1122
革命	-1123
相当	-1124
体现	-1125
挑战	-1126
35	-1127
很大	-1128
年轻	-1129
理想	-1130
移动	-1131
肯定	-1132
设置	-1133
每年	-1134
共产	-1135
平均	-1136
老年	-1137
传播	-1138
▁【	-1139
仪器	-1140
这个问题	-1141
找到	-1142
事故	-1143
黑色	-1144
消息	-1145
证明	-1146
不锈	-1147
主动	-1148
原料	-1149
▁4.	-1150
为什么	-1151
治理	-1152
天然	-1153
的服务	-1154
追求	-1155
先后	-1156
有人	-1157
一年	-1158
距离	-1159
更好的	-1160
准确	-1161
奋斗	-1162
只能	-1163
子宫	-1164
本身	-1165
令人	-1166
部位	-1167
不锈钢	-1168
训练	-1169
状况	-1170
很好的	-1171
使命	-1172
掌握	-1173
武汉	-1174
面的	-1175
工具	-1176
覆盖	-1177
顺利	-1178
主要是	-1179
病人	-1180
子的	-1181
最好	-1182
致力	-1183
那些	-1184
多少	-1185
的企业	-1186
即使	-1187
的好	-1188
航空	-1189
部署	-1190
岗位	-1191
之间的	-1192
引发	-1193
素质	-1194
年度	-1195
角度	-1196
很多人	-1197
伤害	-1198
尽量	-1199
蔬菜	-1200
讲话	-1201
6.	-1202
一切	-1203
事件	-1204
实验室	-1205
每一	-1206
会有	-1207
27	-1208
当前	-1209
电动	-1210
监管	-1211
的原因	-1212
让人	-1213
三个	-1214
相应	-1215
围绕	-1216
运用	-1217
罗斯	-1218
29	-1219
多次	-1220
先生	-1221
调节	-1222
公开	-1223
而言	-1224
应用于	-1225
8.	-1226
自主	-1227
年龄	-1228
更是	-1229
资本	-1230
适用于	-1231
深刻	-1232
很大的	-1233
法院	-1234
足球	-1235
协议	-1236
突出	-1237
多年	-1238
成了	-1239
铁路	-1240
月份	-1241
固定	-1242
德国	-1243
商务	-1244
设备的	-1245
身份	-1246
及其	-1247
2015	-1248
即可	-1249
承担	-1250
装备	-1251
mm	-1252
大利	-1253
石油	-1254
▁我们	-1255
总书记	-1256
优点	-1257
净化	-1258
添加	-1259
新型	-1260
白癜风患者	-1261
评价	-1262
上升	-1263
依法	-1264
的一种	-1265
坚定	-1266
的方式	-1267
放在	-1268
变得	-1269
是不	-1270
在线	-1271
证书	-1272
的生活	-1273
活性	-1274
的同时	-1275
的心	-1276
防控	-1277
构建	-1278
进步	-1279
监测	-1280
的地方	-1281
正规	-1282
呼吸	-1283
中小	-1284
相互	-1285
的水	-1286
▁而	-1287
通知	-1288
场比赛	-1289
起到	-1290
趋势	-1291
现代化	-1292
离子	-1293
危险	-1294
娱乐	-1295
语言	-1296
著名	-1297
重新	-1298
事情	-1299
还可以	-1300
总结	-1301
公路	-1302
学会	-1303
自我	-1304
新技术	-1305
启动	-1306
加盟	-1307
独立	-1308
大力	-1309
男性	-1310
预计	-1311
经历	-1312
上述	-1313
加热	-1314
葡萄	-1315
支部	-1316
5.	-1317
的方法	-1318
场所	-1319
享受	-1320
提供了	-1321
,《	-1322
品种	-1323
大部分	-1324
2000	-1325
世界杯	-1326
1-	-1327
期的	-1328
使得	-1329
适当	-1330
事实	-1331
爱情	-1332
探索	-1333
是指	-1334
专利	-1335
一点	-1336
婴儿	-1337
平时	-1338
的热	-1339
面临	-1340
天津	-1341
300	-1342
▁7	-1343
人口	-1344
大多数	-1345
独特	-1346
者的	-1347
有很多	-1348
英国	-1349
引导	-1350
俄罗斯	-1351
的基础	-1352
致力于	-1353
真的	-1354
博士	-1355
en	-1356
沟通	-1357
▁从	-1358
本科	-1359
一旦	-1360
做出	-1361
比例	-1362
成熟	-1363
土地	-1364
世纪	-1365
之外	-1366
流程	-1367
的要求	-1368
官网	-1369
进口	-1370
节目	-1371
遇到	-1372
表明	-1373
委会	-1374
功效	-1375
角色	-1376
很容易	-1377
他人	-1378
众多	-1379
似乎	-1380
限制	-1381
小组	-1382
清楚	-1383
白色	-1384
计算机	-1385
的技术	-1386
也能	-1387
学术	-1388
公布	-1389
回应	-1390
最近	-1391
物的	-1392
激光	-1393
韩国	-1394
现实	-1395
脂肪	-1396
官方	-1397
高级	-1398
湖南	-1399
合格	-1400
环节	-1401
各个	-1402
满意	-1403
心的	-1404
癫痫病	-1405
文章	-1406
犯罪	-1407
首次	-1408
思考	-1409
将在	-1410
死亡	-1411
还会	-1412
随后	-1413
一家	-1414
记录	-1415
印刷	-1416
有哪些	-1417
血液	-1418
给予	-1419
院校	-1420
诊断	-1421
方面的	-1422
免费	-1423
解决方案	-1424
诚信	-1425
召开	-1426
阳光	-1427
表达	-1428
支撑	-1429
配套	-1430
手段	-1431
回收	-1432
相同	-1433
复合	-1434
9.	-1435
利益	-1436
玩家	-1437
发育	-1438
保健	-1439
宝宝	-1440
混合	-1441
加重	-1442
长时间	-1443
的情况下	-1444
南京	-1445
梦见	-1446
几乎	-1447
补充	-1448
激素	-1449
都不	-1450
里的	-1451
难以	-1452
拒绝	-1453
▁中国	-1454
异常	-1455
背景	-1456
代理	-1457
装修	-1458
的使用	-1459
演员	-1460
情况下	-1461
自动化	-1462
密封	-1463
效益	-1464
仪式	-1465
地位	-1466
推荐	-1467
学历	-1468
感到	-1469
我們	-1470
办公室	-1471
国内外	-1472
注重	-1473
两种	-1474
河北	-1475
部件	-1476
31	-1477
一流	-1478
呈现	-1479
切实	-1480
志愿	-1481
很好	-1482
这次	-1483
等奖	-1484
证券	-1485
”“	-1486
感情	-1487
输送	-1488
▁目前	-1489
售后	-1490
共享	-1491
原理	-1492
就能	-1493
家具	-1494
是由	-1495
湖北	-1496
认可	-1497
行业的	-1498
破坏	-1499
公园	-1500
45	-1501
感受	-1502
物理	-1503
地产	-1504
缺乏	-1505
态度	-1506
别人	-1507
自治	-1508
障碍	-1509
成就	-1510
公安	-1511
说道	-1512
小的	-1513
景区	-1514
出生	-1515
截至	-1516
校园	-1517
乡村	-1518
贷款	-1519
系统的	-1520
定位	-1521
四个	-1522
反映	-1523
转型	-1524
特性	-1525
优良	-1526
完整	-1527
协调	-1528
指标	-1529
观察	-1530
几个	-1531
改造	-1532
这么	-1533
消化	-1534
在一起	-1535
。(	-1536
分布	-1537
深化	-1538
布局	-1539
器的	-1540
成的	-1541
风机	-1542
有可能	-1543
主体	-1544
天气	-1545
土壤	-1546
过滤	-1547
作业	-1548
人生	-1549
种植	-1550
橡胶	-1551
利润	-1552
的需求	-1553
2014	-1554
依据	-1555
大量的	-1556
登记	-1557
可以在	-1558
机场	-1559
遗传	-1560
工厂	-1561
不错	-1562
新冠	-1563
特征	-1564
办理	-1565
美丽	-1566
发表	-1567
同样	-1568
慢性	-1569
提醒	-1570
》。	-1571
水果	-1572
排放	-1573
对方	-1574
▁四	-1575
创作	-1576
加上	-1577
国务	-1578
早期	-1579
加大	-1580
批准	-1581
信心	-1582
▁6、	-1583
充满	-1584
电话	-1585
意味	-1586
转化	-1587
的食物	-1588
网友	-1589
定期	-1590
高等	-1591
出席	-1592
1000	-1593
流量	-1594
唯一	-1595
人民币	-1596
第四	-1597
损失	-1598
真实	-1599
立即	-1600
出版	-1601
美的	-1602
也就是	-1603
很难	-1604
▁中	-1605
百分	-1606
合适	-1607
带着	-1608
青春	-1609
孩子的	-1610
人在	-1611
引领	-1612
定制	-1613
平衡	-1614
细菌	-1615
▁为	-1616
此前	-1617
显著	-1618
的不	-1619
高质量发展	-1620
其它	-1621
2)	-1622
快乐	-1623
报名	-1624
精度	-1625
渠道	-1626
中国特色	-1627
妈妈	-1628
习近平总书记	-1629
最好的	-1630
在于	-1631
周围	-1632
幼儿	-1633
冷却	-1634
的事情	-1635
万人	-1636
防护	-1637
▁根据	-1638
团结	-1639
上下	-1640
胜利	-1641
▁8	-1642
可是	-1643
天的	-1644
亿美元	-1645
疾病的	-1646
一致	-1647
创建	-1648
空调	-1649
尽管	-1650
也要	-1651
检验	-1652
事项	-1653
提前	-1654
并不是	-1655
荣誉	-1656
使用的	-1657
云南	-1658
树脂	-1659
信号	-1660
试管	-1661
感谢	-1662
药品	-1663
至今	-1664
全省	-1665
精彩	-1666
重的	-1667
▁19	-1668
颗粒	-1669
标志	-1670
行的	-1671
总经理	-1672
周期	-1673
基层	-1674
研究生	-1675
国务院	-1676
商标	-1677
通信	-1678
孕妇	-1679
月经	-1680
医药	-1681
疼痛	-1682
表演	-1683
在中国	-1684
共产党	-1685
乙烯	-1686
36	-1687
信用	-1688
焊接	-1689
的生产	-1690
下午	-1691
建成	-1692
冲击	-1693
把握	-1694
不好	-1695
是非常	-1696
肿瘤	-1697
的前	-1698
伟大	-1699
展览	-1700
小编	-1701
法国	-1702
电脑	-1703
资质	-1704
依然	-1705
逐步	-1706
作出	-1707
应急	-1708
密度	-1709
实行	-1710
烈的	-1711
新能源	-1712
她的	-1713
得了	-1714
早已	-1715
参考	-1716
▁以上	-1717
不管	-1718
一名	-1719
近日	-1720
是中国	-1721
专门	-1722
宣布	-1723
于是	-1724
血压	-1725
▁当	-1726
评估	-1727
采购	-1728
伙伴	-1729
有效的	-1730
产权	-1731
们的	-1732
都在	-1733
为客户	-1734
累计	-1735
分类	-1736
将会	-1737
色彩	-1738
亚洲	-1739
全力	-1740
构成	-1741
游客	-1742
锻炼	-1743
院长	-1744
普遍	-1745
凭借	-1746
热水	-1747
均匀	-1748
怀孕	-1749
能量	-1750
最新	-1751
和国	-1752
以免	-1753
用药	-1754
较大	-1755
营业	-1756
提到	-1757
一个人	-1758
时刻	-1759
上了	-1760
有利于	-1761
设立	-1762
其次	-1763
组合	-1764
当中	-1765
财务	-1766
外观	-1767
宗旨	-1768
废水	-1769
工作人员	-1770
担任	-1771
1)	-1772
一段	-1773
一路	-1774
就要	-1775
近期	-1776
总是	-1777
期待	-1778
带领	-1779
▁对于	-1780
市民	-1781
广西	-1782
所在	-1783
财政	-1784
法规	-1785
现有	-1786
防水	-1787
董事长	-1788
百年	-1789
用途	-1790
常见的	-1791
十九	-1792
新疆	-1793
▁该	-1794
高端	-1795
缓解	-1796
更为	-1797
研究院	-1798
1、	-1799
让我们	-1800
十二	-1801
美观	-1802
初心	-1803
英语	-1804
半年	-1805
较为	-1806
PP	-1807
案件	-1808
到底	-1809
混凝	-1810
中药	-1811
对外	-1812
干净	-1813
pp	-1814
鼓励	-1815
得到了	-1816
一句	-1817
眼睛	-1818
海外	-1819
年代	-1820
打开	-1821
如果你	-1822
重量	-1823
的一个	-1824
深度	-1825
所谓	-1826
也在	-1827
讲解	-1828
2013	-1829
美术	-1830
俱乐	-1831
2-	-1832
兴趣	-1833
线上	-1834
如下	-1835
队的	-1836
有害	-1837
俱乐部	-1838
紧张	-1839
服用	-1840
代谢	-1841
方位	-1842
▁5.	-1843
电源	-1844
是一家	-1845
疫苗	-1846
通风	-1847
配置	-1848
自行	-1849
停止	-1850
合成	-1851
市场的	-1852
房屋	-1853
了一个	-1854
的专业	-1855
也可	-1856
讨论	-1857
老人	-1858
园区	-1859
奥运	-1860
占地	-1861
》《	-1862
违法	-1863
的效果	-1864
严重的	-1865
中国特色社会主义	-1866
失去	-1867
工商	-1868
突然	-1869
市委	-1870
您的	-1871
损害	-1872
赛事	-1873
道德	-1874
分离	-1875
▁0	-1876
传感	-1877
总体	-1878
安徽	-1879
对象	-1880
纪念	-1881
就像	-1882
材质	-1883
省级	-1884
198	-1885
睡眠	-1886
力度	-1887
名字	-1888
岁的	-1889
流动	-1890
损伤	-1891
时的	-1892
上午	-1893
陕西	-1894
▁有	-1895
培育	-1896
选用	-1897
较高	-1898
蛋白质	-1899
万吨	-1900
引进	-1901
)(	-1902
鉴定	-1903
女人	-1904
进球	-1905
不知道	-1906
还能	-1907
人物	-1908
制造业	-1909
取得了	-1910
压缩	-1911
正是	-1912
沒有	-1913
上涨	-1914
维持	-1915
故障	-1916
层次	-1917
形势	-1918
动作	-1919
坚决	-1920
以前	-1921
三年	-1922
体内	-1923
集体	-1924
否则	-1925
大小	-1926
陶瓷	-1927
充分发挥	-1928
监控	-1929
都能	-1930
后来	-1931
消毒	-1932
康复	-1933
青少年	-1934
规则	-1935
离开	-1936
会计	-1937
参观	-1938
考生	-1939
阅读	-1940
炎症	-1941
节约	-1942
ar	-1943
5%	-1944
专科	-1945
电器	-1946
安全生产	-1947
材料的	-1948
产量	-1949
考察	-1950
使用寿命	-1951
传承	-1952
身上	-1953
有一个	-1954
防治	-1955
网上	-1956
气候	-1957
福建	-1958
种类	-1959
和谐	-1960
顾客	-1961
接下来	-1962
日起	-1963
润滑	-1964
图片	-1965
美好	-1966
期望	-1967
▁9	-1968
前列	-1969
应对	-1970
决策	-1971
钢管	-1972
意味着	-1973
家的	-1974
有助	-1975
▁会议	-1976
人群	-1977
至少	-1978
国外	-1979
休息	-1980
尺寸	-1981
▁新	-1982
西安	-1983
▁他	-1984
辅助	-1985
区别	-1986
师生	-1987
意思	-1988
轴承	-1989
合物	-1990
并在	-1991
3-	-1992
教练	-1993
发电	-1994
经典	-1995
功率	-1996
抑制	-1997
关节	-1998
很快	-1999
低于	-2000
▁此外	-2001
副书记	-2002
规律	-2003
的精神	-2004
直播	-2005
股份有限公司	-2006
黑色素	-2007
反复	-2008
论坛	-2009
2、	-2010
全市	-2011
农民	-2012
发动	-2013
二十大	-2014
高压	-2015
诱发	-2016
阴道	-2017
▁但	-2018
物品	-2019
面向	-2020
驱动	-2021
助力	-2022
病例	-2023
判断	-2024
出现了	-2025
微信	-2026
引起的	-2027
各级	-2028
▁随着	-2029
技术的	-2030
疫情防控	-2031
不用	-2032
人大	-2033
三分	-2034
学位	-2035
出血	-2036
海洋	-2037
----	-2038
水的	-2039
拓展	-2040
规格	-2041
污水处理	-2042
文字	-2043
舒适	-2044
公益	-2045
之中	-2046
是有	-2047
男人	-2048
担心	-2049
来到	-2050
部长	-2051
某些	-2052
▁那么	-2053
对手	-2054
的关键	-2055
。《	-2056
毕业生	-2057
第一次	-2058
关心	-2059
防腐	-2060
2012	-2061
各位	-2062
电气	-2063
选手	-2064
餐饮	-2065
更换	-2066
领域的	-2067
病因	-2068
扩散	-2069
住房	-2070
贵州	-2071
差异	-2072
都可以	-2073
专项	-2074
地下	-2075
性好	-2076
耐磨	-2077
过敏	-2078
指数	-2079
梦想	-2080
一是	-2081
都要	-2082
声音	-2083
通道	-2084
造型	-2085
混凝土	-2086
家人	-2087
▁大	-2088
纷纷	-2089
保养	-2090
论文	-2091
秉承	-2092
担当	-2093
多吃	-2094
更新	-2095
身体健康	-2096
一体的	-2097
男子	-2098
获得了	-2099
局部	-2100
不再	-2101
处罚	-2102
想到	-2103
生产的	-2104
照片	-2105
体会	-2106
基因	-2107
密切	-2108
400	-2109
景观	-2110
加速	-2111
可见	-2112
台湾	-2113
信息化	-2114
党建	-2115
大幅	-2116
多样	-2117
个性	-2118
工资	-2119
印度	-2120
咖啡	-2121
博物	-2122
婚姻	-2123
收益	-2124
人数	-2125
在这	-2126
专用	-2127
对此	-2128
办学	-2129
氛围	-2130
看看	-2131
产生的	-2132
不易	-2133
用品	-2134
产品质量	-2135
精准	-2136
驾驶	-2137
有什么	-2138
放入	-2139
几年	-2140
整合	-2141
的设计	-2142
简称	-2143
推出	-2144
永远	-2145
竞争力	-2146
基于	-2147
等地	-2148
38	-2149
浓度	-2150
共和国	-2151
专注	-2152
也很	-2153
思维	-2154
类似	-2155
色的	-2156
定的	-2157
生存	-2158
半场	-2159
机遇	-2160
包含	-2161
足够	-2162
里面	-2163
等级	-2164
发的	-2165
树立	-2166
3)	-2167
电缆	-2168
季度	-2169
搭配	-2170
▁由于	-2171
晚上	-2172
硕士	-2173
全身	-2174
调研	-2175
带来的	-2176
大赛	-2177
开拓	-2178
防火	-2179
并没有	-2180
森林	-2181
招生	-2182
附近	-2183
废气	-2184
来源	-2185
二是	-2186
省委	-2187
国家级	-2188
营造	-2189
所有的	-2190
长的	-2191
慢慢	-2192
世界上	-2193
贯彻落实	-2194
下了	-2195
两人	-2196
母亲	-2197
液体	-2198
自治区	-2199
地面	-2200
的主	-2201
的环境	-2202
消除	-2203
在不	-2204
一天	-2205
回到	-2206
每个人	-2207
前景	-2208
确实	-2209
售后服务	-2210
融资	-2211
变形	-2212
联盟	-2213
典型	-2214
而不	-2215
37	-2216
确认	-2217
共有	-2218
获取	-2219
▁S	-2220
同学们	-2221
名单	-2222
十年	-2223
多元	-2224
会员	-2225
大约	-2226
情感	-2227
公告	-2228
电商	-2229
海南	-2230
副主任	-2231
48	-2232
IS	-2233
物料	-2234
一代	-2235
今后	-2236
过度	-2237
燃烧	-2238
起重	-2239
的质量	-2240
律师	-2241
作者	-2242
英雄	-2243
ED	-2244
此时	-2245
尽快	-2246
影片	-2247
线路	-2248
便利	-2249
好好	-2250
会导致	-2251
提高了	-2252
2010	-2253
民主	-2254
收集	-2255
轻松	-2256
发言	-2257
水泥	-2258
上面	-2259
校长	-2260
养老	-2261
的发生	-2262
创意	-2263
文学	-2264
以上的	-2265
2011	-2266
中有	-2267
他在	-2268
祖国	-2269
禁区	-2270
适用	-2271
知识产权	-2272
辐射	-2273
才是	-2274
服務	-2275
真空	-2276
隐患	-2277
积累	-2278
做法	-2279
不需要	-2280
荣获	-2281
寻找	-2282
热情	-2283
试管婴儿	-2284
辽宁	-2285
房地产	-2286
更好地	-2287
较低	-2288
的中	-2289
▁作为	-2290
身边	-2291
门窗	-2292
人力	-2293
修复	-2294
节省	-2295
党的二十大	-2296
江西	-2297
清晰	-2298
▁但是	-2299
山西	-2300
生活的	-2301
每一个	-2302
街道	-2303
小学	-2304
成人	-2305
申报	-2306
国有	-2307
的安全	-2308
解释	-2309
养殖	-2310
参赛	-2311
最低	-2312
股票	-2313
为本	-2314
55	-2315
厚的	-2316
周年	-2317
解答	-2318
错误	-2319
提出了	-2320
编辑	-2321
会的	-2322
透明	-2323
》(	-2324
2008	-2325
等多	-2326
和社会	-2327
or	-2328
自觉	-2329
女子	-2330
党支部	-2331
性格	-2332
33	-2333
立足	-2334
航天	-2335
住宅	-2336
用水	-2337
研究所	-2338
传感器	-2339
难度	-2340
自信	-2341
视觉	-2342
的选择	-2343
会出现	-2344
在使用	-2345
先进的	-2346
是因为	-2347
▁所以	-2348
____	-2349
主场	-2350
▁C	-2351
也就	-2352
延长	-2353
机床	-2354
工作中	-2355
一系列	-2356
消耗	-2357
转变	-2358
以为	-2359
巨大	-2360
温暖	-2361
父亲	-2362
高新技术	-2363
形状	-2364
减肥	-2365
带动	-2366
日前	-2367
减轻	-2368
愿意	-2369
运动员	-2370
集成	-2371
▁10	-2372
切割	-2373
味道	-2374
▁(2)	-2375
%;	-2376
99	-2377
冬季	-2378
下载	-2379
一条	-2380
产业链	-2381
用来	-2382
打印	-2383
孩子们	-2384
生产线	-2385
将于	-2386
杭州	-2387
奉献	-2388
妇女	-2389
机器人	-2390
了我	-2391
广场	-2392
确诊	-2393
专题	-2394
会在	-2395
周边	-2396
传统的	-2397
成年	-2398
肺炎	-2399
识别	-2400
▁不	-2401
三大	-2402
和服务	-2403
着力	-2404
说的	-2405
灵活	-2406
所需	-2407
的特点	-2408
中国共产党	-2409
你们	-2410
饰演	-2411
哪里	-2412
時間	-2413
聚氨	-2414
包皮	-2415
来了	-2416
称号	-2417
同比增长	-2418
青岛	-2419
中华民族	-2420
战斗	-2421
基础设施	-2422
广泛应用于	-2423
范围内	-2424
科技创新	-2425
常常	-2426
紫外	-2427
工程师	-2428
88	-2429
拍摄	-2430
病的	-2431
在此	-2432
▁通过	-2433
多年的	-2434
毕竟	-2435
报警	-2436
每次	-2437
东北	-2438
糖尿	-2439
很有	-2440
助攻	-2441
om	-2442
有助于	-2443
理事	-2444
车间	-2445
印象	-2446
不了	-2447
这也是	-2448
有时	-2449
!”	-2450
BA	-2451
许可	-2452
和其他	-2453
相关的	-2454
为您	-2455
之路	-2456
司法	-2457
的能力	-2458
公众	-2459
性质	-2460
▁五	-2461
场景	-2462
释放	-2463
博物馆	-2464
75	-2465
大数据	-2466
转移	-2467
振兴	-2468
案例	-2469
细节	-2470
采访	-2471
黄金	-2472
整改	-2473
实现了	-2474
高于	-2475
2023	-2476
不但	-2477
下去	-2478
作风	-2479
因為	-2480
居住	-2481
时尚	-2482
超声	-2483
党委书记	-2484
的价格	-2485
聚氨酯	-2486
无论是	-2487
可持续	-2488
主办	-2489
接近	-2490
记忆	-2491
允许	-2492
履行	-2493
队员	-2494
可以说	-2495
任意	-2496
十四	-2497
实用	-2498
32	-2499
考核	-2500
65	-2501
前往	-2502
弘扬	-2503
部的	-2504
管理体系	-2505
照明	-2506
一场	-2507
保存	-2508
物联网	-2509
意外	-2510
新区	-2511
它是	-2512
随时	-2513
大众	-2514
篮板	-2515
园林	-2516
發展	-2517
中国的	-2518
富有	-2519
硬度	-2520
医师	-2521
蒙古	-2522
全会	-2523
前的	-2524
力和	-2525
收费	-2526
西班	-2527
协助	-2528
形成了	-2529
投资者	-2530
十三	-2531
竞赛	-2532
患者在	-2533
贫困	-2534
西班牙	-2535
介质	-2536
内外	-2537
高中	-2538
大学生	-2539
主演	-2540
的症状	-2541
变成	-2542
秘书	-2543
巨大的	-2544
图书	-2545
演出	-2546
的过程中	-2547
发行	-2548
影视	-2549
损坏	-2550
经济发展	-2551
将其	-2552
..	-2553
欧冠	-2554
招聘	-2555
搜索	-2556
新增	-2557
则是	-2558
改进	-2559
概念	-2560
攻坚	-2561
实际上	-2562
会长	-2563
北京市	-2564
百分点	-2565
LED	-2566
成立于	-2567
春节	-2568
租赁	-2569
党中央	-2570
战争	-2571
禁止	-2572
舞台	-2573
3、	-2574
。。	-2575
▁因此	-2576
▁首先	-2577
钢铁	-2578
▁A	-2579
中共	-2580
直到	-2581
配件	-2582
或是	-2583
爱的	-2584
客户的	-2585
依托	-2586
▁第二	-2587
市政	-2588
社交	-2589
相结合	-2590
互动	-2591
查看	-2592
彻底	-2593
导演	-2594
相应的	-2595
水分	-2596
认定	-2597
需要注意	-2598
指挥	-2599
明星	-2600
东方	-2601
到的	-2602
烘干	-2603
熟悉	-2604
肌肉	-2605
两年	-2606
本人	-2607
智能化	-2608
▁(1)	-2609
优异	-2610
协同	-2611
教育部	-2612
更高	-2613
观看	-2614
个百分点	-2615
一個	-2616
他們	-2617
过于	-2618
人民共和国	-2619
或许	-2620
模具	-2621
生殖	-2622
钢结构	-2623
货币	-2624
夫妻	-2625
很高	-2626
的外	-2627
日至	-2628
结婚	-2629
▁7、	-2630
地球	-2631
人民政府	-2632
业绩	-2633
前进	-2634
出来的	-2635
传染	-2636
地的	-2637
中间	-2638
低温	-2639
le	-2640
」,	-2641
事务	-2642
输出	-2643
精密	-2644
在家	-2645
邀请	-2646
丙烯	-2647
为大家	-2648
股东	-2649
意大利	-2650
等领域	-2651
一位	-2652
是最	-2653
较高的	-2654
▁?	-2655
主管	-2656
也不会	-2657
一体化	-2658
的基本	-2659
地理	-2660
水中	-2661
而成	-2662
电视剧	-2663
和平	-2664
余人	-2665
儿子	-2666
尊重	-2667
▁本次	-2668
审查	-2669
职业教育	-2670
新鲜	-2671
休闲	-2672
一般来说	-2673
零件	-2674
中华人民共和国	-2675
▁与	-2676
要有	-2677
零售	-2678
承包	-2679
西部	-2680
学生的	-2681
一带	-2682
齐全	-2683
总部	-2684
想法	-2685
液压	-2686
比赛中	-2687
1.5	-2688
厘米	-2689
服装	-2690
融入	-2691
化疗	-2692
合法	-2693
湿度	-2694
设有	-2695
34	-2696
吸附	-2697
开启	-2698
班子	-2699
我们在	-2700
到达	-2701
流行	-2702
更有	-2703
绝对	-2704
纳税	-2705
数控	-2706
区的	-2707
百姓	-2708
生育	-2709
权利	-2710
已成为	-2711
扎实	-2712
胎儿	-2713
不得不	-2714
球迷	-2715
▁P	-2716
多家	-2717
工人	-2718
强大的	-2719
参数	-2720
救援	-2721
產品	-2722
免疫力	-2723
千万	-2724
稳定性	-2725
厚度	-2726
因而	-2727
同时也	-2728
的历史	-2729
大气	-2730
体积	-2731
衣服	-2732
建材	-2733
做的	-2734
生理	-2735
自学	-2736
微生物	-2737
3000	-2738
承诺	-2739
诊疗	-2740
?”	-2741
耐腐蚀	-2742
一批	-2743
一级	-2744
全方位	-2745
铝合金	-2746
活力	-2747
敏感	-2748
▁小	-2749
充足	-2750
马克	-2751
皮肤病	-2752
一线	-2753
地铁	-2754
富含	-2755
水利	-2756
格局	-2757
一份	-2758
执法	-2759
患有	-2760
纺织	-2761
高达	-2762
散热	-2763
电流	-2764
成效	-2765
建立了	-2766
老年人	-2767
抵抗	-2768
轨道	-2769
2009	-2770
各界	-2771
那个	-2772
每日	-2773
静电	-2774
是对	-2775
妇科	-2776
权益	-2777
凝聚	-2778
村民	-2779
原材料	-2780
app	-2781
紧密	-2782
财产	-2783
▁李	-2784
外界	-2785
郑州	-2786
去除	-2787
信任	-2788
另一方面	-2789
日子	-2790
这类	-2791
放弃	-2792
货物	-2793
糖尿病	-2794
为客户提供	-2795
党史	-2796
口腔	-2797
条例	-2798
同期	-2799
人才培养	-2800
广东省	-2801
多年来	-2802
思路	-2803
季节	-2804
使其	-2805
分解	-2806
饮料	-2807
前列腺	-2808
传递	-2809
将继续	-2810
▁为了	-2811
义务	-2812
斯坦	-2813
49	-2814
增加了	-2815
经济社会	-2816
但在	-2817
动态	-2818
预示	-2819
板的	-2820
可能是	-2821
生态环境	-2822
微量	-2823
不一样	-2824
ch	-2825
完美	-2826
日的	-2827
气象	-2828
税务	-2829
会影响	-2830
内涵	-2831
电压	-2832
利亚	-2833
天下	-2834
让你	-2835
不忘	-2836
形态	-2837
收获	-2838
不利	-2839
师范	-2840
第五	-2841
市场上	-2842
的内容	-2843
宫颈	-2844
遵守	-2845
职责	-2846
名的	-2847
复发	-2848
冶金	-2849
减速	-2850
在这里	-2851
明白	-2852
总统	-2853
涵盖	-2854
聚焦	-2855
就有	-2856
心情	-2857
更大	-2858
讲述	-2859
预测	-2860
高考	-2861
600	-2862
事实上	-2863
方的	-2864
可以通过	-2865
進行	-2866
同意	-2867
好处	-2868
sh	-2869
独特的	-2870
配备	-2871
澳大利	-2872
局长	-2873
终于	-2874
名称	-2875
文物	-2876
萝卜	-2877
我们要	-2878
建造	-2879
试点	-2880
▁北京	-2881
发出	-2882
▁自	-2883
的经营	-2884
口罩	-2885
彼此	-2886
苹果	-2887
抓住	-2888
造成的	-2889
日在	-2890
进展	-2891
内分泌	-2892
发热	-2893
更大的	-2894
的原则	-2895
成型	-2896
al	-2897
做了	-2898
39	-2899
▁对	-2900
报考	-2901
书法	-2902
锅炉	-2903
非法	-2904
民间	-2905
国家的	-2906
失败	-2907
容器	-2908
还在	-2909
医院的	-2910
常规	-2911
怎样	-2912
大于	-2913
制冷	-2914
动画	-2915
巴西	-2916
急性	-2917
也许	-2918
牢记	-2919
三角	-2920
摩擦	-2921
用作	-2922
白酒	-2923
的中国	-2924
而在	-2925
供应商	-2926
心脏	-2927
地区的	-2928
澳大利亚	-2929
女儿	-2930
座谈	-2931
纪录	-2932
承受	-2933
优先	-2934
是以	-2935
销量	-2936
医治	-2937
国民	-2938
项目的	-2939
依靠	-2940
长江	-2941
介绍了	-2942
的基础上	-2943
浪费	-2944
国家和	-2945
志愿者	-2946
尝试	-2947
清理	-2948
也没有	-2949
导向	-2950
的市场	-2951
渗透	-2952
东南	-2953
学者	-2954
五年	-2955
城乡	-2956
出发	-2957
签订	-2958
太阳能	-2959
信念	-2960
学员	-2961
▁以	-2962
群体	-2963
反对	-2964
翻译	-2965
弹性	-2966
户外	-2967
控股	-2968
粉丝	-2969
粮食	-2970
回答	-2971
是个	-2972
市政府	-2973
电路	-2974
参加了	-2975
简介	-2976
缺点	-2977
老化	-2978
未来的	-2979
问题的	-2980
实地	-2981
就在	-2982
让我	-2983
活动的	-2984
差距	-2985
合理的	-2986
维度	-2987
的故事	-2988
少数	-2989
▁6.	-2990
卓越	-2991
的应用	-2992
军事	-2993
夏季	-2994
产业发展	-2995
5-	-2996
输入	-2997
不受	-2998
实时	-2999
钢板	-3000
第一个	-3001
二级	-3002
各自	-3003
威胁	-3004
很少	-3005
入口	-3006
健康的	-3007
我校	-3008
120	-3009
二氧化	-3010
自身的	-3011
存储	-3012
太多	-3013
火灾	-3014
系数	-3015
优惠	-3016
爱国	-3017
不宜	-3018
隔离	-3019
卵巢	-3020
年底	-3021
整理	-3022
噪音	-3023
发性	-3024
由此	-3025
消失	-3026
制成	-3027
古代	-3028
战胜	-3029
76	-3030
发达	-3031
日益	-3032
疲劳	-3033
紫外线	-3034
便捷	-3035
气温	-3036
效应	-3037
无人	-3038
建设的	-3039
有效地	-3040
中学	-3041
通报	-3042
一个新的	-3043
技巧	-3044
排水	-3045
at	-3046
名为	-3047
▁另外	-3048
▁同时	-3049
在这个	-3050
有力	-3051
万平方米	-3052
地点	-3053
通讯	-3054
进行治疗	-3055
也将	-3056
化合物	-3057
5000	-3058
等待	-3059
纪律	-3060
150	-3061
必要的	-3062
de	-3063
舞蹈	-3064
比分	-3065
金额	-3066
▁此次	-3067
山东省	-3068
平稳	-3069
燃料	-3070
纪委	-3071
不够	-3072
简单的	-3073
46	-3074
提交	-3075
800	-3076
上有	-3077
为核心	-3078
的目的	-3079
精心	-3080
予以	-3081
想象	-3082
皇马	-3083
it	-3084
容量	-3085
给大家	-3086
激发	-3087
践行	-3088
数据显示	-3089
4-	-3090
痛苦	-3091
本赛季	-3092
并非	-3093
信誉	-3094
要在	-3095
会对	-3096
加拿	-3097
的美	-3098
ISO	-3099
模型	-3100
泡沫	-3101
诸多	-3102
举措	-3103
强大	-3104
澳门	-3105
充电	-3106
替代	-3107
中医药	-3108
健身	-3109
扶贫	-3110
攻击	-3111
走向	-3112
十八	-3113
▁第三	-3114
技术人员	-3115
权威	-3116
家居	-3117
警方	-3118
转换	-3119
心态	-3120
人们的	-3121
科技有限公司	-3122
策划	-3123
透露	-3124
体质	-3125
处置	-3126
具有良好的	-3127
仔细	-3128
风景	-3129
评论	-3130
▁(3)	-3131
体制	-3132
是很	-3133
新时代中国特色社会主义	-3134
共计	-3135
即将	-3136
各大	-3137
的研究	-3138
化妆	-3139
收到	-3140
无需	-3141
▁年	-3142
▁张	-3143
规定的	-3144
不开	-3145
性强	-3146
98	-3147
搅拌	-3148
过多	-3149
二次	-3150
感冒	-3151
描述	-3152
完善的	-3153
或者是	-3154
条件下	-3155
修改	-3156
初期	-3157
后期	-3158
城镇	-3159
妻子	-3160
当天	-3161
子女	-3162
意间	-3163
标准化	-3164
溶液	-3165
频率	-3166
PE	-3167
沈阳	-3168
正确的	-3169
等多种	-3170
飞机	-3171
有序	-3172
摄入	-3173
桥梁	-3174
最重要	-3175
女士	-3176
脱贫	-3177
是不是	-3178
现在的	-3179
苏州	-3180
落地	-3181
授权	-3182
接种	-3183
江苏省	-3184
人流	-3185
响应	-3186
复兴	-3187
绿化	-3188
水质	-3189
污泥	-3190
留下	-3191
重复	-3192
物业	-3193
精品	-3194
通用	-3195
发动机	-3196
显得	-3197
▁王	-3198
绝缘	-3199
:00	-3200
人文	-3201
出行	-3202
深受	-3203
1/	-3204
之为	-3205
站在	-3206
不禁	-3207
给了	-3208
et	-3209
发明	-3210
地板	-3211
西南	-3212
深思	-3213
程度上	-3214
两次	-3215
途径	-3216
甘肃	-3217
角逐	-3218
不适	-3219
放松	-3220
策略	-3221
和发展	-3222
防范	-3223
微量元素	-3224
66	-3225
访问	-3226
数学	-3227
女孩	-3228
旅行	-3229
指示	-3230
携手	-3231
夏天	-3232
的光	-3233
身心	-3234
河南省	-3235
的相关	-3236
人工智能	-3237
是可以	-3238
,3	-3239
所得	-3240
小区	-3241
出去	-3242
命运	-3243
多人	-3244
无疑	-3245
法治	-3246
st	-3247
再生	-3248
必然	-3249
交换	-3250
已有	-3251
普及	-3252
煤炭	-3253
肠道	-3254
被告	-3255
▁以上就是	-3256
明显的	-3257
审核	-3258
增值	-3259
心里	-3260
IP	-3261
这就是	-3262
客场	-3263
至于	-3264
房间	-3265
负担	-3266
带来了	-3267
,19	-3268
可达	-3269
器官	-3270
球场	-3271
退休	-3272
公交	-3273
城区	-3274
旋转	-3275
木材	-3276
评审	-3277
互相	-3278
被称为	-3279
公平	-3280
打击	-3281
矛盾	-3282
曼联	-3283
危机	-3284
的感觉	-3285
的管理	-3286
安全性	-3287
完成了	-3288
业内	-3289
奖励	-3290
她们	-3291
生成	-3292
签约	-3293
起了	-3294
两国	-3295
可在	-3296
技术和	-3297
企業	-3298
回家	-3299
等行业	-3300
健全	-3301
板材	-3302
便于	-3303
统筹	-3304
的患者	-3305
房子	-3306
之下	-3307
搭建	-3308
看来	-3309
生动	-3310
中國	-3311
斯特	-3312
等问题	-3313
从业	-3314
爆炸	-3315
一段时间	-3316
涂层	-3317
长沙	-3318
兄弟	-3319
疗法	-3320
提到过	-3321
财富	-3322
不如	-3323
民生	-3324
称之为	-3325
卵管	-3326
提示	-3327
隔热	-3328
忽视	-3329
魅力	-3330
党员干部	-3331
VC	-3332
少的	-3333
4、	-3334
展现出	-3335
小型	-3336
的机会	-3337
▁”	-3338
加拿大	-3339
58	-3340
实在	-3341
斗争	-3342
而不是	-3343
美容	-3344
阻燃	-3345
沦为	-3346
审视	-3347
购物	-3348
爱心	-3349
多数	-3350
步骤	-3351
能在	-3352
月的	-3353
真诚	-3354
种子	-3355
解放	-3356
餐厅	-3357
过的	-3358
增多	-3359
占地面积	-3360
三是	-3361
观念	-3362
曾经提到过	-3363
思考这个问题	-3364
为企业	-3365
数字化	-3366
▁今年	-3367
看起来	-3368
淘汰	-3369
牛奶	-3370
成为了	-3371
2007	-3372
常务	-3373
放心	-3374
超级	-3375
幼儿园	-3376
防疫	-3377
等的	-3378
文化的	-3379
输卵管	-3380
积极开展	-3381
对其	-3382
新生	-3383
下一步	-3384
走进	-3385
在全国	-3386
甲醛	-3387
用户的	-3388
都知道	-3389
令我	-3390
了解到	-3391
原本	-3392
新兴	-3393
更容易	-3394
高血压	-3395
2006	-3396
磨损	-3397
茶叶	-3398
流产	-3399
el	-3400
内心	-3401
巴萨	-3402
电磁	-3403
这位	-3404
进程	-3405
的功能	-3406
较大的	-3407
▁上	-3408
以外	-3409
护栏	-3410
拜仁	-3411
用人	-3412
感受到	-3413
抓好	-3414
遵循	-3415
主要有	-3416
我公司	-3417
增速	-3418
不孕	-3419
越来越多	-3420
保留	-3421
关闭	-3422
局面	-3423
达成	-3424
▁因为	-3425
方针	-3426
蒸汽	-3427
的成绩	-3428
录取	-3429
新时代中国特色社会主义思想	-3430
大脑	-3431
人力资源	-3432
适量	-3433
不知	-3434
后果	-3435
稳定的	-3436
人民法院	-3437
注意事项	-3438
地震	-3439
登录	-3440
▁B	-3441
仪表	-3442
储存	-3443
同步	-3444
辣椒	-3445
来看看	-3446
治愈	-3447
尼斯	-3448
显然	-3449
查询	-3450
评为	-3451
课题	-3452
▁虽然	-3453
▁据了解	-3454
催化	-3455
监察	-3456
车站	-3457
和技术	-3458
的东西	-3459
的变化	-3460
真正的	-3461
较好的	-3462
制药	-3463
外伤	-3464
小说	-3465
开关	-3466
龙江	-3467
某种	-3468
乐观	-3469
患上	-3470
焦虑	-3471
喷涂	-3472
遭遇	-3473
喜爱	-3474
把我们	-3475
看见	-3476
一方面	-3477
法定	-3478
优秀的	-3479
超声波	-3480
传输	-3481
销商	-3482
研制	-3483
西亚	-3484
1:	-3485
难题	-3486
祝福	-3487
镀锌	-3488
我们可以	-3489
▁;	-3490
协作	-3491
热量	-3492
公示	-3493
分数	-3494
同一	-3495
出现在	-3496
不仅仅	-3497
快速增长	-3498
問題	-3499
待遇	-3500
旗下	-3501
赢得	-3502
▁据悉	-3503
▁现在	-3504
便是	-3505
要想	-3506
观点	-3507
▁产品	-3508
受伤	-3509
歌曲	-3510
进而	-3511
生涯	-3512
多项	-3513
场地	-3514
西北	-3515
合适的	-3516
手表	-3517
点击	-3518
面前	-3519
各国	-3520
硬件	-3521
招商	-3522
职称	-3523
有一定的	-3524
办事	-3525
水平的	-3526
分散	-3527
初步	-3528
。19	-3529
出台	-3530
反而	-3531
快捷	-3532
预期	-3533
抑郁	-3534
大陆	-3535
开幕	-3536
还将	-3537
▁M	-3538
团体	-3539
固体	-3540
授予	-3541
等特点	-3542
、“	-3543
历程	-3544
增大	-3545
还需要	-3546
依赖	-3547
毫米	-3548
服务的	-3549
内膜	-3550
厨房	-3551
对比	-3552
机电	-3553
不吃	-3554
工件	-3555
了很多	-3556
内蒙古	-3557
色素	-3558
▁白癜风	-3559
4)	-3560
共赢	-3561
发放	-3562
我希望	-3563
面上	-3564
常委	-3565
文艺	-3566
的可能	-3567
十大	-3568
期限	-3569
激励	-3570
的过程	-3571
外国	-3572
ic	-3573
广播	-3574
有点	-3575
进取	-3576
会使	-3577
增进	-3578
旨在	-3579
档案	-3580
线下	-3581
非洲	-3582
所以在	-3583
不在	-3584
发电机	-3585
奥运会	-3586
研究中心	-3587
小心	-3588
排出	-3589
赔偿	-3590
便宜	-3591
四川省	-3592
日上午	-3593
检察	-3594
注射	-3595
节日	-3596
家里	-3597
47	-3598
委托	-3599
强劲	-3600
收藏	-3601
违反	-3602
玻璃钢	-3603
溶剂	-3604
对待	-3605
的全	-3606
带到了	-3607
一带一路	-3608
刑事	-3609
圆形	-3610
实训	-3611
诉讼	-3612
如果是	-3613
:「	-3614
器械	-3615
型号	-3616
日常生活中	-3617
停车	-3618
平安	-3619
模块	-3620
流通	-3621
还没有	-3622
对阵	-3623
民营	-3624
坚持以	-3625
整治	-3626
还可	-3627
900	-3628
56	-3629
提取	-3630
基本上	-3631
的现象	-3632
并发	-3633
场的	-3634
▁主要	-3635
高速公路	-3636
氯化	-3637
框架	-3638
党组织	-3639
秘书长	-3640
吉林	-3641
温室	-3642
分配	-3643
上海市	-3644
不断的	-3645
人心	-3646
火锅	-3647
癌症	-3648
是我们	-3649
游泳	-3650
配送	-3651
总额	-3652
粉末	-3653
电子商务	-3654
不多	-3655
养生	-3656
射门	-3657
电站	-3658
路线	-3659
封闭	-3660
▁最后	-3661
这一点	-3662
全年	-3663
盲目	-3664
美食	-3665
运转	-3666
的目标	-3667
。」	-3668
有多	-3669
身体的	-3670
好了	-3671
血糖	-3672
人和	-3673
预示着	-3674
妊娠	-3675
物资	-3676
不当	-3677
光伏	-3678
总局	-3679
产能	-3680
他说	-3681
好评	-3682
型材	-3683
摄影	-3684
的首	-3685
终端	-3686
院士	-3687
说过一句	-3688
究竟	-3689
口碑	-3690
杂志	-3691
辅导	-3692
▁其实	-3693
丈夫	-3694
看着	-3695
刚刚	-3696
务实	-3697
人民群众	-3698
才会	-3699
時候	-3700
需要的	-3701
研讨	-3702
能力和	-3703
▁近年来	-3704
低碳	-3705
家族	-3706
,1	-3707
上一	-3708
入选	-3709
公斤	-3710
实体	-3711
至上	-3712
财运	-3713
违规	-3714
养成	-3715
微博	-3716
超越	-3717
高度重视	-3718
乳腺	-3719
十一	-3720
暴露	-3721
紧急	-3722
工作者	-3723
展会	-3724
延伸	-3725
疑惑	-3726
的花	-3727
济南	-3728
争取	-3729
答案	-3730
聚集	-3731
黄色	-3732
的情	-3733
遗产	-3734
的功效	-3735
机组	-3736
角球	-3737
评选	-3738
运作	-3739
占比	-3740
环境的	-3741
燃气	-3742
市场需求	-3743
建筑面积	-3744
南方	-3745
溶解	-3746
习近平新时代中国特色社会主义思想	-3747
火箭	-3748
缺陷	-3749
聚丙烯	-3750
▁可	-3751
以便	-3752
龙头	-3753
GB	-3754
启发	-3755
硫酸	-3756
友谊	-3757
挖掘	-3758
這個	-3759
不超过	-3760
党的十九	-3761
78	-3762
如有	-3763
精细	-3764
阀门	-3765
固化	-3766
月底	-3767
爸爸	-3768
四大	-3769
总裁	-3770
证据	-3771
的优势	-3772
44	-3773
白癜风医院	-3774
享有	-3775
对接	-3776
从严	-3777
相似	-3778
维度去	-3779
加坡	-3780
黑龙江	-3781
一生	-3782
坚实	-3783
把我们带到了	-3784
一个新的维度去	-3785
这句话把我们带到了	-3786
这句话把我们带到了一个新的维度去	-3787
是我	-3788
缩短	-3789
理由	-3790
就需要	-3791
▁高	-3792
传动	-3793
年前	-3794
强烈	-3795
征程	-3796
离婚	-3797
干扰	-3798
画面	-3799
今日	-3800
科学院	-3801
▁不过	-3802
要素	-3803
适当的	-3804
);	-3805
不应	-3806
极大	-3807
频繁	-3808
马克思	-3809
环氧	-3810
不断提高	-3811
設計	-3812
比上	-3813
这部	-3814
的人生	-3815
膨胀	-3816
68	-3817
这也	-3818
发生了	-3819
最重要的	-3820
离心	-3821
为中心	-3822
供应链	-3823
性生活	-3824
性价	-3825
手续	-3826
病变	-3827
那样	-3828
最为	-3829
公务	-3830
治疗的	-3831
cm	-3832
口感	-3833
民警	-3834
清除	-3835
男女	-3836
的高度	-3837
科学家	-3838
管理局	-3839
▁你	-3840
结束后	-3841
党和	-3842
全程	-3843
学习贯彻	-3844
新冠肺炎	-3845
到来	-3846
就不	-3847
巴黎	-3848
当年	-3849
采集	-3850
▁8、	-3851
最多	-3852
远程	-3853
打破	-3854
鸡蛋	-3855
日下午	-3856
大连	-3857
影響	-3858
以下简称	-3859
相关部门	-3860
NA	-3861
大批	-3862
汇报	-3863
的力量	-3864
个体	-3865
党组	-3866
大概	-3867
广阔	-3868
秩序	-3869
化妆品	-3870
共建	-3871
水性	-3872
读书	-3873
非常的	-3874
厂房	-3875
梅西	-3876
说法	-3877
事业单位	-3878
开设	-3879
现状	-3880
价值观	-3881
副作用	-3882
传达	-3883
取消	-3884
廉政	-3885
正常的	-3886
较多	-3887
深圳市	-3888
42	-3889
com	-3890
乡村振兴	-3891
克服	-3892
无限	-3893
三种	-3894
排查	-3895
分公司	-3896
场上	-3897
ing	-3898
表现为	-3899
ou	-3900
成品	-3901
的第一	-3902
集团公司	-3903
以往	-3904
▁2021	-3905
振动	-3906
随意	-3907
无缝	-3908
飞行	-3909
的规定	-3910
移民	-3911
亲子	-3912
雕塑	-3913
同事	-3914
水箱	-3915
预算	-3916
一片	-3917
地质	-3918
票房	-3919
紊乱	-3920
建设和	-3921
主要用于	-3922
华为	-3923
精子	-3924
类的	-3925
选举	-3926
灾害	-3927
影响力	-3928
起重机	-3929
供给	-3930
升高	-3931
哪个	-3932
心中	-3933
投标	-3934
皮损	-3935
美好的	-3936
室外	-3937
积分	-3938
补贴	-3939
类型的	-3940
身份证	-3941
中国人民	-3942
东部	-3943
集团有限公司	-3944
漂亮	-3945
耐用	-3946
零部件	-3947
一支	-3948
厦门	-3949
在校	-3950
2.5	-3951
理工	-3952
高峰	-3953
可根据	-3954
样品	-3955
2005	-3956
实习	-3957
过了	-3958
进攻	-3959
此同时	-3960
的形式	-3961
还包括	-3962
模拟	-3963
适宜	-3964
阳市	-3965
高铁	-3966
95	-3967
为止	-3968
外部	-3969
泰国	-3970
给人	-3971
有关部门	-3972
中超	-3973
活動	-3974
爱好	-3975
主角	-3976
▁第一	-3977
昆明	-3978
青睐	-3979
了解一下	-3980
洁净	-3981
处的	-3982
农药	-3983
,5	-3984
▁的	-3985
以此	-3986
嫌疑	-3987
福利	-3988
制造商	-3989
学习教育	-3990
es	-3991
贵的	-3992
起点	-3993
之所以	-3994
重要讲话	-3995
一行	-3996
信赖	-3997
早日	-3998
武器	-3999
齿轮	-4000
经意间	-4001
临时	-4002
主队	-4003
批评	-4004
移植	-4005
带头	-4006
度和	-4007
无数	-4008
联合国	-4009
中文	-4010
式的	-4011
真理	-4012
获奖	-4013
很短	-4014
辉煌	-4015
个篮板	-4016
号线	-4017
客观	-4018
▁企业	-4019
赢得了	-4020
入了	-4021
人员的	-4022
冲突	-4023
▁2022	-4024
变频	-4025
国产	-4026
沉淀	-4027
薄膜	-4028
提供的	-4029
生产厂家	-4030
均可	-4031
约为	-4032
西藏	-4033
了我的	-4034
正规的	-4035
我们就	-4036
那就是	-4037
比亚	-4038
剧情	-4039
▁一般	-4040
学校的	-4041
当事	-4042
省市	-4043
社会的	-4044
能耗	-4045
课堂	-4046
尽可能	-4047
CO	-4048
路上	-4049
哈尔	-4050
皇帝	-4051
克斯	-4052
著作	-4053
年轻人	-4054
节奏	-4055
这似乎	-4056
车的	-4057
在治疗	-4058
柴油	-4059
活动中	-4060
出現	-4061
堵塞	-4062
换热	-4063
股权	-4064
酒精	-4065
家电	-4066
有毒	-4067
.5	-4068
??	-4069
场合	-4070
扩展	-4071
供水	-4072
合作伙伴	-4073
星期	-4074
蒸发	-4075
子宫内膜	-4076
除此	-4077
期货	-4078
本届	-4079
迎来	-4080
慎重的	-4081
的核心	-4082
出场	-4083
较好	-4084
到位	-4085
原来	-4086
携带	-4087
编制	-4088
兴奋	-4089
工会	-4090
开工	-4091
本地	-4092
光滑	-4093
技術	-4094
生意	-4095
越南	-4096
转化为	-4097
上市公司	-4098
不忘初心	-4099
AA	-4100
件事	-4101
劳务	-4102
次数	-4103
任意球	-4104
单元	-4105
反馈	-4106
组建	-4107
科目	-4108
考虑到	-4109
定义	-4110
来讲	-4111
睡觉	-4112
都很	-4113
巩固	-4114
部队	-4115
是比较	-4116
西方	-4117
放置	-4118
各项工作	-4119
不想	-4120
收购	-4121
▁其中	-4122
付出	-4123
体重	-4124
为一体的	-4125
日报	-4126
负荷	-4127
间的	-4128
阵容	-4129
图像	-4130
招标	-4131
玉米	-4132
這樣	-4133
治疗方法	-4134
林业	-4135
强制	-4136
易于	-4137
清水	-4138
II	-4139
再行	-4140
专注于	-4141
有益	-4142
率先	-4143
再度	-4144
合肥	-4145
的气	-4146
礼物	-4147
浙江省	-4148
经销商	-4149
五金	-4150
审批	-4151
长春	-4152
无线	-4153
▁其	-4154
拿到	-4155
中含有	-4156
活性炭	-4157
开心	-4158
收缩	-4159
本站	-4160
十五	-4161
都市	-4162
影响到	-4163
中毒	-4164
中全会	-4165
公司在	-4166
指导下	-4167
人为	-4168
旅客	-4169
港澳	-4170
综合性	-4171
国防	-4172
多名	-4173
模范	-4174
昨天	-4175
ang	-4176
,4	-4177
板块	-4178
你可以	-4179
性价比	-4180
较强的	-4181
ac	-4182
灭火	-4183
饮用	-4184
外科	-4185
杀菌	-4186
率为	-4187
看出	-4188
隔音	-4189
分别为	-4190
城市的	-4191
不太	-4192
排除	-4193
直径	-4194
已經	-4195
强国	-4196
东莞	-4197
作物	-4198
尚未	-4199
并对	-4200
大师	-4201
有利	-4202
▁除了	-4203
存在的	-4204
用电	-4205
足够的	-4206
后续	-4207
尼亚	-4208
警察	-4209
首批	-4210
党的二十大精神	-4211
仅有	-4212
我们将	-4213
改革开放	-4214
导体	-4215
潜力	-4216
这两	-4217
历史上	-4218
水处理	-4219
添加剂	-4220
这对	-4221
NBA	-4222
时间的	-4223
时机	-4224
第六	-4225
欧盟	-4226
常用的	-4227
等症状	-4228
这不禁	-4229
声明	-4230
对话	-4231
最早	-4232
可用于	-4233
品牌的	-4234
朋友们	-4235
也就是说	-4236
长度	-4237
聚乙烯	-4238
鲜明	-4239
黄河	-4240
职能	-4241
基础上	-4242
77	-4243
不久	-4244
当代	-4245
85	-4246
传媒	-4247
麻烦	-4248
的表现	-4249
ro	-4250
测定	-4251
酰胺	-4252
▁.	-4253
吉利	-4254
体现了	-4255
的数据	-4256
乃至	-4257
时光	-4258
是要	-4259
触摸	-4260
隧道	-4261
,2	-4262
下跌	-4263
决心	-4264
吸烟	-4265
给你	-4266
耐心	-4267
在不经意间	-4268
占据	-4269
商家	-4270
超市	-4271
PVC	-4272
各部门	-4273
都没有	-4274
伊朗	-4275
纳入	-4276
的信息	-4277
▁-	-4278
几天	-4279
忠诚	-4280
辛辣	-4281
挑选	-4282
短期	-4283
竞技	-4284
承认	-4285
珍惜	-4286
如果不	-4287
高品质	-4288
北方	-4289
波动	-4290
远离	-4291
医生的	-4292
老板	-4293
谨慎	-4294
这样说过	-4295
台灣	-4296
补偿	-4297
地上	-4298
欧元	-4299
组成员	-4300
社會	-4301
很多的	-4302
接着	-4303
发生的	-4304
▁这是	-4305
上半年	-4306
我想	-4307
曝光	-4308
▁关于	-4309
另一个	-4310
的组织	-4311
气的	-4312
牢固	-4313
缴纳	-4314
越大	-4315
那里	-4316
面部	-4317
▁经过	-4318
新加坡	-4319
的就是	-4320
仅仅	-4321
剧中	-4322
處理	-4323
受到了	-4324
在北京	-4325
污染物	-4326
PC	-4327
am	-4328
▁要	-4329
仓库	-4330
边缘	-4331
承载	-4332
等工作	-4333
引擎	-4334
多了	-4335
新华	-4336
害怕	-4337
慈善	-4338
新建	-4339
单一	-4340
占有	-4341
订单	-4342
高新技术企业	-4343
县委	-4344
明年	-4345
签署	-4346
APP	-4347
听取	-4348
快的	-4349
越高	-4350
为主题	-4351
牛皮癣的	-4352
環境	-4353
车型	-4354
发生在	-4355
懂得	-4356
国家队	-4357
实际情况	-4358
德里	-4359
伴有	-4360
外交	-4361
定了	-4362
教材	-4363
瘙痒	-4364
全自动	-4365
进出口	-4366
出一	-4367
带有	-4368
成年人	-4369
更高的	-4370
达到了	-4371
本土	-4372
淀粉	-4373
一边	-4374
既然	-4375
验收	-4376
显示屏	-4377
5、	-4378
内地	-4379
发酵	-4380
在大	-4381
必需	-4382
慰问	-4383
步伐	-4384
精力	-4385
在不经意间这样说过	-4386
PS	-4387
不懈	-4388
让他们	-4389
我们还要	-4390
mg	-4391
传统文化	-4392
小于	-4393
点球	-4394
接待	-4395
照顾	-4396
线的	-4397
▁学校	-4398
好好地	-4399
解决问题	-4400
治疗白癜风	-4401
借助	-4402
变革	-4403
净水	-4404
硬化	-4405
艰难	-4406
优质的	-4407
设计的	-4408
▁它	-4409
疗效	-4410
迎接	-4411
86	-4412
」。	-4413
公民	-4414
压机	-4415
篮球	-4416
致的	-4417
設備	-4418
人体的	-4419
特殊的	-4420
國家	-4421
拼搏	-4422
河北省	-4423
胚胎	-4424
要把	-4425
利率	-4426
日期	-4427
上去	-4428
某某	-4429
可分为	-4430
前期	-4431
的学生	-4432
的结果	-4433
胡萝卜	-4434
立方	-4435
都需要	-4436
为此	-4437
审计	-4438
发扬	-4439
校区	-4440
生產	-4441
阿尔	-4442
的关系	-4443
体检	-4444
在国内	-4445
湖北省	-4446
技术创新	-4447
常态	-4448
石化	-4449
面试	-4450
▁T	-4451
三十	-4452
宣讲	-4453
本质	-4454
债务	-4455
出色	-4456
切削	-4457
客队	-4458
网址	-4459
组成部分	-4460
器件	-4461
提出的	-4462
要求的	-4463
别的	-4464
一部分	-4465
不起	-4466
为人	-4467
几十	-4468
地址	-4469
涉嫌	-4470
阿里	-4471
屏幕	-4472
表彰	-4473
讲座	-4474
经济效益	-4475
热水器	-4476
消费者的	-4477
li	-4478
中等	-4479
头发	-4480
虚拟	-4481
装配	-4482
怎么办	-4483
已经成为	-4484
冷冻	-4485
坚守	-4486
契机	-4487
選擇	-4488
产值	-4489
冬天	-4490
山市	-4491
农产品	-4492
活跃	-4493
骨干	-4494
▁然而	-4495
发展和	-4496
的态度	-4497
2003	-4498
姆斯	-4499
得分	-4500
跨境	-4501
企业在	-4502
1,	-4503
回报	-4504
宇宙	-4505
电阻	-4506
分鐘	-4507
0.5	-4508
2004	-4509
认知	-4510
附加	-4511
什么是	-4512
时间内	-4513
43	-4514
地图	-4515
乳房	-4516
壮大	-4517
期刊	-4518
用量	-4519
元件	-4520
矿山	-4521
可以根据	-4522
这样才能	-4523
主营	-4524
裁判	-4525
观赏	-4526
特别是在	-4527
同時	-4528
无机	-4529
激烈	-4530
特种	-4531
石墨	-4532
副主席	-4533
就医	-4534
引入	-4535
船舶	-4536
景点	-4537
机动	-4538
派遣	-4539
米兰	-4540
便秘	-4541
探讨	-4542
新一	-4543
静脉	-4544
马上	-4545
▁7.	-4546
作了	-4547
恶性	-4548
标签	-4549
开发区	-4550
法律法规	-4551
上班	-4552
代码	-4553
卫星	-4554
继承	-4555
家属	-4556
打进	-4557
雄厚	-4558
为中国	-4559
已完成	-4560
▁D	-4561
▁刘	-4562
依旧	-4563
好像	-4564
年初	-4565
晋级	-4566
具体的	-4567
▁天	-4568
解读	-4569
安全的	-4570
盈利	-4571
天然气	-4572
的一些	-4573
▁总	-4574
几种	-4575
击败	-4576
象征	-4577
这时	-4578
全世界	-4579
亮相	-4580
百度	-4581
的出现	-4582
两大	-4583
回归	-4584
系統	-4585
螺旋	-4586
開始	-4587
新材料	-4588
有一些	-4589
新能源汽车	-4590
家中	-4591
山区	-4592
得以	-4593
电网	-4594
繁荣	-4595
记得	-4596
发布的	-4597
电信	-4598
):	-4599
取决	-4600
患病	-4601
相反	-4602
的人员	-4603
庆祝	-4604
氨酸	-4605
用心	-4606
纠纷	-4607
英超	-4608
常委会	-4609
我市	-4610
版本	-4611
潮湿	-4612
的健康	-4613
五个	-4614
党委副书记	-4615
ao	-4616
一人	-4617
加油	-4618
热爱	-4619
顾问	-4620
市长	-4621
几率	-4622
科普	-4623
等相关	-4624
扩张	-4625
除尘	-4626
企业和	-4627
每一位	-4628
层面	-4629
参展	-4630
图案	-4631
排卵	-4632
机体	-4633
杂质	-4634
认同	-4635
这种情况	-4636
,6	-4637
代替	-4638
选购	-4639
取决于	-4640
对人体	-4641
两位	-4642
繁殖	-4643
等多个	-4644
白癜风的治疗	-4645
zh	-4646
一度	-4647
公积	-4648
本着	-4649
法人	-4650
职务	-4651
首都	-4652
▁12	-4653
不容易	-4654
除此之外	-4655
设计师	-4656
少吃	-4657
碳酸	-4658
调试	-4659
小程序	-4660
兰州	-4661
去了	-4662
并未	-4663
钢丝	-4664
带着这句话	-4665
致辞	-4666
读者	-4667
调理	-4668
▁近日	-4669
72	-4670
附属	-4671
我们还要更加	-4672
之处	-4673
奶茶	-4674
师资	-4675
派出	-4676
在一	-4677
演唱	-4678
这就	-4679
了中国	-4680
圆满	-4681
扮演	-4682
一等奖	-4683
其中的	-4684
再加上	-4685
主人	-4686
土工	-4687
图书馆	-4688
就诊	-4689
导致的	-4690
降低了	-4691
79	-4692
友好	-4693
附件	-4694
并发症	-4695
优越	-4696
前沿	-4697
回忆	-4698
常用	-4699
能否	-4700
用人单位	-4701
转型升级	-4702
成為	-4703
大家的	-4704
也能好好地	-4705
也能好好地体会	-4706
每月	-4707
芯片	-4708
一直在	-4709
很强的	-4710
有些人	-4711
科学的	-4712
头痛	-4713
练习	-4714
是为了	-4715
头部	-4716
的不同	-4717
的状态	-4718
▁人	-4719
证实	-4720
52	-4721
政协	-4722
站式	-4723
视野	-4724
储备	-4725
相处	-4726
腹泻	-4727
警告	-4728
电视台	-4729
科学技术	-4730
创立	-4731
暂时	-4732
照射	-4733
做事	-4734
出演	-4735
小孩	-4736
快递	-4737
产生了	-4738
大规模	-4739
子公司	-4740
带给	-4741
落后	-4742
返回	-4743
bo	-4744
不住	-4745
佛教	-4746
失调	-4747
特定	-4748
▁其次	-4749
管理的	-4750
较小	-4751
队在	-4752
离不开	-4753
税收	-4754
青海	-4755
公积金	-4756
传奇	-4757
潜在	-4758
管控	-4759
女性的	-4760
让自己	-4761
慎重的审视	-4762
慎重的审视这个问题	-4763
协商	-4764
外出	-4765
库存	-4766
纪检	-4767
说话	-4768
陆续	-4769
呕吐	-4770
失望	-4771
防爆	-4772
标准的	-4773
环境保护	-4774
我们还要更加慎重的审视这个问题	-4775
指定	-4776
赚钱	-4777
不可避免	-4778
减少了	-4779
复杂的	-4780
北部	-4781
坚强	-4782
打算	-4783
持有	-4784
可靠性	-4785
解决了	-4786
41	-4787
份额	-4788
嘉宾	-4789
,10	-4790
关怀	-4791
南部	-4792
暖气	-4793
功夫	-4794
原始	-4795
电解	-4796
的材料	-4797
领导班子	-4798
不变	-4799
留学	-4800
的抗	-4801
荷兰	-4802
从严治	-4803
网络安全	-4804
留在	-4805
全新的	-4806
完结	-4807
只需	-4808
个性化	-4809
医疗机构	-4810
假期	-4811
日晚	-4812
租车	-4813
今年的	-4814
的风险	-4815
2002	-4816
药物治疗	-4817
重要的是	-4818
之际	-4819
捐赠	-4820
厂商	-4821
门诊	-4822
为基础	-4823
缓慢	-4824
记载	-4825
哈尔滨	-4826
书画	-4827
激情	-4828
▁今天	-4829
相当于	-4830
管理人员	-4831
▁2020	-4832
名列	-4833
实事	-4834
的那	-4835
▁当然	-4836
十四五	-4837
仓储	-4838
家用	-4839
寒冷	-4840
徒刑	-4841
肝脏	-4842
与其他	-4843
经济的	-4844
一项	-4845
氨基	-4846
港口	-4847
让他	-4848
过来	-4849
這些	-4850
及以上	-4851
的位置	-4852
我们必须	-4853
的重要性	-4854
人都	-4855
的行为	-4856
出售	-4857
严肃	-4858
清华	-4859
哲学	-4860
石材	-4861
洗涤	-4862
渐渐	-4863
载体	-4864
ong	-4865
也不能	-4866
也能好好地体会这句话	-4867
平面	-4868
批发	-4869
的风	-4870
中小企业	-4871
剂的	-4872
动脉	-4873
支出	-4874
理财	-4875
缺少	-4876
情节	-4877
▁2019	-4878
了我的疑惑	-4879
解答了我的疑惑	-4880
均衡	-4881
总理	-4882
开展了	-4883
总投资	-4884
什麼	-4885
境内	-4886
我院	-4887
民众	-4888
快速发展	-4889
53	-4890
男孩	-4891
考验	-4892
设定	-4893
性能好	-4894
最具	-4895
绘画	-4896
聚合	-4897
效率高	-4898
湖南省	-4899
的营养	-4900
等方式	-4901
大道	-4902
的人才	-4903
的朋友	-4904
發現	-4905
他们在	-4906
要及时	-4907
早上	-4908
设备和	-4909
浮想	-4910
灌装	-4911
背后	-4912
这款	-4913
歌手	-4914
的建设	-4915
▁金	-4916
有色	-4917
联翩	-4918
艰苦	-4919
半导体	-4920
成功的	-4921
全民	-4922
勇于	-4923
宗教	-4924
是我国	-4925
浮想联翩	-4926
腾讯	-4927
期徒刑	-4928
这似乎解答了我的疑惑	-4929
就算	-4930
走出	-4931
受欢迎	-4932
东京	-4933
可用	-4934
失眠	-4935
投票	-4936
建筑物	-4937
希望能够	-4938
主导	-4939
倡导	-4940
关爱	-4941
和高	-4942
界面	-4943
应注意	-4944
第三方	-4945
执业	-4946
钢材	-4947
防御	-4948
和工作	-4949
固醇	-4950
最初	-4951
术后	-4952
的全部	-4953
又有	-4954
彰显	-4955
还原	-4956
发病率	-4957
不断提升	-4958
不育	-4959
清热	-4960
相關	-4961
贝尔	-4962
食欲	-4963
副院长	-4964
▁「	-4965
犯规	-4966
背景下	-4967
气管	-4968
,7	-4969
不动	-4970
佩戴	-4971
前后	-4972
奋进	-4973
许可证	-4974
导热	-4975
越好	-4976
最后一	-4977
单独	-4978
宁波	-4979
资助	-4980
让孩子	-4981
67	-4982
中级	-4983
地坪	-4984
将以	-4985
为用户	-4986
很高的	-4987
润滑油	-4988
▁是	-4989
下一	-4990
入学	-4991
官员	-4992
寻求	-4993
▁(4)	-4994
启发了我	-4995
向上	-4996
接到	-4997
这启发了我	-4998
64	-4999
味的	-5000
善于	-5001
物体	-5002
极大的	-5003
截止	-5004
明天	-5005
流水	-5006
医疗器械	-5007
首席	-5008
一个月	-5009
压缩机	-5010
ji	-5011
源于	-5012
窗口	-5013
二等奖	-5014
几点	-5015
可谓	-5016
境外	-5017
脱水	-5018
降温	-5019
性疾病	-5020
虽然很短	-5021
2,	-5022
之人	-5023
并将	-5024
肌肤	-5025
转入	-5026
玩具	-5027
英文	-5028
但令我	-5029
值得一	-5030
和生活	-5031
可持续发展	-5032
与会	-5033
实质	-5034
布置	-5035
欣赏	-5036
玫瑰	-5037
是怎么	-5038
这句话语	-5039
但令我浮想联翩	-5040
这句话语虽然很短	-5041
ol	-5042
五大	-5043
哲理	-5044
的合作	-5045
57	-5046
咳嗽	-5047
现金	-5048
紧紧	-5049
全国各地	-5050
匹配	-5051
坐落	-5052
可以用	-5053
是否有	-5054
生产企业	-5055
人事	-5056
回来	-5057
未能	-5058
要以	-5059
金牌	-5060
耐高温	-5061
公正	-5062
合并	-5063
洗净	-5064
▁美国	-5065
会产生	-5066
国际化	-5067
助理	-5068
的文化	-5069
马克思主义	-5070
亮点	-5071
回顾	-5072
”;	-5073
核酸	-5074
牛肉	-5075
财经	-5076
牛皮癣患者	-5077
债券	-5078
冰箱	-5079
前行	-5080
成交	-5081
道理	-5082
强烈的	-5083
条件的	-5084
克兰	-5085
分的	-5086
这项	-5087
门口	-5088
一次性	-5089
--------	-5090
家庄	-5091
底线	-5092
饮水	-5093
不错的	-5094
科室	-5095
饲料	-5096
组织的	-5097
%、	-5098
▁●	-5099
噪声	-5100
铸造	-5101
嫌疑人	-5102
请求	-5103
于一体的	-5104
服务中心	-5105
制的	-5106
南北	-5107
女足	-5108
96	-5109
瞬间	-5110
关键词	-5111
的项目	-5112
凌晨	-5113
尿道	-5114
生日	-5115
集装	-5116
信息技术	-5117
意志	-5118
热点	-5119
钢筋	-5120
通过了	-5121
吃饭	-5122
会造成	-5123
==	-5124
对症	-5125
账户	-5126
kg	-5127
全新	-5128
太平	-5129
素养	-5130
优良的	-5131
发射	-5132
法兰	-5133
的世界	-5134
人与	-5135
企业家	-5136
控制系统	-5137
编剧	-5138
行驶	-5139
教育的	-5140
开通	-5141
感和	-5142
治療	-5143
花生	-5144
队以	-5145
的治疗方法	-5146
不含	-5147
刺激性	-5148
可以帮助	-5149
脱贫攻坚	-5150
网页	-5151
自考	-5152
衰老	-5153
与他人	-5154
的比赛	-5155
內容	-5156
不利于	-5157
一周	-5158
▁会上	-5159
增值税	-5160
有一定	-5161
葡萄酒	-5162
过滤器	-5163
▁六	-5164
争议	-5165
密集	-5166
贫血	-5167
0.0	-5168
万美元	-5169
交叉	-5170
冷凝	-5171
工序	-5172
情怀	-5173
秘密	-5174
立体	-5175
米的	-5176
轻质	-5177
作战	-5178
和管理	-5179
不上	-5180
不敢	-5181
工地	-5182
当事人	-5183
的社会	-5184
计量	-5185
▁这种	-5186
1500	-5187
冲洗	-5188
样子	-5189
浸泡	-5190
镜头	-5191
CE	-5192
却是	-5193
次于	-5194
▁11	-5195
形成的	-5196
建筑工程	-5197
▁她	-5198
切尔	-5199
螺杆	-5200
不管是	-5201
二氧化碳	-5202
师范大学	-5203
▁:	-5204
蜂蜜	-5205
有限责任	-5206
受理	-5207
先锋	-5208
花园	-5209
在内的	-5210
矿物质	-5211
对应	-5212
▁梦见	-5213
宪法	-5214
經濟	-5215
而出	-5216
产业化	-5217
不大	-5218
困扰	-5219
气氛	-5220
芝麻	-5221
完整的	-5222
也被	-5223
预约	-5224
學生	-5225
忘记	-5226
我省	-5227
臭氧	-5228
分别是	-5229
能力的	-5230
前来	-5231
粘度	-5232
酸碱	-5233
假如	-5234
感恩	-5235
压器	-5236
在外	-5237
跟踪	-5238
程度的	-5239
著名的	-5240
擅长	-5241
暴力	-5242
有时候	-5243
的介绍	-5244
伟大复兴	-5245
個人	-5246
粉尘	-5247
舒服	-5248
国家标准	-5249
角度来看	-5250
万辆	-5251
延续	-5252
片的	-5253
详情	-5254
阿根	-5255
一定会	-5256
成本低	-5257
省政府	-5258
实际行动	-5259
成立以来	-5260
信仰	-5261
專業	-5262
侵权	-5263
残留	-5264
残疾	-5265
注目	-5266
阿拉	-5267
细胞的	-5268
阿根廷	-5269
的一部分	-5270
59	-5271
溃疡	-5272
确立	-5273
送到	-5274
空压机	-5275
0-	-5276
开创	-5277
洗衣	-5278
热门	-5279
肠胃	-5280
也比较	-5281
威尼斯	-5282
确诊病例	-5283
又称	-5284
的前提	-5285
的学习	-5286
交通运输	-5287
拒绝接受	-5288
日常生活	-5289
产后	-5290
极为	-5291
灰尘	-5292
耐火	-5293
10.	-5294
不仅可以	-5295
IT	-5296
光明	-5297
地域	-5298
淋巴	-5299
第七	-5300
专业化	-5301
及其他	-5302
经济社会发展	-5303
养护	-5304
命中	-5305
在上	-5306
导师	-5307
茅台	-5308
等优点	-5309
,8	-5310
军人	-5311
近视	-5312
主流	-5313
垂直	-5314
得知	-5315
”,“	-5316
就不会	-5317
复印	-5318
廉洁	-5319
播放	-5320
环境中	-5321
经常出现	-5322
啤酒	-5323
脱落	-5324
▁马	-5325
在新	-5326
游乐	-5327
▁这些	-5328
不必	-5329
狗狗	-5330
说过这样	-5331
用地	-5332
只需要	-5333
了对	-5334
岁月	-5335
工委	-5336
炎的	-5337
遗址	-5338
被评为	-5339
充分利用	-5340
升降	-5341
态势	-5342
交易所	-5343
乡镇	-5344
資料	-5345
该公司	-5346
三级	-5347
不出	-5348
京东	-5349
爆发	-5350
牙齿	-5351
物浦	-5352
的天	-5353
次助攻	-5354
▁2018	-5355
ed	-5356
举报	-5357
倒数	-5358
感动	-5359
花费	-5360
69	-5361
主帅	-5362
创始	-5363
有趣	-5364
标识	-5365
罗马	-5366
调味	-5367
防潮	-5368
呼吸道	-5369
就没有	-5370
野生	-5371
的理念	-5372
列入	-5373
均为	-5374
总数	-5375
自律	-5376
管理和	-5377
水量	-5378
▁9、	-5379
LC	-5380
工程建设	-5381
供电	-5382
月初	-5383
促使	-5384
指南	-5385
转速	-5386
严谨	-5387
从小	-5388
你会	-5389
公寓	-5390
电线	-5391
第一时间	-5392
一张	-5393
接地	-5394
深的	-5395
腐败	-5396
食材	-5397
经济学	-5398
发展战略	-5399
全面从严治	-5400
业主	-5401
的多	-5402
领导干部	-5403
6-	-5404
业界	-5405
交往	-5406
单纯	-5407
应该是	-5408
ai	-5409
下滑	-5410
我在	-5411
文献	-5412
既有	-5413
纳米	-5414
高层	-5415
50%	-5416
不仅是	-5417
可以选择	-5418
业的	-5419
用手	-5420
育人	-5421
利物浦	-5422
海上	-5423
發生	-5424
的手	-5425
诊治	-5426
判决	-5427
将是	-5428
110	-5429
2001	-5430
中和	-5431
之意	-5432
伤口	-5433
型的	-5434
尽早	-5435
▁G	-5436
主力	-5437
國際	-5438
日制	-5439
神秘	-5440
见证	-5441
连锁	-5442
万亿元	-5443
积极的	-5444
品的	-5445
电梯	-5446
也需要	-5447
石家庄	-5448
党史学习教育	-5449
纽约	-5450
分会	-5451
堪称	-5452
废物	-5453
配方	-5454
高科技	-5455
97	-5456
国资	-5457
比重	-5458
腹部	-5459
保安	-5460
力争	-5461
头的	-5462
转让	-5463
为广大	-5464
有没有	-5465
住院	-5466
恶化	-5467
怎么样	-5468
等情况	-5469
管理工作	-5470
从来	-5471
发泡	-5472
尤文	-5473
年在	-5474
有望	-5475
罚款	-5476
通過	-5477
主持人	-5478
修订	-5479
动员	-5480
中所	-5481
女生	-5482
方可	-5483
油漆	-5484
生产和	-5485
富有哲理	-5486
无毒	-5487
柔软	-5488
豆腐	-5489
跨越	-5490
美丽的	-5491
▁白	-5492
受损	-5493
塑造	-5494
多达	-5495
的标准	-5496
等因素	-5497
中山	-5498
造价	-5499
做出了	-5500
两者	-5501
会给	-5502
劳动者	-5503
生产经营	-5504
受益	-5505
立刻	-5506
富有哲理的话	-5507
一同	-5508
原创	-5509
膳食	-5510
谈判	-5511
过长	-5512
项目建设	-5513
说过一句富有哲理的话	-5514
IC	-5515
ip	-5516
丧失	-5517
加深	-5518
医保	-5519
投诉	-5520
激动	-5521
输掉	-5522
是目前	-5523
更进一步	-5524
多彩	-5525
幅度	-5526
视力	-5527
▁上海	-5528
在选择	-5529
上门	-5530
染色	-5531
限于	-5532
实践中	-5533
新产品	-5534
的国家	-5535
主要包括	-5536
机械设备	-5537
▁陈	-5538
等到	-5539
如果没有	-5540
斯科	-5541
早在	-5542
格兰	-5543
多元化	-5544
我们应该	-5545
博览	-5546
流感	-5547
灵魂	-5548
红斑	-5549
聪明	-5550
若干	-5551
的可能性	-5552
又是	-5553
填料	-5554
大棚	-5555
当今	-5556
灯光	-5557
的长	-5558
西医	-5559
颁发	-5560
一定要注意	-5561
听到	-5562
新发展	-5563
不安	-5564
学费	-5565
演讲	-5566
的事实	-5567
食品安全	-5568
器材	-5569
恶劣	-5570
曾在	-5571
本来	-5572
校友	-5573
解毒	-5574
及相关	-5575
才能够	-5576
使用寿命长	-5577
誉为	-5578
陪伴	-5579
很重要	-5580
▁那	-5581
刀具	-5582
外形	-5583
現在	-5584
病症	-5585
仅次于	-5586
人員	-5587
发起	-5588
数十	-5589
的老	-5590
话题	-5591
它可以	-5592
年以上	-5593
的颜色	-5594
集装箱	-5595
主管部门	-5596
重要作用	-5597
国家和地区	-5598
54	-5599
不妨	-5600
为例	-5601
总量	-5602
校企	-5603
蓝色	-5604
别人的	-5605
军队	-5606
大专	-5607
宿舍	-5608
探测	-5609
陷入	-5610
烘干机	-5611
为何	-5612
少量	-5613
武装	-5614
注入	-5615
进度	-5616
预警	-5617
风水	-5618
自行车	-5619
激烈的	-5620
弯曲	-5621
泄漏	-5622
盆腔	-5623
逻辑	-5624
纷纷表示	-5625
这个时候	-5626
已被	-5627
我是	-5628
精确	-5629
抵抗力	-5630
采用了	-5631
值得一提	-5632
巡视	-5633
按摩	-5634
桃花	-5635
比較	-5636
心理学	-5637
扶持	-5638
海鲜	-5639
饱和	-5640
看到了	-5641
人大常委会	-5642
恒大	-5643
浪漫	-5644
▁月	-5645
变速	-5646
报价	-5647
无锡	-5648
造纸	-5649
强度高	-5650
下列	-5651
侵犯	-5652
别墅	-5653
帮扶	-5654
水泵	-5655
牵头	-5656
只不过	-5657
87	-5658
之事	-5659
减排	-5660
加以	-5661
在了	-5662
教室	-5663
的两	-5664
询问	-5665
员工的	-5666
▁此	-5667
播出	-5668
里斯	-5669
题材	-5670
等各种	-5671
63	-5672
――	-5673
即便	-5674
或其他	-5675
聚丙烯酰胺	-5676
争夺	-5677
出生于	-5678
广泛的	-5679
上映	-5680
商会	-5681
奖项	-5682
市場	-5683
稳步	-5684
公开发	-5685
是国家	-5686
安全隐患	-5687
假日	-5688
后卫	-5689
每周	-5690
液晶	-5691
特別	-5692
肥胖	-5693
越来越多的	-5694
国庆	-5695
立法	-5696
联动	-5697
能力强	-5698
列车	-5699
反射	-5700
度假	-5701
过大	-5702
▁记者	-5703
备案	-5704
十足	-5705
哪家	-5706
将来	-5707
油墨	-5708
较少	-5709
遭到	-5710
有力的	-5711
的具体	-5712
目的是	-5713
有期徒刑	-5714
▁H	-5715
叶片	-5716
国的	-5717
这场	-5718
過程	-5719
队长	-5720
传说	-5721
取代	-5722
宣告	-5723
湖人	-5724
考古	-5725
一站式	-5726
也非常	-5727
、3	-5728
也为	-5729
失业	-5730
省份	-5731
空中	-5732
轨道交通	-5733
加剧	-5734
商场	-5735
头球	-5736
的大型	-5737
质量和	-5738
科学研究	-5739
这些问题	-5740
▁R	-5741
效力	-5742
的三	-5743
精英	-5744
防守	-5745
在一个	-5746
▁用	-5747
浏览	-5748
直流	-5749
马尔	-5750
一起来	-5751
位居	-5752
当下	-5753
去医院	-5754
决策部署	-5755
MP	-5756
同行	-5757
有限责任公司	-5758
人性	-5759
低的	-5760
点的	-5761
走访	-5762
不高	-5763
家乡	-5764
影像	-5765
战绩	-5766
不可能	-5767
纳税人	-5768
他是	-5769
抛光	-5770
美國	-5771
领会	-5772
行业中	-5773
结合起来	-5774
爱你	-5775
自来	-5776
遗憾	-5777
铸铁	-5778
伟大的	-5779
抗氧化	-5780
的教育	-5781
解除	-5782
阻碍	-5783
研究员	-5784
许多人	-5785
告知	-5786
春天	-5787
烦恼	-5788
10%	-5789
年以来	-5790
党风	-5791
出有	-5792
热烈	-5793
多少钱	-5794
一方	-5795
山水	-5796
没有任何	-5797
真是	-5798
也不是	-5799
温馨	-5800
焦点	-5801
被告人	-5802
注册资本	-5803
51	-5804
补助	-5805
ent	-5806
创新创业	-5807
会让	-5808
我就	-5809
等人	-5810
副校长	-5811
如果有	-5812
62	-5813
CC	-5814
▁N	-5815
力学	-5816
扳平	-5817
那种	-5818
速度快	-5819
当地时间	-5820
全县	-5821
域名	-5822
油脂	-5823
竟然	-5824
蔓延	-5825
”(	-5826
共识	-5827
地说	-5828
挤压	-5829
管的	-5830
见的	-5831
▁如何	-5832
人为本	-5833
▁和	-5834
在前	-5835
视为	-5836
下来的	-5837
减速机	-5838
服务业	-5839
89	-5840
余名	-5841
平整	-5842
并与	-5843
房产	-5844
杰出	-5845
社会责任	-5846
自由选择	-5847
6、	-5848
两岸	-5849
交付	-5850
口服	-5851
破碎	-5852
第十	-5853
为主要	-5854
取得的	-5855
安徽省	-5856
值得一提的是	-5857
悠久	-5858
在美国	-5859
乘客	-5860
击中	-5861
1.2	-5862
第二次	-5863
极其	-5864
酸盐	-5865
乌克兰	-5866
申请人	-5867
re	-5868
▁E	-5869
大局	-5870
尤为	-5871
赛后	-5872
阻止	-5873
4000	-5874
职业技术	-5875
as	-5876
不停	-5877
参会	-5878
江南	-5879
一层	-5880
不及	-5881
忽略	-5882
戏剧	-5883
拉伸	-5884
谋划	-5885
特色的	-5886
客户提供	-5887
▁t	-5888
油烟	-5889
来进行	-5890
过程中的	-5891
力求	-5892
发送	-5893
喝酒	-5894
日电	-5895
级的	-5896
资讯	-5897
最高的	-5898
皮肤的	-5899
副总经理	-5900
DP	-5901
回头	-5902
开花	-5903
时代的	-5904
广泛用于	-5905
常识	-5906
电能	-5907
迹象	-5908
退役	-5909
公安局	-5910
出现的	-5911
大家都	-5912
精神和	-5913
▁由	-5914
南昌	-5915
口味	-5916
搬运	-5917
中华民族伟大复兴	-5918
吃的	-5919
开了	-5920
心灵	-5921
不好的	-5922
重量轻	-5923
高水平	-5924
千瓦	-5925
填写	-5926
重组	-5927
会引起	-5928
社会主义现代化	-5929
书籍	-5930
承办	-5931
栽培	-5932
福州	-5933
诈骗	-5934
平方公里	-5935
投放	-5936
国安	-5937
在中	-5938
大學	-5939
结论	-5940
香味	-5941
本公司	-5942
的孩子	-5943
敬业	-5944
讲究	-5945
is	-5946
年限	-5947
抖音	-5948
渴望	-5949
过高	-5950
▁如今	-5951
恋爱	-5952
敢于	-5953
跟着	-5954
严格的	-5955
合作关系	-5956
学金	-5957
得很	-5958
里程	-5959
韧性	-5960
▁国家	-5961
比如说	-5962
书面	-5963
外的	-5964
再次发生	-5965
始终坚持	-5966
店铺	-5967
邮件	-5968
的一年	-5969
令人深思	-5970
▁如	-5971
勇敢	-5972
四季	-5973
坐在	-5974
寓意	-5975
暂停	-5976
能夠	-5977
航班	-5978
该项目	-5979
,2018	-5980
数据库	-5981
依照	-5982
夺得	-5983
精益	-5984
验证	-5985
个角球	-5986
副会长	-5987
的了解	-5988
严重影响	-5989
的经营理念	-5990
估计	-5991
各方	-5992
管材	-5993
250	-5994
吸引了	-5995
效果好	-5996
的一次	-5997
首先要	-5998
及时治疗	-5999
高等教育	-6000
接收	-6001
毒素	-6002
汇聚	-6003
表面的	-6004
亲自	-6005
总支	-6006
雖然	-6007
下面就	-6008
必须要	-6009
感兴趣	-6010
比上年	-6011
造成了	-6012
与此同时	-6013
社会各界	-6014
这不禁令人深思	-6015
差别	-6016
看了	-6017
公务员	-6018
心血管	-6019
,2019	-6020
▁黄	-6021
也没	-6022
人人	-6023
作家	-6024
创伤	-6025
向前	-6026
塑胶	-6027
食堂	-6028
座谈会	-6029
专业技术	-6030
后再	-6031
应力	-6032
留意	-6033
穿着	-6034
色泽	-6035
必不可	-6036
的一切	-6037
组成的	-6038
介绍一下	-6039
好运	-6040
结晶	-6041
▁第四	-6042
在我国	-6043
成功率	-6044
有很大的	-6045
低压	-6046
皇家	-6047
远远	-6048
遭受	-6049
风湿	-6050
20%	-6051
系列产品	-6052
,9	-6053
处处	-6054
当你	-6055
步行	-6056
為了	-6057
碳化	-6058
维奇	-6059
▁使用	-6060
合作的	-6061
的支持	-6062
后者	-6063
对我	-6064
度高	-6065
微波	-6066
等于	-6067
经费	-6068
酸性	-6069
产物	-6070
司机	-6071
类别	-6072
这段	-6073
▁很多	-6074
展开了	-6075
所谓的	-6076
是通过	-6077
升本	-6078
流域	-6079
目录	-6080
负面	-6081
足协	-6082
比较好	-6083
创办	-6084
货运	-6085
运势	-6086
是什么呢	-6087
管理系统	-6088
塞尔	-6089
基金会	-6090
曾经说过	-6091
非常重要的	-6092
入党	-6093
叫做	-6094
欧美	-6095
湾区	-6096
熬夜	-6097
现已	-6098
长久	-6099
个小时	-6100
云计算	-6101
将成为	-6102
的公司	-6103
研究人员	-6104
冷水	-6105
医护	-6106
扫描	-6107
特朗	-6108
动漫	-6109
勇气	-6110
征兆	-6111
碰撞	-6112
耐热	-6113
前三	-6114
智力	-6115
流失	-6116
身材	-6117
引起了	-6118
支球队	-6119
新征程	-6120
以其	-6121
愿景	-6122
走了	-6123
功能的	-6124
74	-6125
▁水	-6126
上来	-6127
发售	-6128
合约	-6129
码头	-6130
过后	-6131
采访时	-6132
不论	-6133
位的	-6134
护肤	-6135
越多	-6136
加强对	-6137
发布了	-6138
填充	-6139
增生	-6140
得多	-6141
5)	-6142
▁[	-6143
倾向	-6144
化和	-6145
门店	-6146
全体党员	-6147
一日	-6148
倒入	-6149
春季	-6150
牺牲	-6151
秋季	-6152
记住	-6153
到医院	-6154
不容	-6155
乐趣	-6156
仅供	-6157
优美	-6158
回事	-6159
大方	-6160
百万	-6161
一般在	-6162
产业的	-6163
的女性	-6164
能够在	-6165
印发	-6166
抵达	-6167
一件	-6168
但他	-6169
住宿	-6170
周末	-6171
多有	-6172
宏观	-6173
应在	-6174
手工	-6175
执照	-6176
白天	-6177
对中国	-6178
分和	-6179
生活习惯	-6180
血液循环	-6181
的有	-6182
给我	-6183
羊肉	-6184
蓬勃	-6185
不會	-6186
宁夏	-6187
此梦	-6188
至关	-6189
的危害	-6190
的品牌	-6191
不然	-6192
名言	-6193
恐惧	-6194
相继	-6195
节点	-6196
還是	-6197
降解	-6198
颁奖	-6199
高原	-6200
可使	-6201
登陆	-6202
退出	-6203
队友	-6204
的速度	-6205
备受	-6206
安静	-6207
开水	-6208
海拔	-6209
征求	-6210
禁忌	-6211
在这种	-6212
什么样的	-6213
08	-6214
▁F	-6215
医用	-6216
外资	-6217
大桥	-6218
销售额	-6219
▁2017	-6220
墙体	-6221
故意	-6222
花卉	-6223
路径	-6224
全日制	-6225
是没有	-6226
有所不同	-6227
层的	-6228
所需的	-6229
相同的	-6230
文化遗产	-6231
光泽	-6232
可爱	-6233
竣工	-6234
细致	-6235
身體	-6236
页面	-6237
年开始	-6238
特朗普	-6239
公安机关	-6240
一只	-6241
少女	-6242
這種	-6243
▁这个	-6244
不存在	-6245
切尔西	-6246
陕西省	-6247
严格按照	-6248
多为	-6249
突发	-6250
不断地	-6251
型企业	-6252
设计和	-6253
生产工艺	-6254
病毒感染	-6255
严禁	-6256
事物	-6257
土耳	-6258
30%	-6259
进行的	-6260
化解	-6261
幕墙	-6262
此类	-6263
科院	-6264
之地	-6265
变更	-6266
频道	-6267
6000	-6268
工程施工	-6269
生产基地	-6270
,2020	-6271
两队	-6272
枢纽	-6273
号召	-6274
均有	-6275
氧气	-6276
老公	-6277
要多	-6278
認為	-6279
保证了	-6280
开幕式	-6281
上线	-6282
气质	-6283
者和	-6284
锦赛	-6285
新中国	-6286
没想到	-6287
艺术家	-6288
一期	-6289
有个	-6290
赋予	-6291
随之	-6292
净利润	-6293
尼奥	-6294
梳理	-6295
潮流	-6296
级别	-6297
那就	-6298
11.	-6299
80%	-6300
大自然	-6301
,「	-6302
工伤	-6303
根據	-6304
爱人	-6305
过硬	-6306
饮酒	-6307
▁经	-6308
子里	-6309
是从	-6310
:30	-6311
三等奖	-6312
也是一	-6313
善良	-6314
水库	-6315
演技	-6316
篇章	-6317
西兰	-6318
领取	-6319
一样的	-6320
的空间	-6321
联合会	-6322
陈代谢	-6323
书写	-6324
位列	-6325
偏方	-6326
标题	-6327
眼镜	-6328
阴茎	-6329
伴随着	-6330
机动车	-6331
氨基酸	-6332
工程机械	-6333
民事	-6334
眼前	-6335
180	-6336
党风廉政	-6337
恐怖	-6338
担忧	-6339
文旅	-6340
月至	-6341
配电	-6342
单位的	-6343
各种各	-6344
土耳其	-6345
服务平台	-6346
ui	-6347
异性	-6348
披露	-6349
泰山	-6350
理性	-6351
用车	-6352
了自己的	-6353
73	-6354
复苏	-6355
皮炎	-6356
▁20	-6357
但如果	-6358
各方面	-6359
服务器	-6360
物质的	-6361
参加会议	-6362
节能环保	-6363
本书	-6364
两侧	-6365
煤矿	-6366
红外	-6367
肌瘤	-6368
辛苦	-6369
两个人	-6370
先行	-6371
光学	-6372
初中	-6373
存放	-6374
悬浮	-6375
脸上	-6376
的良好	-6377
仍在	-6378
师傅	-6379
我会	-6380
指引	-6381
摆脱	-6382
文化和	-6383
有关规定	-6384
▁多	-6385
烈士	-6386
生肖	-6387
社保	-6388
马来	-6389
但由于	-6390
到大家	-6391
发布会	-6392
毕业于	-6393
的因素	-6394
目前的	-6395
积极参与	-6396
金融机构	-6397
先天	-6398
公元	-6399
定点	-6400
废弃	-6401
更快	-6402
腹痛	-6403
路面	-6404
之日起	-6405
83	-6406
OS	-6407
一道	-6408
700	-6409
卫视	-6410
水电	-6411
纪检监察	-6412
持久	-6413
未來	-6414
监会	-6415
绩效	-6416
金钱	-6417
饮食习惯	-6418
主张	-6419
微笑	-6420
是用	-6421
礼品	-6422
风雨	-6423
家企业	-6424
的设备	-6425
其余	-6426
博会	-6427
历经	-6428
原子	-6429
守护	-6430
客服	-6431
平凡	-6432
胃肠	-6433
自来水	-6434
将军	-6435
承接	-6436
清单	-6437
率高	-6438
东南亚	-6439
了解了	-6440
建设项目	-6441
全面从严治党	-6442
掌控	-6443
排行	-6444
援助	-6445
放大	-6446
聊天	-6447
避孕	-6448
是由于	-6449
放射	-6450
日内	-6451
发电机组	-6452
▁北京时间	-6453
:1	-6454
因其	-6455
水源	-6456
有一天	-6457
仿佛	-6458
冠状	-6459
小康	-6460
诞生	-6461
规范化	-6462
重庆市	-6463
▁c	-6464
体温	-6465
减缓	-6466
史上	-6467
排气	-6468
量大	-6469
阴道炎	-6470
TV	-6471
中秋	-6472
作為	-6473
熟练	-6474
关联	-6475
天地	-6476
粗糙	-6477
而已	-6478
我们需要	-6479
审议	-6480
小儿	-6481
组长	-6482
可以让	-6483
对自己	-6484
环境下	-6485
的一项	-6486
高分子	-6487
买球	-6488
决议	-6489
千年	-6490
感应	-6491
而来	-6492
部部长	-6493
,199	-6494
中方	-6495
乘坐	-6496
海水	-6497
破裂	-6498
调解	-6499
门的	-6500
陌生	-6501
创始人	-6502
古典	-6503
在本	-6504
护士	-6505
终身	-6506
若是	-6507
首位	-6508
世界的	-6509
找到了	-6510
提升了	-6511
立方米	-6512
重金属	-6513
一座	-6514
公主	-6515
区分	-6516
发票	-6517
情的	-6518
草原	-6519
雨水	-6520
与其	-6521
之内	-6522
做大	-6523
大战	-6524
畸形	-6525
变压器	-6526
不见	-6527
福建省	-6528
大使	-6529
版权	-6530
硅胶	-6531
遍布	-6532
展现了	-6533
出席会议	-6534
61	-6535
AC	-6536
中午	-6537
优雅	-6538
你要	-6539
吉祥	-6540
怀疑	-6541
限度	-6542
万人次	-6543
志愿服务	-6544
牢记使命	-6545
出水	-6546
热的	-6547
靠近	-6548
高兴	-6549
▁8.	-6550
展示了	-6551
癫痫发作	-6552
风扇	-6553
教育教学	-6554
▁现	-6555
严峻	-6556
二手	-6557
出手	-6558
雷锋	-6559
下半场	-6560
为导向	-6561
热处理	-6562
的部分	-6563
知名度	-6564
,2021	-6565
医务	-6566
机等	-6567
概率	-6568
但是在	-6569
的人群	-6570
▁全	-6571
去世	-6572
地处	-6573
水肿	-6574
直观	-6575
被人	-6576
成立了	-6577
一定程度上	-6578
为你	-6579
把它	-6580
抗震	-6581
昨日	-6582
枸杞	-6583
链接	-6584
首个	-6585
事务所	-6586
创造了	-6587
西红	-6588
服务于	-6589
夜间	-6590
天天	-6591
市区	-6592
運動	-6593
▁一个	-6594
为契机	-6595
检察院	-6596
的温度	-6597
一对	-6598
朝鲜	-6599
湿疹	-6600
在全球	-6601
和中	-6602
境界	-6603
支架	-6604
永久	-6605
溶于	-6606
0.1	-6607
与中国	-6608
现代化的	-6609
荣誉称号	-6610
行业发展	-6611
姓名	-6612
所致	-6613
的双	-6614
硫化	-6615
喜欢的	-6616
工作室	-6617
目前已	-6618
un	-6619
墙板	-6620
太大	-6621
展出	-6622
支援	-6623
瑞士	-6624
不合格	-6625
云南省	-6626
其他的	-6627
的重大	-6628
主题教育	-6629
一套	-6630
报导	-6631
面料	-6632
及时的	-6633
的优点	-6634
每个人都	-6635
生态文明	-6636
的使用寿命	-6637
兼任	-6638
睾丸	-6639
简便	-6640
的心态	-6641
腐蚀性	-6642
针对性	-6643
供热	-6644
做强	-6645
发改	-6646
增添	-6647
外壳	-6648
细腻	-6649
慎重	-6650
饱满	-6651
十三五	-6652
呈现出	-6653
▁L	-6654
头脑	-6655
幸运	-6656
斯基	-6657
洗手	-6658
电镀	-6659
轻轻	-6660
也不要	-6661
小组赛	-6662
深刻的	-6663
血管瘤	-6664
还具有	-6665
3,	-6666
三次	-6667
合力	-6668
精湛	-6669
黄牌	-6670
人们对	-6671
和企业	-6672
和治疗	-6673
等功能	-6674
结构的	-6675
我不	-6676
推行	-6677
沿海	-6678
警惕	-6679
排名第	-6680
注意力	-6681
市级	-6682
情況	-6683
手动	-6684
价值的	-6685
给自己	-6686
网站的	-6687
和大	-6688
彩色	-6689
个人的	-6690
大学的	-6691
葡萄牙	-6692
▁前	-6693
一部	-6694
出租	-6695
厕所	-6696
总监	-6697
语文	-6698
人民的	-6699
完美的	-6700
有机物	-6701
合法权益	-6702
光源	-6703
冬奥	-6704
疤痕	-6705
顶级	-6706
为国家	-6707
医学院	-6708
GDP	-6709
政策的	-6710
的责任	-6711
老百姓	-6712
这是一个	-6713
▁华	-6714
为期	-6715
學習	-6716
疑问	-6717
螺栓	-6718
骨折	-6719
管理体系认证	-6720
涂装	-6721
选拔	-6722
长城	-6723
专升本	-6724
换热器	-6725
也让	-6726
分辨	-6727
央视	-6728
的最	-6729
的一致	-6730
经历了	-6731
修养	-6732
十六	-6733
好转	-6734
打包	-6735
无效	-6736
检修	-6737
海报	-6738
货架	-6739
重症	-6740
时间和	-6741
长远	-6742
高职	-6743
▁随后	-6744
中国队	-6745
互利	-6746
件的	-6747
会展	-6748
十字	-6749
商城	-6750
开局	-6751
洽谈	-6752
留言	-6753
美洲	-6754
采暖	-6755
的城市	-6756
AR	-6757
清新	-6758
高档	-6759
半决赛	-6760
空气中	-6761
党建工作	-6762
告诉记者	-6763
工程技术	-6764
环境污染	-6765
冷藏	-6766
及早	-6767
杆菌	-6768
试剂	-6769
连胜	-6770
和个人	-6771
是国内	-6772
普通的	-6773
的大小	-6774
要坚持	-6775
中最	-6776
恶心	-6777
接口	-6778
旺盛	-6779
他表示	-6780
高效的	-6781
监督管理	-6782
▁图	-6783
央行	-6784
对照	-6785
引人	-6786
气血	-6787
肥料	-6788
表现出	-6789
中共中央	-6790
领导小组	-6791
审美	-6792
私人	-6793
秉持	-6794
色谱	-6795
追究	-6796
即使是	-6797
营业收入	-6798
▁无	-6799
主机	-6800
头晕	-6801
期内	-6802
洗澡	-6803
结算	-6804
账号	-6805
通行	-6806
1.0	-6807
12.	-6808
理想的	-6809
詹姆斯	-6810
太原	-6811
成套	-6812
欢乐	-6813
风电	-6814
一般的	-6815
产业园	-6816
原因是	-6817
变成了	-6818
大家在	-6819
所以说	-6820
合伙	-6821
拿下	-6822
主要的	-6823
he	-6824
下游	-6825
平等	-6826
的表	-6827
工程项目	-6828
互联	-6829
光荣	-6830
平板	-6831
道的	-6832
门将	-6833
亲子鉴定	-6834
以内	-6835
制剂	-6836
据悉	-6837
海关	-6838
截至目前	-6839
摄像	-6840
政务	-6841
标志着	-6842
选择了	-6843
如何发展	-6844
黑色素细胞	-6845
ot	-6846
客戶	-6847
猪肉	-6848
玩法	-6849
甲状	-6850
90%	-6851
暖气片	-6852
为核心的	-6853
呼吁	-6854
四肢	-6855
线索	-6856
营业执照	-6857
CP	-6858
但不	-6859
水和	-6860
求精	-6861
阐述	-6862
▁——	-6863
胆固醇	-6864
西红柿	-6865
竞争力的	-6866
后面	-6867
国足	-6868
来临	-6869
白带	-6870
应及时	-6871
的時候	-6872
第二个	-6873
▁将	-6874
从未	-6875
会被	-6876
督导	-6877
信息的	-6878
需求的	-6879
非常重要	-6880
▁日	-6881
在其	-6882
屋顶	-6883
新颖	-6884
副局长	-6885
奠定了	-6886
高强度	-6887
代表大会	-6888
模板	-6889
长大	-6890
过去的	-6891
墙面	-6892
好友	-6893
对抗	-6894
平常	-6895
异味	-6896
形容	-6897
扭矩	-6898
10-	-6899
领导下	-6900
思想政治	-6901
科技成果	-6902
94	-6903
克力	-6904
征收	-6905
漫画	-6906
用了	-6907
我觉得	-6908
认识到	-6909
ad	-6910
▁就	-6911
前提	-6912
实木	-6913
脾胃	-6914
轻易	-6915
进去	-6916
全面的	-6917
两天	-6918
南宁	-6919
外表	-6920
年级	-6921
▁活动	-6922
为目标	-6923
的需要	-6924
助推	-6925
在职	-6926
富裕	-6927
对你	-6928
羽毛	-6929
阳台	-6930
散热器	-6931
是一些	-6932
可以使用	-6933
工作会议	-6934
负责同志	-6935
92	-6936
一块	-6937
原油	-6938
手中	-6939
接头	-6940
鳞屑	-6941
和中国	-6942
的作品	-6943
给孩子	-6944
不移	-6945
热泵	-6946
的一面	-6947
▁10、	-6948
不怕	-6949
以防	-6950
前锋	-6951
集群	-6952
性能和	-6953
事业发展	-6954
治疗效果	-6955
伦敦	-6956
内在	-6957
参演	-6958
审理	-6959
正当	-6960
此后	-6961
毒性	-6962
淘宝	-6963
ID	-6964
大国	-6965
坐落于	-6966
党组成员	-6967
不佳	-6968
他还	-6969
又能	-6970
周知	-6971
烹饪	-6972
试图	-6973
马来西亚	-6974
切除	-6975
外墙	-6976
天空	-6977
救治	-6978
全过程	-6979
业内人士	-6980
做得	-6981
公布的	-6982
总承包	-6983
需要在	-6984
职业生涯	-6985
身心健康	-6986
回复	-6987
将为	-6988
尔斯	-6989
年至	-6990
既往	-6991
长安	-6992
制备	-6993
按时	-6994
营商	-6995
警示	-6996
重建	-6997
雕刻	-6998
政府的	-6999
领先的	-7000
▁2016	-7001
偶像	-7002
周岁	-7003
描写	-7004
是将	-7005
真菌	-7006
紧凑	-7007
股价	-7008
不断扩大	-7009
一起来看看	-7010
器和	-7011
坚固	-7012
急救	-7013
讨厌	-7014
3%,	-7015
时间长	-7016
生产能力	-7017
ok	-7018
你在	-7019
灵敏	-7020
粘合	-7021
见到	-7022
知识和	-7023
宾馆	-7024
密码	-7025
班级	-7026
红军	-7027
所得税	-7028
的政治	-7029
:《	-7030
倡议	-7031
大事	-7032
情形	-7033
机能	-7034
碱性	-7035
诚实	-7036
香蕉	-7037
結構	-7038
萎缩	-7039
虚假	-7040
尤其是在	-7041
同年	-7042
粘膜	-7043
可靠的	-7044
被誉为	-7045
民营企业	-7046
▁西	-7047
上级	-7048
存款	-7049
小米	-7050
救灾	-7051
毫无	-7052
灵芝	-7053
無法	-7054
经贸	-7055
联邦	-7056
防锈	-7057
高潮	-7058
以确保	-7059
因此在	-7060
共同努力	-7061
使人	-7062
敌人	-7063
早泄	-7064
出版社	-7065
劳动合同	-7066
剂量	-7067
区块	-7068
看法	-7069
部和	-7070
也可能	-7071
才可以	-7072
不一	-7073
對於	-7074
收取	-7075
演绎	-7076
重返	-7077
分泌物	-7078
正处于	-7079
我希望各位	-7080
我希望各位也能好好地体会这句话	-7081
7-	-7082
删除	-7083
咱们	-7084
拉克	-7085
挤出	-7086
脆弱	-7087
失去了	-7088
中全会精神	-7089
党的十九大	-7090
从中	-7091
全场	-7092
放电	-7093
起着	-7094
的时代	-7095
市场竞争	-7096
未成年人	-7097
写作	-7098
合计	-7099
曲线	-7100
步入	-7101
环比	-7102
笔记	-7103
乳腺癌	-7104
有许多	-7105
甲状腺	-7106
资源的	-7107
子和	-7108
学期	-7109
希腊	-7110
气味	-7111
热带	-7112
破门	-7113
祝贺	-7114
时间为	-7115
科学与	-7116
工作效率	-7117
有害物质	-7118
中外	-7119
客厅	-7120
自贸	-7121
1-2	-7122
聚合物	-7123
行业协会	-7124
帮助到大家	-7125
小镇	-7126
曼城	-7127
种种	-7128
关节炎	-7129
机构的	-7130
。199	-7131
进一步加强	-7132
店的	-7133
核桃	-7134
辖区	-7135
这份	-7136
中国人	-7137
做什么	-7138
国资委	-7139
us	-7140
从此	-7141
喜歡	-7142
搬家	-7143
花的	-7144
上半场	-7145
副部长	-7146
如果您	-7147
所周知	-7148
的活动	-7149
)》	-7150
▁近	-7151
丽的	-7152
分管	-7153
人间	-7154
切成	-7155
外语	-7156
湿地	-7157
粉碎	-7158
结局	-7159
自豪	-7160
决定了	-7161
脂肪酸	-7162
以人为本	-7163
操作简单	-7164
一半	-7165
不明	-7166
不過	-7167
台阶	-7168
民航	-7169
流体	-7170
致使	-7171
要加强	-7172
卧室	-7173
边的	-7174
和使用	-7175
增强了	-7176
建筑业	-7177
脑血管	-7178
部门的	-7179
人造	-7180
太空	-7181
年内	-7182
不少于	-7183
中小学	-7184
吃了	-7185
抗生素	-7186
教职工	-7187
的热情	-7188
充分肯定	-7189
双手	-7190
宝贵	-7191
时要	-7192
条款	-7193
畅通	-7194
顺序	-7195
雌激素	-7196
官方网站	-7197
导弹	-7198
所能	-7199
规章	-7200
随便	-7201
主教练	-7202
党总支	-7203
广州市	-7204
很好地	-7205
的重点	-7206
保温材料	-7207
广泛应用	-7208
IM	-7209
为其	-7210
大理	-7211
线条	-7212
首届	-7213
游戏中	-7214
xi	-7215
准则	-7216
分工	-7217
坚信	-7218
夫妇	-7219
我和	-7220
暴雨	-7221
月中	-7222
沙特	-7223
行業	-7224
较差	-7225
黏膜	-7226
认为是	-7227
接下来如何发展	-7228
这启发了我接下来如何发展	-7229
划分	-7230
十几	-7231
体现在	-7232
而且在	-7233
技术服务	-7234
任职	-7235
可怕	-7236
龟头	-7237
一般为	-7238
一般是	-7239
最多的	-7240
的心情	-7241
加固	-7242
约翰	-7243
行程	-7244
为我们	-7245
制成的	-7246
你是	-7247
发光	-7248
各種	-7249
工業	-7250
比特	-7251
第八	-7252
菩萨	-7253
达标	-7254
面板	-7255
一句名言	-7256
AS	-7257
回合	-7258
女友	-7259
提倡	-7260
无害	-7261
轻微	-7262
这家	-7263
默默	-7264
注意的是	-7265
保持良好的	-7266
il	-7267
喝水	-7268
是使	-7269
民用	-7270
油的	-7271
一开始	-7272
的消息	-7273
不断发展	-7274
区委	-7275
十余	-7276
提起	-7277
新人	-7278
督促	-7279
还款	-7280
13.	-7281
复印件	-7282
等产品	-7283
战略合作	-7284
经济增长	-7285
一辈	-7286
修理	-7287
尴尬	-7288
总计	-7289
榜样	-7290
病原	-7291
调控	-7292
轮胎	-7293
骨骼	-7294
差不多	-7295
要做好	-7296
健康发展	-7297
核酸检测	-7298
受害	-7299
将近	-7300
流传	-7301
疏松	-7302
简洁	-7303
是一件	-7304
毕业后	-7305
详细的	-7306
公司拥有	-7307
工作报告	-7308
管理办法	-7309
”)	-7310
▁原	-7311
亲切	-7312
依次	-7313
吸入	-7314
得出	-7315
担保	-7316
杜绝	-7317
海军	-7318
用力	-7319
生活中的	-7320
百年奋斗	-7321
详细介绍	-7322
说过这样一句名言	-7323
▁周	-7324
年间	-7325
未经	-7326
源头	-7327
综艺	-7328
足联	-7329
透气	-7330
劳动力	-7331
代价	-7332
和水	-7333
困境	-7334
孤独	-7335
想起	-7336
间接	-7337
人民医院	-7338
自主研发	-7339
其實	-7340
拉斯	-7341
糜烂	-7342
了一种	-7343
多功能	-7344
如果在	-7345
示范区	-7346
等一系列	-7347
人均	-7348
充分的	-7349
给我们	-7350
讲述了	-7351
非常好	-7352
坚定不移	-7353
理工大学	-7354
体力	-7355
在我	-7356
完毕	-7357
灯具	-7358
学习的	-7359
的比例	-7360
去做	-7361
奋力	-7362
将对	-7363
批量	-7364
的名	-7365
隐私	-7366
▁按照	-7367
与管理	-7368
临床上	-7369
是一款	-7370
江西省	-7371
防静电	-7372
企事业单位	-7373
就被	-7374
所属	-7375
手法	-7376
简历	-7377
艾滋	-7378
防晒	-7379
一直以来	-7380
▁·	-7381
务必	-7382
国企	-7383
手指	-7384
爷爷	-7385
肉类	-7386
行星	-7387
从这个	-7388
的各种	-7389
饮用水	-7390
7、	-7391
84	-7392
ay	-7393
借款	-7394
局限	-7395
惊喜	-7396
柠檬	-7397
的总	-7398
要是	-7399
谈到	-7400
贯穿	-7401
同样的	-7402
有一种	-7403
党组书记	-7404
发明专利	-7405
银屑病的	-7406
进一步提高	-7407
人气	-7408
入境	-7409
應該	-7410
民俗	-7411
行走	-7412
褐色	-7413
金刚	-7414
▁大家	-7415
怎样的	-7416
新一代	-7417
企业发展	-7418
10000	-7419
一如	-7420
仍有	-7421
女排	-7422
负载	-7423
面貌	-7424
发改委	-7425
▁W	-7426
年后	-7427
开学	-7428
目光	-7429
管网	-7430
shi	-7431
了一些	-7432
体内的	-7433
没有什么	-7434
你就	-7435
台北	-7436
号码	-7437
大楼	-7438
巡察	-7439
投資	-7440
排列	-7441
本文	-7442
约束	-7443
脱发	-7444
病人的	-7445
1200	-7446
国有企业	-7447
不等	-7448
备用	-7449
多多	-7450
常年	-7451
番茄	-7452
质的	-7453
身为	-7454
体积小	-7455
处理的	-7456
我国的	-7457
通过对	-7458
万余	-7459
住了	-7460
建議	-7461
必須	-7462
新年	-7463
是为	-7464
服药	-7465
足以	-7466
还没	-7467
鼓舞	-7468
与发展	-7469
意义的	-7470
众所周知	-7471
;(	-7472
全区	-7473
外贸	-7474
我也	-7475
还不	-7476
銹鋼	-7477
▁项目	-7478
山西省	-7479
这两个	-7480
创新发展	-7481
两名	-7482
乒乓	-7483
典礼	-7484
多久	-7485
救护	-7486
美味	-7487
清华大学	-7488
党的十九届	-7489
▁康	-7490
之後	-7491
墨西	-7492
太极	-7493
属性	-7494
拉开	-7495
诠释	-7496
说到	-7497
香气	-7498
然后再	-7499
智能制造	-7500
的全部内容	-7501
利的	-7502
县级	-7503
烟台	-7504
门票	-7505
阳性	-7506
青山	-7507
分钟后	-7508
生命的	-7509
东风	-7510
亏损	-7511
低下	-7512
修建	-7513
变为	-7514
整洁	-7515
草案	-7516
都被	-7517
门槛	-7518
在上海	-7519
的前提下	-7520
佛山	-7521
凤凰	-7522
正如	-7523
獲得	-7524
职位	-7525
西甲	-7526
诗人	-7527
马拉	-7528
和支持	-7529
天津市	-7530
三维	-7531
头皮	-7532
学子	-7533
家园	-7534
摆放	-7535
星级	-7536
见面	-7537
并且在	-7538
开始了	-7539
中美	-7540
展望	-7541
摩托	-7542
气泡	-7543
献血	-7544
黑素	-7545
不适合	-7546
的研发	-7547
美国的	-7548
另有	-7549
可行	-7550
哺乳	-7551
身高	-7552
过量	-7553
公共卫生	-7554
相关负责人	-7555
71	-7556
冷库	-7557
大胆	-7558
愉快	-7559
明亮	-7560
率领	-7561
队伍建设	-7562
之上	-7563
患儿	-7564
研磨	-7565
控制器	-7566
管理制度	-7567
元的	-7568
商贸	-7569
寻常	-7570
少许	-7571
年起	-7572
意的	-7573
语音	-7574
长达	-7575
在生产	-7576
墨西哥	-7577
共产党员	-7578
电动汽车	-7579
os	-7580
上演	-7581
出资	-7582
和新	-7583
姿态	-7584
武术	-7585
活血	-7586
石灰	-7587
質量	-7588
迄今	-7589
的生长	-7590
可以说是	-7591
阻力	-7592
eng	-7593
出色的	-7594
并通过	-7595
比较高	-7596
从业人员	-7597
尽量避免	-7598
这是因为	-7599
出门	-7600
和小	-7601
团委	-7602
挂牌	-7603
泽东	-7604
充足的	-7605
在工作	-7606
优质的产品	-7607
的重要组成部分	-7608
塔尔	-7609
夺冠	-7610
射手	-7611
构件	-7612
用工	-7613
疯狂	-7614
风光	-7615
化学品	-7616
报道称	-7617
经验的	-7618
短时间内	-7619
科技进步	-7620
▁七	-7621
万亩	-7622
中专	-7623
南通	-7624
原有	-7625
堆积	-7626
尼龙	-7627
改性	-7628
纸箱	-7629
起來	-7630
項目	-7631
产品有	-7632
积累了	-7633
农业农村	-7634
互补	-7635
借鉴	-7636
场馆	-7637
履职	-7638
涨幅	-7639
约定	-7640
营收	-7641
中心的	-7642
毛泽东	-7643
这种疾病	-7644
希望能够帮助到大家	-7645
93	-7646
、2	-7647
古老	-7648
如同	-7649
极端	-7650
灌溉	-7651
瓷砖	-7652
130	-7653
可通过	-7654
的所有	-7655
消防安全	-7656
ag	-7657
处在	-7658
拆除	-7659
病菌	-7660
直属	-7661
稍微	-7662
網站	-7663
常态化	-7664
固定资产	-7665
8-	-7666
中场	-7667
余额	-7668
温柔	-7669
球的	-7670
生气	-7671
穿越	-7672
学生们	-7673
就必须	-7674
届全国	-7675
比较大	-7676
的有效	-7677
精神的	-7678
人次	-7679
保密	-7680
剧院	-7681
印花	-7682
塑性	-7683
導致	-7684
尔特	-7685
深深	-7686
皮带	-7687
一直是	-7688
可以使	-7689
在进行	-7690
总面积	-7691
打造出	-7692
辽宁省	-7693
党委委员	-7694
工程专业	-7695
中甲	-7696
含义	-7697
实业	-7698
的女	-7699
脚手	-7700
转子	-7701
传染病	-7702
专科医院	-7703
,2017	-7704
▁红	-7705
冒险	-7706
愿望	-7707
所述	-7708
治好	-7709
法的	-7710
生化	-7711
不会有	-7712
在哪里	-7713
工程的	-7714
希望能	-7715
病情的	-7716
全面建设	-7717
伺服	-7718
内科	-7719
运会	-7720
不符合	-7721
的日子	-7722
市场监管	-7723
▁海	-7724
业态	-7725
全校	-7726
总会	-7727
无力	-7728
模糊	-7729
民政	-7730
风貌	-7731
典型的	-7732
________	-7733
个别	-7734
事宜	-7735
势头	-7736
反攻	-7737
同类	-7738
命令	-7739
孵化	-7740
斯卡	-7741
易燃	-7742
皮球	-7743
促进了	-7744
因为它	-7745
高素质	-7746
具有一定的	-7747
一款	-7748
她在	-7749
权力	-7750
说是	-7751
大湾区	-7752
有必要	-7753
流动性	-7754
,000	-7755
本场比赛	-7756
龙头企业	-7757
ri	-7758
之心	-7759
新老	-7760
构造	-7761
榜单	-7762
进食	-7763
区政府	-7764
的增长	-7765
的性能	-7766
耐磨性	-7767
不一样的	-7768
前列腺炎	-7769
:0	-7770
▁杨	-7771
候选	-7772
每位	-7773
考研	-7774
降雨	-7775
▁成都	-7776
感觉到	-7777
氧化物	-7778
精益求精	-7779
党支部书记	-7780
82	-7781
地區	-7782
汉语	-7783
病理	-7784
透過	-7785
金沙	-7786
70%	-7787
为指导	-7788
人生的	-7789
发生器	-7790
大面积	-7791
我们会	-7792
集中在	-7793
▁V	-7794
但我	-7795
奋发	-7796
沿线	-7797
脱硫	-7798
发现了	-7799
的意思	-7800
的整体	-7801
的艺术	-7802
世界各地	-7803
无缝钢管	-7804
节能减排	-7805
OC	-7806
华南	-7807
抗疫	-7808
胶带	-7809
较强	-7810
难免	-7811
系统中	-7812
里面的	-7813
在生活中	-7814
上看	-7815
安置	-7816
房价	-7817
授课	-7818
电工	-7819
算是	-7820
許多	-7821
这座	-7822
饭店	-7823
就已经	-7824
成熟的	-7825
系统和	-7826
UV	-7827
不清	-7828
东盟	-7829
市的	-7830
絮凝	-7831
超過	-7832
错过	-7833
作出了	-7834
由中国	-7835
。2018	-7836
▁请	-7837
一百	-7838
失误	-7839
完备	-7840
打败	-7841
牢牢	-7842
站位	-7843
对身体	-7844
出具	-7845
可有	-7846
▁本文	-7847
举办的	-7848
的压力	-7849
什么时候	-7850
干部职工	-7851
例子	-7852
外阴	-7853
战术	-7854
标杆	-7855
矿物	-7856
组件	-7857
给他	-7858
走到	-7859
转向	-7860
脚手架	-7861
公开发表	-7862
每个人的	-7863
理想信念	-7864
直接影响	-7865
体外	-7866
合影	-7867
资深	-7868
净化器	-7869
思想和	-7870
商店	-7871
实干	-7872
当选	-7873
果实	-7874
相连	-7875
美联	-7876
处理设备	-7877
客户需求	-7878
一看	-7879
乳化	-7880
各行	-7881
合唱	-7882
成语	-7883
执着	-7884
晶体	-7885
精致	-7886
组装	-7887
起的	-7888
就是在	-7889
意识到	-7890
电动车	-7891
癫痫的	-7892
为您提供	-7893
作为一种	-7894
和对	-7895
學校	-7896
宠物	-7897
山的	-7898
起诉	-7899
相对于	-7900
冲压	-7901
接入	-7902
清明	-7903
联手	-7904
能使	-7905
观光	-7906
领军	-7907
来源于	-7908
的结构	-7909
绝大多数	-7910
ml	-7911
华夏	-7912
大厦	-7913
感的	-7914
杀死	-7915
停车场	-7916
制作的	-7917
博览会	-7918
的表面	-7919
核心竞争力	-7920
掌声	-7921
长期的	-7922
医护人员	-7923
搜索引擎	-7924
自主创新	-7925
uo	-7926
并于	-7927
片区	-7928
赛场	-7929
雷斯	-7930
从而使	-7931
派出所	-7932
百分之	-7933
了一系列	-7934
,”	-7935
一颗	-7936
处分	-7937
建党	-7938
弹簧	-7939
战士	-7940
抗菌	-7941
整齐	-7942
明了	-7943
看待	-7944
磷酸	-7945
隐藏	-7946
之旅	-7947
图形	-7948
大地	-7949
排在	-7950
草莓	-7951
落户	-7952
要么	-7953
豪华	-7954
集聚	-7955
为实现	-7956
可以将	-7957
8000	-7958
其中包括	-7959
、5	-7960
为民	-7961
共创	-7962
客运	-7963
底部	-7964
改编	-7965
架构	-7966
沥青	-7967
產業	-7968
直至	-7969
颈部	-7970
分之一	-7971
科大学	-7972
分开	-7973
安防	-7974
将有	-7975
更能	-7976
立德	-7977
过渡	-7978
手术治疗	-7979
上游	-7980
互通	-7981
动能	-7982
在与	-7983
安心	-7984
早餐	-7985
機會	-7986
正义	-7987
珠海	-7988
跟随	-7989
边界	-7990
不对	-7991
乐园	-7992
毫升	-7993
清淡	-7994
视角	-7995
首要	-7996
工作和	-7997
年中国	-7998
服务和	-7999
精彩的	-8000
只会	-8001
学家	-8002
平米	-8003
打入	-8004
血脂	-8005
锅中	-8006
专业从事	-8007
的重	-8008
顽固	-8009
左右的	-8010
犯罪嫌疑人	-8011
og	-8012
国王	-8013
年产	-8014
救助	-8015
早就	-8016
甲基	-8017
要点	-8018
质疑	-8019
160	-8020
安装在	-8021
让大家	-8022
100%	-8023
2025	-8024
新陈代谢	-8025
注册资金	-8026
ab	-8027
不负	-8028
代会	-8029
几次	-8030
出厂	-8031
古城	-8032
大米	-8033
客人	-8034
极具	-8035
稀释	-8036
逆转	-8037
骨质	-8038
上赛季	-8039
",	-8040
展厅	-8041
教研	-8042
烟花	-8043
获悉	-8044
身的	-8045
不可以	-8046
行业内	-8047
高标准	-8048
仅供参考	-8049
企业管理	-8050
住房公积金	-8051
一共	-8052
占到	-8053
反击	-8054
我司	-8055
投产	-8056
減少	-8057
荧光	-8058
要比	-8059
钢琴	-8060
,11	-8061
,12	-8062
利用率	-8063
的国际	-8064
绿色环保	-8065
新冠肺炎疫情	-8066
家政	-8067
普顿	-8068
比数	-8069
调动	-8070
为一体	-8071
做一个	-8072
总决赛	-8073
US	-8074
、「	-8075
产妇	-8076
年纪	-8077
持續	-8078
毛细	-8079
筛查	-8080
藝術	-8081
该剧	-8082
14.	-8083
正规医院	-8084
病情加重	-8085
双向	-8086
受精	-8087
奖金	-8088
姑娘	-8089
陪同	-8090
黑暗	-8091
三个月	-8092
十八大	-8093
指的是	-8094
起到了	-8095
千万不要	-8096
癫痫患者	-8097
营商环境	-8098
亚军	-8099
保暖	-8100
我要	-8101
澳洲	-8102
短信	-8103
装卸	-8104
理事长	-8105
的决定	-8106
减退	-8107
居家	-8108
弥补	-8109
很小	-8110
无痛	-8111
机房	-8112
比利	-8113
民眾	-8114
液位	-8115
神奇	-8116
組織	-8117
醫院	-8118
主演的	-8119
抑郁症	-8120
的新型	-8121
老师的	-8122
超过了	-8123
还是要	-8124
北京时间	-8125
二人	-8126
例外	-8127
值班	-8128
党政	-8129
发力	-8130
外援	-8131
找出	-8132
柔性	-8133
眼科	-8134
经期	-8135
起步	-8136
趣味	-8137
转动	-8138
生物质	-8139
的方向	-8140
不仅仅是	-8141
免疫功能	-8142
去年同期	-8143
81	-8144
丝绸	-8145
分成	-8146
审判	-8147
水管	-8148
稳健	-8149
面包	-8150
在接受	-8151
比较多	-8152
的传统	-8153
运营商	-8154
▁林	-8155
姐姐	-8156
德甲	-8157
木耳	-8158
油炸	-8159
现任	-8160
电竞	-8161
统战	-8162
困难的	-8163
城市建设	-8164
将被	-8165
温和	-8166
看似	-8167
结石	-8168
肾脏	-8169
赛中	-8170
▁而且	-8171
的其他	-8172
的含量	-8173
的最佳	-8174
过多的	-8175
可以直接	-8176
实惠	-8177
当日	-8178
推展	-8179
树木	-8180
筛选	-8181
0.2	-8182
的正常	-8183
的综合	-8184
一大	-8185
之美	-8186
冷静	-8187
分手	-8188
建于	-8189
火车	-8190
繼續	-8191
還有	-8192
▁专家	-8193
参观了	-8194
学习了	-8195
是一位	-8196
8、	-8197
供暖	-8198
它在	-8199
注销	-8200
真人	-8201
▁他们	-8202
今天的	-8203
的大力	-8204
自己在	-8205
一个人的	-8206
对外开放	-8207
列为	-8208
定时	-8209
申請	-8210
适度	-8211
量为	-8212
另一种	-8213
两个维护	-8214
女性朋友	-8215
剂和	-8216
回升	-8217
旋律	-8218
下半年	-8219
使用时	-8220
发言人	-8221
带领下	-8222
进入了	-8223
光纤	-8224
包容	-8225
县城	-8226
异议	-8227
弟弟	-8228
绿豆	-8229
舆论	-8230
60%	-8231
会计师	-8232
全社会	-8233
博士后	-8234
各行各	-8235
据了解	-8236
水平和	-8237
的声音	-8238
积极性	-8239
等部门	-8240
要知道	-8241
。2019	-8242
介入	-8243
以赴	-8244
做成	-8245
四年	-8246
回落	-8247
標準	-8248
的确	-8249
脚步	-8250
各单位	-8251
培训班	-8252
得不到	-8253
领导人	-8254
希望大家	-8255
经营范围	-8256
更重要的是	-8257
吸水	-8258
大豆	-8259
男篮	-8260
质地	-8261
这条	-8262
进了	-8263
一般情况下	-8264
学的	-8265
意甲	-8266
损耗	-8267
斯克	-8268
生锈	-8269
百强	-8270
1.6	-8271
技术与	-8272
而成的	-8273
发展趋势	-8274
这些都是	-8275
进行检查	-8276
BS	-8277
为准	-8278
保護	-8279
干预	-8280
毒品	-8281
电厂	-8282
表皮	-8283
金山	-8284
▁采用	-8285
之征兆	-8286
全力以赴	-8287
化学物质	-8288
三天	-8289
温州	-8290
立场	-8291
软化	-8292
间隔	-8293
▁我国	-8294
违法行为	-8295
一把	-8296
做人	-8297
写字	-8298
喷雾	-8299
征集	-8300
晚期	-8301
歌声	-8302
焚烧	-8303
院所	-8304
一句话	-8305
在国际	-8306
影响的	-8307
没有人	-8308
高精度	-8309
学习宣传	-8310
不可避免的	-8311
右脚	-8312
大奖	-8313
没能	-8314
礼仪	-8315
红枣	-8316
结核	-8317
联轴	-8318
信用卡	-8319
节假日	-8320
全体员工	-8321
有很好的	-8322
职业技术学院	-8323
产学	-8324
开门	-8325
所含	-8326
燃油	-8327
聚酯	-8328
肚子	-8329
般的	-8330
道路上	-8331
。3	-8332
不幸	-8333
中部	-8334
势力	-8335
斯拉	-8336
溫度	-8337
▁下面	-8338
和生产	-8339
爱好者	-8340
主持会议	-8341
这样可以	-8342
合一	-8343
实效	-8344
拆卸	-8345
求职	-8346
電子	-8347
主要由	-8348
的战略	-8349
仅为	-8350
偶尔	-8351
可供	-8352
并有	-8353
法学	-8354
活泼	-8355
走势	-8356
配料	-8357
▁尽管	-8358
的费用	-8359
地理位置	-8360
投身	-8361
断裂	-8362
是谁	-8363
有關	-8364
2-3	-8365
举行的	-8366
区块链	-8367
教育局	-8368
可能导致	-8369
AM	-8370
作息	-8371
應用	-8372
抵押	-8373
毫不	-8374
珍珠	-8375
的角色	-8376
金属材料	-8377
一心	-8378
京津	-8379
凸显	-8380
判处	-8381
幫助	-8382
格式	-8383
浓郁	-8384
溶性	-8385
短短	-8386
不一定	-8387
是需要	-8388
水资源	-8389
突出的	-8390
加快推进	-8391
空气中的	-8392
适用范围	-8393
不愿	-8394
光线	-8395
消炎	-8396
石英	-8397
红旗	-8398
缺席	-8399
较长	-8400
风采	-8401
世锦赛	-8402
段时间	-8403
长三角	-8404
同比下降	-8405
91	-8406
不止	-8407
。2、	-8408
以下的	-8409
高性能	-8410
建设工程	-8411
科技大学	-8412
等方面的	-8413
上场	-8414
保质	-8415
大火	-8416
意向	-8417
意愿	-8418
技艺	-8419
某个	-8420
次的	-8421
短暂	-8422
统治	-8423
葫芦	-8424
ow	-8425
▁m	-8426
勤奋	-8427
包裹	-8428
数百	-8429
色列	-8430
菲律	-8431
行情	-8432
要用	-8433
他指出	-8434
家协会	-8435
的处理	-8436
不僅	-8437
之間	-8438
北美	-8439
單位	-8440
士兵	-8441
或缺	-8442
竭诚	-8443
签证	-8444
:1、	-8445
内容的	-8446
多样化	-8447
太平洋	-8448
研究表明	-8449
专访	-8450
出众	-8451
制约	-8452
学前	-8453
日后	-8454
样本	-8455
泉水	-8456
白云	-8457
▁可以	-8458
和国家	-8459
我们都	-8460
打印机	-8461
有的人	-8462
的行业	-8463
过敏性	-8464
一杯	-8465
哪怕	-8466
塞罗	-8467
展区	-8468
服饰	-8469
梦到	-8470
真心	-8471
知的	-8472
网点	-8473
链条	-8474
额定	-8475
学习和	-8476
组委会	-8477
一如既往	-8478
从而导致	-8479
保鲜	-8480
好看	-8481
本领	-8482
租金	-8483
脉冲	-8484
DNA	-8485
代表团	-8486
环境和	-8487
减小	-8488
加班	-8489
外用	-8490
无比	-8491
沃尔	-8492
涂抹	-8493
终止	-8494
除外	-8495
▁针对	-8496
垃圾桶	-8497
残疾人	-8498
的存在	-8499
高新区	-8500
将进一步	-8501
优于	-8502
届时	-8503
工期	-8504
年被	-8505
得益	-8506
毫克	-8507
活塞	-8508
ont	-8509
关注的	-8510
电动机	-8511
纤维素	-8512
要认真	-8513
该产品	-8514
-2	-8515
▁•	-8516
人身	-8517
分裂	-8518
沙漠	-8519
規定	-8520
谢谢	-8521
赞誉	-8522
充满了	-8523
大幅度	-8524
甚至是	-8525
与他人间	-8526
▁一般来说	-8527
白癜风治疗	-8528
EM	-8529
▁亚	-8530
大队	-8531
狮子	-8532
15.	-8533
原来的	-8534
存在着	-8535
中原	-8536
二期	-8537
剂等	-8538
牡丹	-8539
省内	-8540
砂浆	-8541
缩小	-8542
唯一的	-8543
起来的	-8544
神经系统	-8545
3%	-8546
▁市	-8547
大门	-8548
委員	-8549
改为	-8550
新城	-8551
男生	-8552
铺设	-8553
几个月	-8554
发挥了	-8555
工业和	-8556
能不能	-8557
,2022	-8558
2》	-8559
全局	-8560
华北	-8561
小微	-8562
旗帜	-8563
深厚	-8564
量子	-8565
鼻炎	-8566
不仅要	-8567
发展到	-8568
手机版	-8569
特点是	-8570
。2017	-8571
南海	-8572
就越	-8573
强势	-8574
汽油	-8575
相助	-8576
眼光	-8577
红木	-8578
造就	-8579
逾期	-8580
代表的	-8581
真的是	-8582
短视频	-8583
影响力的	-8584
上网	-8585
分支	-8586
崛起	-8587
张家	-8588
空白	-8589
艺人	-8590
顺应	-8591
140	-8592
注意到	-8593
目的地	-8594
英格兰	-8595
、《	-8596
各有	-8597
喜剧	-8598
工信	-8599
晚会	-8600
熊猫	-8601
矿业	-8602
编程	-8603
美女	-8604
量身	-8605
在未来	-8606
比赛的	-8607
精度高	-8608
经营者	-8609
这时候	-8610
养老保险	-8611
心理健康	-8612
技术研发	-8613
ue	-8614
五十	-8615
复制	-8616
子上	-8617
性别	-8618
打磨	-8619
拓宽	-8620
显微	-8621
烟草	-8622
耐候	-8623
虚弱	-8624
观测	-8625
误差	-8626
的好处	-8627
该如何	-8628
管理部门	-8629
职业技能	-8630
op	-8631
▁爱	-8632
乃是	-8633
二维	-8634
來說	-8635
因子	-8636
工匠	-8637
恒温	-8638
正面	-8639
重温	-8640
教育厅	-8641
财政部	-8642
建筑材料	-8643
估值	-8644
做起	-8645
同等	-8646
器等	-8647
推介	-8648
无私	-8649
脾气	-8650
话说	-8651
元器件	-8652
小时内	-8653
就是要	-8654
的人们	-8655
工业生产	-8656
生活方式	-8657
人家	-8658
传中	-8659
取出	-8660
山楂	-8661
放假	-8662
更佳	-8663
毛发	-8664
石膏	-8665
衡量	-8666
ion	-8667
重要讲话精神	-8668
分娩	-8669
居然	-8670
脱离	-8671
贵阳	-8672
创新的	-8673
排行榜	-8674
的皮肤	-8675
纪念馆	-8676
,198	-8677
AI	-8678
▁安	-8679
作文	-8680
出轨	-8681
在水	-8682
多么	-8683
是大	-8684
点评	-8685
真相	-8686
绿茶	-8687
遇见	-8688
高清	-8689
了自己	-8690
而且还	-8691
....	-8692
历史文化	-8693
对自己的	-8694
长期以来	-8695
▁b	-8696
印染	-8697
导电	-8698
权的	-8699
难点	-8700
宣传部	-8701
月经不	-8702
产业结构	-8703
可以达到	-8704
城乡建设	-8705
一分	-8706
之情	-8707
出于	-8708
小時	-8709
抗压	-8710
料的	-8711
无可	-8712
是你	-8713
火焰	-8714
甲方	-8715
监护	-8716
美化	-8717
脱颖	-8718
被动	-8719
袭击	-8720
追溯	-8721
途中	-8722
2.0	-8723
▁这一	-8724
变速箱	-8725
对患者	-8726
形式的	-8727
党和国家	-8728
场比赛中	-8729
跨境电商	-8730
加密	-8731
庆典	-8732
开辟	-8733
自卑	-8734
论述	-8735
走在	-8736
配有	-8737
以来的	-8738
办事处	-8739
这是一	-8740
乙方	-8741
入手	-8742
尽责	-8743
感激	-8744
打标	-8745
无奈	-8746
汲取	-8747
法庭	-8748
洛阳	-8749
膀胱	-8750
▁还有	-8751
病患者	-8752
▁事实上	-8753
共同发展	-8754
功能障碍	-8755
一台	-8756
不已	-8757
制动	-8758
制订	-8759
发烧	-8760
抗体	-8761
护航	-8762
河流	-8763
电极	-8764
集训	-8765
预案	-8766
上面的	-8767
研究和	-8768
都非常	-8769
铝型材	-8770
主体责任	-8771
化学反应	-8772
重要意义	-8773
不去	-8774
亚太	-8775
有过	-8776
致富	-8777
草坪	-8778
都将	-8779
骑士	-8780
对我们	-8781
新生儿	-8782
职业学校	-8783
剩余	-8784
哥哥	-8785
数额	-8786
空間	-8787
胎记	-8788
间隙	-8789
顶尖	-8790
鲜艳	-8791
一流的	-8792
必须在	-8793
有机会	-8794
安全可靠	-8795
侵害	-8796
时报	-8797
淬火	-8798
留下了	-8799
工程设计	-8800
紧紧围绕	-8801
▁每	-8802
传球	-8803
满满	-8804
自愿	-8805
逐年	-8806
進入	-8807
邮政	-8808
電影	-8809
在我们	-8810
感染者	-8811
生物学	-8812
统计局	-8813
避免了	-8814
心理咨询	-8815
成人高考	-8816
针对性的	-8817
为用户提供	-8818
of	-8819
不予	-8820
之道	-8821
双眼	-8822
奶奶	-8823
就會	-8824
度过	-8825
萬元	-8826
超标	-8827
跑步	-8828
骄傲	-8829
7%,	-8830
▁此前	-8831
为自己	-8832
参与了	-8833
丰富多彩	-8834
劳务派遣	-8835
自然资源	-8836
▁2015	-8837
行业的发展	-8838
▁再	-8839
不斷	-8840
修正	-8841
奇怪	-8842
奇迹	-8843
床上	-8844
毛巾	-8845
误区	-8846
不同于	-8847
交通事故	-8848
改革发展	-8849
▁I	-8850
农家	-8851
又会	-8852
哪种	-8853
大厅	-8854
学士	-8855
格外	-8856
桂林	-8857
珍贵	-8858
组的	-8859
自强	-8860
转会	-8861
已经在	-8862
的经济	-8863
电子产品	-8864
ei	-8865
会场	-8866
华东	-8867
大致	-8868
查处	-8869
油腻	-8870
笑容	-8871
耽误	-8872
苏宁	-8873
远的	-8874
達到	-8875
麻疹	-8876
可实现	-8877
条规定	-8878
蓄电池	-8879
▁(5)	-8880
习近平同志	-8881
万达	-8882
不便	-8883
他也	-8884
余项	-8885
哮喘	-8886
▁查看	-8887
我们也	-8888
正能量	-8889
自然的	-8890
▁我们的	-8891
全面提升	-8892
同时也是	-8893
八字	-8894
向往	-8895
应有	-8896
挥发	-8897
数码	-8898
监理	-8899
粒子	-8900
观音	-8901
规矩	-8902
较多的	-8903
可以看到	-8904
工程学院	-8905
数控机床	-8906
口的	-8907
在他	-8908
托盘	-8909
既是	-8910
橄榄	-8911
短板	-8912
调度	-8913
车主	-8914
不銹鋼	-8915
变频器	-8916
满意度	-8917
也是非常	-8918
环氧树脂	-8919
中型	-8920
之时	-8921
光电	-8922
压迫	-8923
流畅	-8924
產生	-8925
西瓜	-8926
40%	-8927
冷却塔	-8928
成都市	-8929
所在地	-8930
贵州省	-8931
刑法	-8932
排尿	-8933
新高	-8934
江湖	-8935
演艺	-8936
章程	-8937
装机	-8938
赠送	-8939
阿森	-8940
」、「	-8941
不低于	-8942
业务的	-8943
人才的	-8944
代表了	-8945
合作社	-8946
本身的	-8947
的宗旨	-8948
粤港澳	-8949
董事会	-8950
1400	-8951
变动	-8952
开场	-8953
更具	-8954
每人	-8955
环卫	-8956
它们的	-8957
的思想	-8958
质量的	-8959
不断创新	-8960
癫痫病的	-8961
,2016	-8962
▁南	-8963
。,	-8964
一一	-8965
各族	-8966
国土	-8967
在高	-8968
声誉	-8969
止痛	-8970
海绵	-8971
清醒	-8972
激活	-8973
经纪	-8974
不是很	-8975
奖学金	-8976
近几年	-8977
不可或缺	-8978
发布会上	-8979
可以看出	-8980
文化旅游	-8981
资本市场	-8982
问题的关键	-8983
▁摄	-8984
主治	-8985
分局	-8986
后勤	-8987
宽度	-8988
无关	-8989
线圈	-8990
领悟	-8991
▁学院	-8992
了一场	-8993
作用的	-8994
班主任	-8995
综合征	-8996
航空航天	-8997
养成良好的	-8998
再到	-8999
十七	-9000
无形	-9001
犹豫	-9002
痛经	-9003
近年	-9004
防汛	-9005
产学研	-9006
支持和	-9007
是一名	-9008
核心技术	-9009
生产效率	-9010
ER	-9011
减弱	-9012
在地	-9013
好事	-9014
建构	-9015
气动	-9016
演练	-9017
界的	-9018
符号	-9019
筹备	-9020
会议室	-9021
来自于	-9022
这意味着	-9023
不说	-9024
像是	-9025
全长	-9026
沙发	-9027
点滴	-9028
福德	-9029
网民	-9030
而又	-9031
解梦	-9032
个国家	-9033
很可能	-9034
校企合作	-9035
高等学校	-9036
高质量的	-9037
上帝	-9038
卵子	-9039
可惜	-9040
否认	-9041
增幅	-9042
并购	-9043
沉浸	-9044
畜牧	-9045
不稳定	-9046
在今年	-9047
的做法	-9048
从而达到	-9049
咨询服务	-9050
正常工作	-9051
一来	-9052
产地	-9053
但也	-9054
出国	-9055
吸取	-9056
抗日	-9057
耳朵	-9058
良性	-9059
评定	-9060
16.	-9061
3.5	-9062
350	-9063
▁全国	-9064
届中国	-9065
曾多次	-9066
试验机	-9067
个人信息	-9068
子宫肌瘤	-9069
ap	-9070
▁)	-9071
党章	-9072
出战	-9073
发货	-9074
和你	-9075
实的	-9076
层层	-9077
悬挂	-9078
演奏	-9079
衔接	-9080
阻塞	-9081
保持在	-9082
太多的	-9083
新华社	-9084
明确了	-9085
更加的	-9086
的投资	-9087
发展规划	-9088
▁這	-9089
乙醇	-9090
但这	-9091
右侧	-9092
多位	-9093
年均	-9094
拿出	-9095
散发	-9096
波纹	-9097
的地	-9098
的爱	-9099
穩定	-9100
第九	-9101
与合作	-9102
使用了	-9103
大力发展	-9104
石油化工	-9105
必不可少的	-9106
传导	-9107
毛囊	-9108
督查	-9109
膜的	-9110
酸钠	-9111
骨架	-9112
了一批	-9113
它具有	-9114
建立起	-9115
我认为	-9116
以下几点	-9117
有色金属	-9118
管理中心	-9119
适合自己的	-9120
CT	-9121
之以	-9122
四是	-9123
小麦	-9124
左侧	-9125
文本	-9126
最後	-9127
极限	-9128
液的	-9129
烟气	-9130
生病	-9131
负债	-9132
违约	-9133
优异的	-9134
的角度	-9135
药物的	-9136
郑州市	-9137
这是一种	-9138
正规的医院	-9139
污水处理厂	-9140
▁O	-9141
三国	-9142
更要	-9143
集團	-9144
1.8	-9145
▁相关	-9146
支气管	-9147
面临着	-9148
优质的服务	-9149
值得注意的是	-9150
万物	-9151
三人	-9152
采摘	-9153
以满足	-9154
准确的	-9155
市场化	-9156
生活会	-9157
领导和	-9158
风机的	-9159
饰演的	-9160
▁如果你	-9161
不必要的	-9162
为消费者	-9163
发展成为	-9164
容易出现	-9165
是一家集	-9166
服务体系	-9167
物业管理	-9168
SC	-9169
他对	-9170
农户	-9171
冰雪	-9172
发掘	-9173
提名	-9174
改良	-9175
政法	-9176
ter	-9177
多媒体	-9178
▁据介绍	-9179
就可以了	-9180
PM	-9181
出局	-9182
多特	-9183
山药	-9184
很是	-9185
拘留	-9186
构筑	-9187
率的	-9188
生活在	-9189
面临的	-9190
北京大学	-9191
。1	-9192
心肌	-9193
所长	-9194
沉积	-9195
通车	-9196
关系的	-9197
严格执行	-9198
化肥	-9199
开朗	-9200
新风	-9201
款式	-9202
瑞典	-9203
能让	-9204
路段	-9205
产品和	-9206
最新的	-9207
复合材料	-9208
深入学习贯彻	-9209
仲裁	-9210
入围	-9211
同心	-9212
外卖	-9213
已在	-9214
法官	-9215
皇后	-9216
算法	-9217
解析	-9218
长征	-9219
卡塔尔	-9220
和建议	-9221
数据的	-9222
。2020	-9223
剧本	-9224
婚礼	-9225
打出	-9226
本品	-9227
浓缩	-9228
王子	-9229
赛的	-9230
风味	-9231
时期的	-9232
甘肃省	-9233
的主题	-9234
的来说	-9235
多吃一些	-9236
容易导致	-9237
应用范围	-9238
FC	-9239
剧烈	-9240
定量	-9241
无穷	-9242
赛前	-9243
高频	-9244
不喜欢	-9245
为公司	-9246
了一份	-9247
禁区内	-9248
这对于	-9249
锂电池	-9250
作为一个	-9251
、1	-9252
三星	-9253
入驻	-9254
布朗	-9255
打了	-9256
有两	-9257
缴费	-9258
重型	-9259
韭菜	-9260
首发	-9261
中西医	-9262
保健品	-9263
推出了	-9264
看上去	-9265
等服务	-9266
ET	-9267
不满	-9268
之初	-9269
习俗	-9270
当初	-9271
拿着	-9272
格栅	-9273
联络	-9274
覺得	-9275
關係	-9276
6%,	-9277
▁9.	-9278
改变了	-9279
染色体	-9280
国民经济	-9281
明确提出	-9282
丢失	-9283
交互	-9284
整形	-9285
时应	-9286
泌尿	-9287
细分	-9288
耐久	-9289
角落	-9290
这首	-9291
随机	-9292
检测仪	-9293
的味道	-9294
脱颖而出	-9295
付款	-9296
到处	-9297
并为	-9298
必定	-9299
时隔	-9300
汉族	-9301
疱疹	-9302
贵人	-9303
一个个	-9304
举行了	-9305
患者要	-9306
其在	-9307
反弹	-9308
很长	-9309
翻炒	-9310
颜值	-9311
风力	-9312
也不同	-9313
催化剂	-9314
最大限度	-9315
可能会导致	-9316
治疗牛皮癣	-9317
ES	-9318
中年	-9319
入侵	-9320
并能	-9321
斯的	-9322
栏目	-9323
珠宝	-9324
生姜	-9325
百科	-9326
钢化	-9327
▁截至	-9328
乒乓球	-9329
就能够	-9330
没什么	-9331
▁为什么	-9332
有所帮助	-9333
也會	-9334
们在	-9335
六个	-9336
合规	-9337
干事	-9338
并向	-9339
機械	-9340
浩特	-9341
混乱	-9342
办公厅	-9343
的家庭	-9344
输送机	-9345
月经不调	-9346
生活垃圾	-9347
在日常生活中	-9348
中断	-9349
光照	-9350
夯实	-9351
开采	-9352
报表	-9353
木质	-9354
消退	-9355
航线	-9356
评分	-9357
党代会	-9358
干细胞	-9359
心中的	-9360
日凌晨	-9361
的教学	-9362
设计与	-9363
▁您	-9364
主编	-9365
太子	-9366
悲伤	-9367
收录	-9368
治国	-9369
纠正	-9370
编写	-9371
脚踏	-9372
药剂	-9373
锁定	-9374
1%,	-9375
之后的	-9376
十二五	-9377
并讲话	-9378
生产设备	-9379
人对	-9380
創新	-9381
变的	-9382
市值	-9383
底蕴	-9384
得的	-9385
扩建	-9386
指甲	-9387
治安	-9388
湿润	-9389
胶囊	-9390
身影	-9391
辖市	-9392
预告	-9393
把自己	-9394
是企业	-9395
征求意见	-9396
深化改革	-9397
很低	-9398
掉了	-9399
有不	-9400
畅销	-9401
結果	-9402
缺失	-9403
醫師	-9404
▁山东	-9405
是如何	-9406
的人物	-9407
等诸多	-9408
说明书	-9409
不断完善	-9410
不良反应	-9411
努力奋斗	-9412
应该注意	-9413
AT	-9414
、4	-9415
一时	-9416
万多	-9417
之年	-9418
导航	-9419
开会	-9420
忙碌	-9421
播种	-9422
比起	-9423
水准	-9424
流入	-9425
4%,	-9426
基本的	-9427
菲律宾	-9428
这里的	-9429
污染防治	-9430
重要的作用	-9431
保卫	-9432
商户	-9433
推迟	-9434
擁有	-9435
气息	-9436
▁广州	-9437
以色列	-9438
仪式上	-9439
婴幼儿	-9440
留学生	-9441
经验和	-9442
包皮过长	-9443
法律责任	-9444
社会科学	-9445
▁2014	-9446
下属	-9447
乏力	-9448
來的	-9449
初级	-9450
挽回	-9451
生效	-9452
而上	-9453
颜料	-9454
代表着	-9455
会增加	-9456
作用下	-9457
完成后	-9458
服务商	-9459
的一大	-9460
美联储	-9461
医科大学	-9462
发达国家	-9463
新冠病毒	-9464
经营管理	-9465
全面建设社会主义现代化	-9466
iv	-9467
将与	-9468
感慨	-9469
排便	-9470
比賽	-9471
之前的	-9472
做到了	-9473
控制在	-9474
明确的	-9475
的成功	-9476
群众的	-9477
培训机构	-9478
对患者的	-9479
越来越高	-9480
含有丰富的	-9481
上课	-9482
外商	-9483
完了	-9484
定向	-9485
建設	-9486
放进	-9487
最少	-9488
的后	-9489
调速	-9490
艾滋病	-9491
爱国主义	-9492
黑色素的	-9493
促销	-9494
党内	-9495
首选	-9496
代理商	-9497
全面推进	-9498
这样一个	-9499
习近平总书记在	-9500
:(	-9501
交警	-9502
华人	-9503
名人	-9504
大蒜	-9505
孕期	-9506
布鲁	-9507
必将	-9508
总值	-9509
、10	-9510
为宗旨	-9511
于人类	-9512
积分榜	-9513
不得不面对	-9514
余家	-9515
并以	-9516
挫折	-9517
直线	-9518
石榴	-9519
立项	-9520
血清	-9521
▁具有	-9522
保温管	-9523
就是一个	-9524
还有很多	-9525
凭证	-9526
被迫	-9527
起伏	-9528
顯示	-9529
之一的	-9530
会发生	-9531
同时还	-9532
离开了	-9533
解放军	-9534
运动会	-9535
实施方案	-9536
债权	-9537
合资	-9538
员的	-9539
尔德	-9540
春秋	-9541
生机	-9542
病房	-9543
聚苯	-9544
贮存	-9545
酱油	-9546
安全和	-9547
将不会	-9548
应有的	-9549
族自治	-9550
的名字	-9551
著作权	-9552
专业知识	-9553
资格证书	-9554
>>	-9555
一樣	-9556
叶轮	-9557
夜晚	-9558
学业	-9559
寄生	-9560
撰写	-9561
星座	-9562
最有	-9563
诱因	-9564
赶紧	-9565
PLC	-9566
副市长	-9567
副总裁	-9568
就开始	-9569
强度和	-9570
获得的	-9571
可以提高	-9572
高质量发展的	-9573
te	-9574
▁/	-9575
万个	-9576
健脾	-9577
回国	-9578
对该	-9579
开业	-9580
感悟	-9581
战役	-9582
执导	-9583
摄氏	-9584
梦境	-9585
益生	-9586
可以从	-9587
可引起	-9588
比特币	-9589
海内外	-9590
的球队	-9591
都不会	-9592
阿拉伯	-9593
光的	-9594
印尼	-9595
各省	-9596
拍照	-9597
沿着	-9598
深感	-9599
热血	-9600
简约	-9601
而生	-9602
贯通	-9603
邮箱	-9604
媒体报道	-9605
非常好的	-9606
,2015	-9607
才有	-9608
抗击	-9609
狭窄	-9610
看得	-9611
薄弱	-9612
较快	-9613
17.	-9614
核心价值观	-9615
会儿	-9616
傳統	-9617
出院	-9618
户籍	-9619
无缘	-9620
显现	-9621
替补	-9622
的原	-9623
积水	-9624
繁多	-9625
红酒	-9626
股市	-9627
領域	-9628
选择的	-9629
酪氨酸	-9630
马德里	-9631
营养成分	-9632
白癜风患者的	-9633
买卖	-9634
勇士	-9635
叉车	-9636
台风	-9637
名义	-9638
早晨	-9639
热能	-9640
紧固	-9641
细心	-9642
自助	-9643
鸡肉	-9644
▁工作	-9645
不影响	-9646
因为在	-9647
小朋友	-9648
无人机	-9649
涉及到	-9650
硕士学位	-9651
贡献力量	-9652
各种各样的	-9653
1%	-9654
▁K	-9655
▁属	-9656
中东	-9657
使之	-9658
局势	-9659
攻关	-9660
更强	-9661
的内	-9662
硬质	-9663
端午	-9664
制定了	-9665
反映了	-9666
发展中	-9667
理事会	-9668
的特性	-9669
责任感	-9670
广播电视	-9671
俗称	-9672
兴起	-9673
周到	-9674
处女	-9675
复工	-9676
外包	-9677
斯塔	-9678
注塑	-9679
监委	-9680
聆听	-9681
问候	-9682
防线	-9683
不要吃	-9684
支付宝	-9685
等离子	-9686
身上的	-9687
适量的	-9688
医疗服务	-9689
一号	-9690
倾斜	-9691
开裂	-9692
新春	-9693
核算	-9694
的可	-9695
直肠	-9696
细化	-9697
织物	-9698
自闭	-9699
购房	-9700
万欧元	-9701
现有的	-9702
的价值	-9703
反复发作	-9704
受到影响	-9705
各行各业	-9706
保罗	-9707
儿女	-9708
就好	-9709
延缓	-9710
情人	-9711
拜登	-9712
欲望	-9713
该校	-9714
金屬	-9715
靠谱	-9716
-20	-9717
到现在	-9718
的物质	-9719
废水处理	-9720
但却	-9721
同胞	-9722
多余	-9723
将要	-9724
招收	-9725
过分	-9726
举办了	-9727
以保证	-9728
涵盖了	-9729
实践活动	-9730
绿色发展	-9731
基础设施建设	-9732
参照	-9733
土豆	-9734
拼接	-9735
描绘	-9736
放下	-9737
正好	-9738
海口	-9739
预制	-9740
不应该	-9741
克斯坦	-9742
心脏病	-9743
▁p	-9744
中介	-9745
交所	-9746
又一	-9747
名牌	-9748
植入	-9749
概要	-9750
相机	-9751
石头	-9752
站点	-9753
诊所	-9754
超出	-9755
铸件	-9756
面粉	-9757
uan	-9758
下一个	-9759
向上的	-9760
家庭的	-9761
博士学位	-9762
到场	-9763
她说	-9764
批次	-9765
登场	-9766
資源	-9767
9%,	-9768
找不到	-9769
球队的	-9770
给予了	-9771
主要从事	-9772
企业文化	-9773
行政处罚	-9774
▁答	-9775
不敌	-9776
人是	-9777
发炎	-9778
容积	-9779
平静	-9780
的疾病	-9781
卫生健康	-9782
大大提高	-9783
空气质量	-9784
。2016	-9785
富含维生素	-9786
也都	-9787
劳累	-9788
周五	-9789
建有	-9790
板式	-9791
率和	-9792
破损	-9793
落到	-9794
车道	-9795
360	-9796
不仅能	-9797
为主的	-9798
为社会	-9799
是一项	-9800
研讨会	-9801
立德树	-9802
都不能	-9803
非常有	-9804
深度融合	-9805
前面	-9806
动手	-9807
妥善	-9808
画家	-9809
的白	-9810
看好	-9811
表情	-9812
除湿	-9813
露出	-9814
1-0	-9815
并不能	-9816
新一轮	-9817
的平台	-9818
的通知	-9819
迎来了	-9820
9001	-9821
党的建设	-9822
应用领域	-9823
ur	-9824
▁赵	-9825
专辑	-9826
很强	-9827
檢測	-9828
矿石	-9829
膜炎	-9830
冬奥会	-9831
十九届	-9832
所有人	-9833
按规定	-9834
氯乙烯	-9835
等形式	-9836
错误的	-9837
生长发育	-9838
口岸	-9839
和不	-9840
尔多	-9841
巴巴	-9842
簡單	-9843
规程	-9844
评委	-9845
黄瓜	-9846
县政府	-9847
是世界	-9848
的品质	-9849
积极配合	-9850
经营理念	-9851
业余	-9852
受孕	-9853
感知	-9854
投篮	-9855
檢查	-9856
灭菌	-9857
透水	-9858
霉菌	-9859
2%,	-9860
以下是	-9861
副教授	-9862
在学校	-9863
当时的	-9864
碳纤维	-9865
要保持	-9866
实地考察	-9867
技术中心	-9868
营养价值	-9869
黑龙江省	-9870
。2021	-9871
em	-9872
奶粉	-9873
报废	-9874
模仿	-9875
砥砺	-9876
精美	-9877
防尘	-9878
非凡	-9879
特别的	-9880
的生命	-9881
篇文章	-9882
这两种	-9883
免疫系统	-9884
创新能力	-9885
四个意识	-9886
需要进行	-9887
是非常重要的	-9888
出线	-9889
出自	-9890
加之	-9891
半岛	-9892
通胀	-9893
鉴于	-9894
分析师	-9895
颁发的	-9896
一般都是	-9897
气候变化	-9898
越来越大	-9899
选择合适的	-9900
ig	-9901
增收	-9902
左路	-9903
擅自	-9904
擦拭	-9905
蠕动	-9906
解決	-9907
论证	-9908
共同体	-9909
原有的	-9910
含有的	-9911
报记者	-9912
武汉市	-9913
▁我公司	-9914
中国经济	-9915
产品研发	-9916
亿元人民币	-9917
为己	-9918
事迹	-9919
内障	-9920
售价	-9921
山县	-9922
平原	-9923
抢救	-9924
月饼	-9925
火星	-9926
致癌	-9927
辛勤	-9928
▁比如	-9929
工业化	-9930
新西兰	-9931
的游戏	-9932
很有可能	-9933
研究发现	-9934
委员会委员	-9935
根据自己的	-9936
一面	-9937
亿吨	-9938
光谱	-9939
切断	-9940
南非	-9941
參與	-9942
回去	-9943
用在	-9944
男友	-9945
相遇	-9946
矫正	-9947
粘结	-9948
經過	-9949
色调	-9950
衣物	-9951
零食	-9952
历史的	-9953
和完善	-9954
这样做	-9955
集团的	-9956
地方政府	-9957
未来发展	-9958
长时间的	-9959
经验丰富的	-9960
··	-9961
学问	-9962
宫外	-9963
拍卖	-9964
支柱	-9965
海域	-9966
當時	-9967
窗户	-9968
职场	-9969
酸奶	-9970
众多的	-9971
附近的	-9972
2:	-9973
▁老	-9974
一口	-9975
中职	-9976
代的	-9977
墙壁	-9978
岩石	-9979
帝国	-9980
承重	-9981
自从	-9982
非遗	-9983
与国际	-9984
的操作	-9985
等疾病	-9986
人格	-9987
升温	-9988
四氟	-9989
妇幼	-9990
客车	-9991
就读	-9992
。3、	-9993
个工作	-9994
半小时	-9995
卫生间	-9996
由于其	-9997
白斑的	-9998
国家安全	-9999
这个世界	-10000
真理的力量	-10001
千米	-10002
吸音	-10003
國內	-10004
完工	-10005
或不	-10006
既能	-10007
決定	-10008
甜蜜	-10009
▁面对	-10010
中表示	-10011
了许多	-10012
刚开始	-10013
可直接	-10014
合格的	-10015
在家里	-10016
小小的	-10017
气体的	-10018
的成本	-10019
第二天	-10020
葡萄糖	-10021
不孕不育	-10022
全党	-10023
化石	-10024
单板	-10025
孔子	-10026
打好	-10027
报酬	-10028
标记	-10029
核实	-10030
深耕	-10031
火花	-10032
细则	-10033
创业者	-10034
得此梦	-10035
我们来	-10036
投入到	-10037
摩托车	-10038
的心理	-10039
钢丝绳	-10040
国家重点	-10041
接下来的	-10042
和他	-10043
增高	-10044
定价	-10045
是集	-10046
疑难	-10047
为人民	-10048
战略性	-10049
1999	-10050
很多人都	-10051
幻想	-10052
强迫	-10053
教训	-10054
機構	-10055
称作	-10056
综上	-10057
透过	-10058
材料和	-10059
流水线	-10060
网站建设	-10061
三点	-10062
仿真	-10063
保定	-10064
威尔	-10065
带上	-10066
消泡	-10067
生于	-10068
锦标	-10069
和安全	-10070
和维护	-10071
多样的	-10072
宣传片	-10073
无污染	-10074
水中的	-10075
碳化硅	-10076
信息安全	-10077
治疗白癜风的	-10078
》)	-10079
丘疹	-10080
伴侣	-10081
六大	-10082
利息	-10083
剩下	-10084
在对	-10085
坚果	-10086
姐妹	-10087
并可	-10088
应聘	-10089
恋情	-10090
淋漓	-10091
温差	-10092
背部	-10093
责令	-10094
防滑	-10095
▁有些	-10096
将持续	-10097
的建筑	-10098
石墨烯	-10099
科学赐	-10100
人类相信	-10101
部分地区	-10102
房地产开发	-10103
最大的礼物	-10104
最重要的是	-10105
是使人类相信	-10106
科学赐于人类	-10107
最大的礼物是什么呢	-10108
是使人类相信真理的力量	-10109
科学赐于人类最大的礼物是什么呢	-10110
4,	-10111
。2	-10112
不懂	-10113
他就	-10114
地形	-10115
密闭	-10116
小吃	-10117
年会	-10118
幽默	-10119
涌现	-10120
液化	-10121
猕猴	-10122
税率	-10123
肺癌	-10124
补肾	-10125
颇多	-10126
▁女性	-10127
你知道	-10128
当地的	-10129
第一位	-10130
IN	-10131
▁阿	-10132
伴随	-10133
党校	-10134
南瓜	-10135
布拉	-10136
抓手	-10137
病程	-10138
科创	-10139
网红	-10140
腹腔	-10141
送上	-10142
防盗	-10143
▁第五	-10144
满意的	-10145
的热量	-10146
信息系统	-10147
出现问题	-10148
科研院所	-10149
▁双	-10150
全心	-10151
放到	-10152
施行	-10153
疑似	-10154
稳固	-10155
蛋糕	-10156
除去	-10157
▁总之	-10158
发现的	-10159
吸引力	-10160
日报道	-10161
有很大	-10162
也是一种	-10163
几个方面	-10164
还有一些	-10165
遗传因素	-10166
"。	-10167
▁吴	-10168
出汗	-10169
可观	-10170
多层	-10171
简化	-10172
精华	-10173
获批	-10174
还应	-10175
农民工	-10176
影响了	-10177
的加工	-10178
立足于	-10179
不断增强	-10180
公共场所	-10181
污水处理设备	-10182
万名	-10183
个省	-10184
中空	-10185
主轴	-10186
会见	-10187
开车	-10188
微创	-10189
搬迁	-10190
时不	-10191
水产	-10192
登上	-10193
祝愿	-10194
菠菜	-10195
远销	-10196
宫外孕	-10197
月中旬	-10198
等活动	-10199
医疗卫生	-10200
从这个角度来看	-10201
场面	-10202
姿势	-10203
按钮	-10204
排骨	-10205
撤销	-10206
新社	-10207
榜首	-10208
滑雪	-10209
热闹	-10210
立柱	-10211
衰退	-10212
迫切	-10213
部级	-10214
饮品	-10215
教育和	-10216
试验区	-10217
新兴产业	-10218
知名品牌	-10219
QQ	-10220
TO	-10221
不全	-10222
侵蚀	-10223
抗癌	-10224
波兰	-10225
瘦肉	-10226
的特	-10227
花板	-10228
药用	-10229
,20	-10230
建筑的	-10231
最后的	-10232
的制作	-10233
给患者	-10234
有哪些呢	-10235
-1	-10236
MA	-10237
PH	-10238
在内	-10239
当作	-10240
有无	-10241
18.	-10242
▁最近	-10243
公布了	-10244
实力的	-10245
保险公司	-10246
不行	-10247
伤势	-10248
全员	-10249
囊肿	-10250
團隊	-10251
天堂	-10252
屋面	-10253
我很	-10254
海岸	-10255
痉挛	-10256
素的	-10257
胡椒	-10258
直辖市	-10259
规模化	-10260
触摸屏	-10261
价格上涨	-10262
存在的问题	-10263
6)	-10264
充实	-10265
口径	-10266
在你	-10267
守法	-10268
对他	-10269
影院	-10270
愉悦	-10271
期为	-10272
核准	-10273
碳水	-10274
計劃	-10275
氧化铝	-10276
现阶段	-10277
冠状病毒	-10278
营养物质	-10279
著名的话	-10280
中期	-10281
党性	-10282
券商	-10283
效能	-10284
果蔬	-10285
独具	-10286
独资	-10287
球菌	-10288
纲要	-10289
美德	-10290
英镑	-10291
门户	-10292
办实事	-10293
又一次	-10294
能有效	-10295
中央空调	-10296
至关重要	-10297
中枢	-10298
事后	-10299
图斯	-10300
排队	-10301
时事	-10302
时节	-10303
蒸气	-10304
说了	-10305
贴心	-10306
违纪	-10307
阳痿	-10308
颈椎	-10309
8%,	-10310
and	-10311
专业生产	-10312
心病	-10313
深情	-10314
温泉	-10315
瀑布	-10316
笔者	-10317
误解	-10318
那一	-10319
长寿	-10320
高出	-10321
▁2)	-10322
三分球	-10323
土工膜	-10324
媒体的	-10325
往往会	-10326
理论和	-10327
2500	-10328
的环境中	-10329
银屑病患者	-10330
又名	-10331
壓力	-10332
月球	-10333
辩论	-10334
商务部	-10335
在设计	-10336
推出的	-10337
研究的	-10338
等内容	-10339
容易引起	-10340
对症治疗	-10341
生产成本	-10342
专业技术人员	-10343
说过一句著名的话	-10344
im	-10345
与人	-10346
可视	-10347
外面	-10348
报纸	-10349
有大	-10350
有小	-10351
期間	-10352
档次	-10353
死了	-10354
电量	-10355
老龄	-10356
震撼	-10357
有一点	-10358
有两个	-10359
的水果	-10360
的身体	-10361
知名的	-10362
▁康普顿	-10363
变得更加	-10364
清洁能源	-10365
质量管理	-10366
CN	-10367
SE	-10368
冷链	-10369
华侨	-10370
右路	-10371
听力	-10372
外汇	-10373
歧视	-10374
永恒	-10375
粪便	-10376
蓝天	-10377
轿车	-10378
▁一是	-10379
京津冀	-10380
对企业	-10381
所说的	-10382
的情绪	-10383
的用户	-10384
等重点	-10385
联轴器	-10386
业务范围	-10387
发生变化	-10388
法定代表	-10389
自成立以来	-10390
▁九	-10391
▁看	-10392
公顷	-10393
叶子	-10394
咽喉	-10395
团员	-10396
场均	-10397
嵌入	-10398
座的	-10399
村庄	-10400
某一	-10401
楼梯	-10402
百合	-10403
蒙德	-10404
行人	-10405
要从	-10406
质感	-10407
旅游业	-10408
表达了	-10409
阿森纳	-10410
硕士研究生	-10411
▁正	-10412
不胜	-10413
与时	-10414
公用	-10415
兼职	-10416
必备	-10417
急需	-10418
抚养	-10419
抱着	-10420
提问	-10421
整机	-10422
称赞	-10423
维亚	-10424
让她	-10425
那麼	-10426
预报	-10427
餐具	-10428
不确定	-10429
会不会	-10430
保持着	-10431
根本上	-10432
学前教育	-10433
检测设备	-10434
与之	-10435
专职	-10436
之大	-10437
女篮	-10438
差的	-10439
扎根	-10440
暴晒	-10441
踏实	-10442
辨别	-10443
ace	-10444
分析仪	-10445
分析和	-10446
反渗透	-10447
感受到了	-10448
激光切割	-10449
万家	-10450
不像	-10451
亲属	-10452
俱进	-10453
双重	-10454
推向	-10455
本职	-10456
汇集	-10457
男科	-10458
症的	-10459
皮革	-10460
缓冲	-10461
190	-10462
也能够	-10463
工业企业	-10464
恶性肿瘤	-10465
比较好的	-10466
不振	-10467
不被	-10468
到大	-10469
季后	-10470
定做	-10471
对决	-10472
庄严	-10473
忽然	-10474
思政	-10475
手的	-10476
社团	-10477
约占	-10478
老婆	-10479
公司以	-10480
只有在	-10481
本科生	-10482
的创新	-10483
胃肠道	-10484
输送带	-10485
以及其他	-10486
一身	-10487
为先	-10488
亮度	-10489
修补	-10490
党课	-10491
吃苦	-10492
哈哈	-10493
宁静	-10494
旁边	-10495
曾任	-10496
糟糕	-10497
要做	-10498
证件	-10499
诸位	-10500
以后的	-10501
保护区	-10502
凝聚力	-10503
导致了	-10504
抗冲击	-10505
益生菌	-10506
市场份额	-10507
学习宣传贯彻	-10508
CD	-10509
制裁	-10510
小姐	-10511
得上	-10512
息肉	-10513
独自	-10514
痤疮	-10515
诗歌	-10516
真实的	-10517
碳酸钙	-10518
空间的	-10519
先进技术	-10520
技术支持	-10521
数据中心	-10522
现代农业	-10523
结构简单	-10524
▁J	-10525
住在	-10526
农历	-10527
垄断	-10528
增效	-10529
實現	-10530
开阔	-10531
往来	-10532
民法	-10533
用到	-10534
的上	-10535
筹划	-10536
管制	-10537
缺氧	-10538
路灯	-10539
不愿意	-10540
是一次	-10541
是十分	-10542
看到的	-10543
管委会	-10544
辅导员	-10545
▁会议强调	-10546
人民检察院	-10547
-0	-10548
▁"	-10549
公映	-10550
四周	-10551
对口	-10552
显着	-10553
現場	-10554
着眼	-10555
肿胀	-10556
谈话	-10557
醫療	-10558
平台的	-10559
新鲜的	-10560
证监会	-10561
正常运行	-10562
骨质疏松	-10563
2。	-10564
亚冠	-10565
太高	-10566
延安	-10567
橡塑	-10568
涉案	-10569
清晨	-10570
科學	-10571
而被	-10572
蘑菇	-10573
▁例如	-10574
事业的	-10575
打电话	-10576
是全球	-10577
消费品	-10578
特有的	-10579
驾驶员	-10580
医疗保险	-10581
。"	-10582
书中	-10583
保守	-10584
參加	-10585
名片	-10586
帷幕	-10587
提及	-10588
磁场	-10589
肝炎	-10590
薪酬	-10591
走上	-10592
较慢	-10593
顺畅	-10594
了不少	-10595
平台上	-10596
意识和	-10597
有不少	-10598
等专业	-10599
1998	-10600
党的十八大	-10601
PA	-10602
严厉	-10603
名额	-10604
員工	-10605
在该	-10606
水位	-10607
責任	-10608
高新	-10609
毫无疑	-10610
游戏的	-10611
的药物	-10612
▁牛皮癣	-10613
也是一个	-10614
三位	-10615
减免	-10616
唯有	-10617
坚硬	-10618
技师	-10619
折叠	-10620
撞击	-10621
无所	-10622
灾难	-10623
螺纹	-10624
鲜花	-10625
为原料	-10626
公交车	-10627
内心的	-10628
决赛中	-10629
是根据	-10630
每一次	-10631
的习惯	-10632
还能够	-10633
体系建设	-10634
少数民族	-10635
党风廉政建设	-10636
需要注意的是	-10637
为核心的党中央	-10638
▁八	-10639
▁因	-10640
不尽	-10641
呼和	-10642
大街	-10643
犹如	-10644
矿产	-10645
餐桌	-10646
ian	-10647
为重点	-10648
在国家	-10649
白内障	-10650
正式成立	-10651
毫无疑问	-10652
资产管理	-10653
PU	-10654
個月	-10655
加水	-10656
好奇	-10657
实物	-10658
时段	-10659
景色	-10660
木齐	-10661
本场	-10662
药师	-10663
衰竭	-10664
谱写	-10665
豐富	-10666
那是	-10667
饭后	-10668
▁儿童	-10669
▁有人	-10670
与服务	-10671
等多项	-10672
而导致	-10673
认定为	-10674
仪器仪表	-10675
工作经验	-10676
▁徐	-10677
。5	-10678
不俗	-10679
再用	-10680
单车	-10681
压实	-10682
哈登	-10683
填补	-10684
多见	-10685
实名	-10686
射线	-10687
尖锐	-10688
洗车	-10689
眼球	-10690
累积	-10691
網友	-10692
致病	-10693
赋能	-10694
载荷	-10695
门前	-10696
附着	-10697
降至	-10698
于一体	-10699
可能性	-10700
开发的	-10701
的危险	-10702
非物质	-10703
====	-10704
有良好的	-10705
km	-10706
上年	-10707
信贷	-10708
兼容	-10709
摘要	-10710
支配	-10711
极易	-10712
查找	-10713
气流	-10714
破解	-10715
肩负	-10716
额度	-10717
▁通常	-10718
中铁	-10719
变色	-10720
安慰	-10721
巧妙	-10722
拉力	-10723
斑块	-10724
深远	-10725
环球	-10726
边境	-10727
中药材	-10728
本网站	-10729
的条件	-10730
采用的	-10731
加重病情	-10732
因为他们	-10733
心理压力	-10734
CA	-10735
不息	-10736
刹车	-10737
日元	-10738
苗木	-10739
跑道	-10740
鼻子	-10741
龙虾	-10742
关系到	-10743
其主要	-10744
和应用	-10745
在网上	-10746
幸福的	-10747
更名为	-10748
過程中	-10749
施工现场	-10750
耐腐蚀性	-10751
;“	-10752
id	-10753
前者	-10754
威廉	-10755
巅峰	-10756
抱怨	-10757
暗示	-10758
秋天	-10759
芹菜	-10760
過去	-10761
就应该	-10762
建成后	-10763
有关的	-10764
主营业务	-10765
医务人员	-10766
可以有效	-10767
胡萝卜素	-10768
孢子	-10769
泄露	-10770
省长	-10771
自杀	-10772
茁壮	-10773
长效	-10774
鲁能	-10775
两个月	-10776
人来说	-10777
在高温	-10778
深厚的	-10779
类专业	-10780
建筑装饰	-10781
性能稳定	-10782
深入开展	-10783
习近平总书记关于	-10784
+”	-10785
▁万	-10786
一经	-10787
價格	-10788
典范	-10789
存活	-10790
据报	-10791
朝着	-10792
样板	-10793
粘连	-10794
裂纹	-10795
遇到了	-10796
发病原因	-10797
年的发展	-10798
互助	-10799
作好	-10800
公立	-10801
分行	-10802
利尿	-10803
基建	-10804
感覺	-10805
所未	-10806
拥抱	-10807
求财	-10808
痕迹	-10809
表現	-10810
角膜	-10811
除非	-10812
▁孕妇	-10813
公司将	-10814
创造性	-10815
经过了	-10816
获得者	-10817
集成电路	-10818
业有限公司	-10819
进一步提升	-10820
’,	-10821
上学	-10822
区间	-10823
实战	-10824
屏障	-10825
手册	-10826
投影	-10827
昆虫	-10828
田径	-10829
窗帘	-10830
简直	-10831
荣耀	-10832
赛区	-10833
车床	-10834
了一下	-10835
学生在	-10836
性皮炎	-10837
想不到	-10838
开拓创新	-10839
政治站位	-10840
新冠疫情	-10841
电子信息	-10842
全文	-10843
单身	-10844
古人	-10845
图纸	-10846
时有	-10847
本周	-10848
满了	-10849
监狱	-10850
负压	-10851
躺在	-10852
隔膜	-10853
4.5	-10854
低收入	-10855
只要有	-10856
家长们	-10857
的数量	-10858
严格落实	-10859
先进单位	-10860
还有一个	-10861
金融服务	-10862
为之	-10863
住建	-10864
安裝	-10865
巨头	-10866
日照	-10867
水上	-10868
滋生	-10869
滑动	-10870
着手	-10871
芳香	-10872
走过	-10873
运河	-10874
在剧中	-10875
塑料袋	-10876
护肤品	-10877
这一切	-10878
目前为止	-10879
▁2013	-10880
具有较强的	-10881
th	-10882
专属	-10883
两地	-10884
厉害	-10885
变质	-10886
国脚	-10887
打工	-10888
水温	-10889
肢体	-10890
路口	-10891
这将	-10892
1.4	-10893
▁未来	-10894
以客户	-10895
很简单	-10896
的区别	-10897
智慧城市	-10898
研发中心	-10899
不堪	-10900
人社	-10901
全國	-10902
共青	-10903
可燃	-10904
很久	-10905
指令	-10906
改建	-10907
歷史	-10908
經營	-10909
走路	-10910
19.	-10911
4.0	-10912
化管理	-10913
和质量	-10914
是不能	-10915
研究会	-10916
全面建成	-10917
停机	-10918
感叹	-10919
战平	-10920
是他	-10921
更改	-10922
更长	-10923
火爆	-10924
白菜	-10925
端的	-10926
美军	-10927
还需	-10928
领衔	-10929
-10	-10930
博士生	-10931
建造师	-10932
与时俱进	-10933
先进集体	-10934
具体情况	-10935
四个自信	-10936
自然科学	-10937
野生动物	-10938
▁康普顿曾经提到过	-10939
公认	-10940
原件	-10941
如意	-10942
将球	-10943
格里	-10944
民宿	-10945
物質	-10946
纸张	-10947
终点	-10948
長期	-10949
风情	-10950
3-5	-10951
▁去年	-10952
个月的	-10953
会议上	-10954
市场中	-10955
是一種	-10956
国际贸易	-10957
党的十九届六	-10958
OH	-10959
不定	-10960
县长	-10961
友情	-10962
品尝	-10963
成像	-10964
曹操	-10965
朝阳	-10966
爆料	-10967
粘接	-10968
荔枝	-10969
3.0	-10970
对环境	-10971
特定的	-10972
相信大家	-10973
典雅	-10974
助剂	-10975
地亚	-10976
常温	-10977
性交	-10978
报销	-10979
村里	-10980
歌唱	-10981
皮质	-10982
节水	-10983
选项	-10984
適合	-10985
结构性	-10986
生产制造	-10987
线上线下	-10988
融合发展	-10989
中之	-10990
代言	-10991
倾听	-10992
充血	-10993
周转	-10994
品类	-10995
密的	-10996
患处	-10997
拉动	-10998
推特	-10999
日光	-11000
消极	-11001
特长	-11002
着重	-11003
线性	-11004
聘请	-11005
节的	-11006
采样	-11007
首轮	-11008
下一代	-11009
学院的	-11010
的运动	-11011
而这些	-11012
联赛中	-11013
呼和浩特	-11014
组织开展	-11015
长期使用	-11016
降低成本	-11017
▁与此同时	-11018
um	-11019
农商	-11020
切换	-11021
刻苦	-11022
抓紧	-11023
摄取	-11024
眼神	-11025
自有	-11026
将达到	-11027
观众的	-11028
1800	-11029
交通安全	-11030
优异成绩	-11031
行业标准	-11032
规章制度	-11033
钢化玻璃	-11034
具有很强的	-11035
2%	-11036
sp	-11037
专人	-11038
乌鲁	-11039
乳头	-11040
喜好	-11041
此事	-11042
范畴	-11043
获胜	-11044
隆重	-11045
高空	-11046
220	-11047
以质量	-11048
以防止	-11049
先生的	-11050
巴塞罗	-11051
并提供	-11052
中国企业	-11053
品牌形象	-11054
两家	-11055
但要	-11056
再现	-11057
分级	-11058
同仁	-11059
手感	-11060
服的	-11061
水晶	-11062
灿烂	-11063
菊花	-11064
装载	-11065
车身	-11066
过往	-11067
▁30	-11068
在日本	-11069
提供商	-11070
等技术	-11071
巴塞罗那	-11072
纪委书记	-11073
总建筑面积	-11074
以习近平同志	-11075
不下	-11076
区和	-11077
天使	-11078
奠定	-11079
弟子	-11080
水体	-11081
法制	-11082
热刺	-11083
生死	-11084
相差	-11085
缅甸	-11086
跨国	-11087
速率	-11088
陈列	-11089
高低	-11090
型人才	-11091
等信息	-11092
乌鲁木齐	-11093
人大代表	-11094
非物质文化遗产	-11095
、、	-11096
两会	-11097
丹麦	-11098
向着	-11099
品格	-11100
国旗	-11101
多方	-11102
废旧	-11103
延迟	-11104
药学	-11105
豆类	-11106
进修	-11107
3%。	-11108
▁报告	-11109
一种是	-11110
养老金	-11111
在一些	-11112
已经有	-11113
有限的	-11114
适应性	-11115
销售的	-11116
高效率	-11117
▁11、	-11118
可以分为	-11119
中国科学院	-11120
五一	-11121
千里	-11122
大便	-11123
宽松	-11124
峰会	-11125
强力	-11126
或有	-11127
手套	-11128
批示	-11129
母乳	-11130
畜禽	-11131
相传	-11132
相當	-11133
诗词	-11134
造福	-11135
都没	-11136
办公楼	-11137
局局长	-11138
我们对	-11139
方法和	-11140
氯化铝	-11141
等国家	-11142
信息公开	-11143
竞争对手	-11144
两条	-11145
以致	-11146
伸缩	-11147
柔和	-11148
瞄准	-11149
胸部	-11150
英寸	-11151
調查	-11152
进军	-11153
量和	-11154
题目	-11155
小编就	-11156
父母的	-11157
猕猴桃	-11158
雄厚的	-11159
希望通过	-11160
以实际行动	-11161
的主要原因	-11162
粤港澳大湾区	-11163
人选	-11164
传热	-11165
兼顾	-11166
卡拉	-11167
历时	-11168
药材	-11169
不注意	-11170
出席了	-11171
在实际	-11172
岗位上	-11173
打造成	-11174
救护车	-11175
等单位	-11176
自由基	-11177
该怎么	-11178
这件事	-11179
市场上的	-11180
操作人员	-11181
退役军人	-11182
**	-11183
一球	-11184
上报	-11185
亲人	-11186
伤亡	-11187
局的	-11188
得好	-11189
整车	-11190
白的	-11191
神话	-11192
购置	-11193
酿造	-11194
总结了	-11195
是全国	-11196
的控制	-11197
经验丰富	-11198
继续教育	-11199
保修	-11200
分化	-11201
刚性	-11202
压制	-11203
小人	-11204
异位	-11205
有权	-11206
环绕	-11207
童年	-11208
裂缝	-11209
闻名	-11210
▁二是	-11211
公司和	-11212
淘汰赛	-11213
不仅如此	-11214
特别强调	-11215
,0	-11216
3:	-11217
一辆	-11218
不绝	-11219
包裝	-11220
处方	-11221
妇产	-11222
小事	-11223
日夜	-11224
穆里	-11225
立案	-11226
网易	-11227
记账	-11228
透光	-11229
金银	-11230
风口	-11231
看不到	-11232
世界一流	-11233
很多患者	-11234
特别注意	-11235
。2015	-11236
▁开	-11237
。7	-11238
一番	-11239
万亿	-11240
下半	-11241
减震	-11242
对称	-11243
情景	-11244
成份	-11245
机和	-11246
染料	-11247
热电	-11248
疗程	-11249
肛门	-11250
一对一	-11251
不合理	-11252
代表队	-11253
时间里	-11254
第一批	-11255
这一次	-11256
都比较	-11257
清热解毒	-11258
由此可见	-11259
结构体系	-11260
▁最	-11261
▁省	-11262
内脏	-11263
则会	-11264
和睦	-11265
夫人	-11266
安德	-11267
州区	-11268
平行	-11269
扁桃	-11270
江市	-11271
疲惫	-11272
精良	-11273
红茶	-11274
落在	-11275
蒸馏	-11276
那时	-11277
隔断	-11278
风吹	-11279
为己任	-11280
从一个	-11281
保护和	-11282
朋友圈	-11283
统一的	-11284
问题是	-11285
市场营销	-11286
技术力量	-11287
机械加工	-11288
这种方法	-11289
万里	-11290
中标	-11291
保管	-11292
厂区	-11293
可将	-11294
埔寨	-11295
它能	-11296
建国	-11297
捐款	-11298
本轮	-11299
淡化	-11300
深处	-11301
率低	-11302
签下	-11303
阴阳	-11304
一个是	-11305
柬埔寨	-11306
满足了	-11307
独立的	-11308
荨麻疹	-11309
都会有	-11310
世界上最	-11311
优质服务	-11312
接受治疗	-11313
机械制造	-11314
班子成员	-11315
资格考试	-11316
三亚	-11317
下设	-11318
他和	-11319
但其	-11320
光辉	-11321
化學	-11322
帮忙	-11323
应届	-11324
才华	-11325
扣除	-11326
游玩	-11327
滥用	-11328
罗茨	-11329
者在	-11330
视网	-11331
▁许多	-11332
海南省	-11333
的几率	-11334
队员们	-11335
尤文图斯	-11336
政府部门	-11337
预示着你	-11338
。8	-11339
之战	-11340
二甲	-11341
價值	-11342
又要	-11343
微型	-11344
持股	-11345
插入	-11346
景象	-11347
求是	-11348
的家	-11349
空氣	-11350
组分	-11351
言论	-11352
配偶	-11353
酸酯	-11354
麻醉	-11355
伊拉克	-11356
候选人	-11357
冷空气	-11358
通常是	-11359
宝马	-11360
庭院	-11361
提早	-11362
方形	-11363
校外	-11364
皮疹	-11365
社科	-11366
花椒	-11367
血症	-11368
让您	-11369
防渗	-11370
香料	-11371
▁专业	-11372
▁重庆	-11373
亚洲杯	-11374
以提高	-11375
占有率	-11376
工作站	-11377
废弃物	-11378
的球员	-11379
的销售	-11380
系统等	-11381
领导的	-11382
交通大学	-11383
体育锻炼	-11384
作为一名	-11385
国际机场	-11386
设备有限公司	-11387
上传	-11388
下方	-11389
军工	-11390
出道	-11391
参予	-11392
味甘	-11393
商用	-11394
小火	-11395
指纹	-11396
油气	-11397
绍兴	-11398
联通	-11399
都會	-11400
面積	-11401
▁工业	-11402
▁来自	-11403
十分的	-11404
叙利亚	-11405
和国际	-11406
工信部	-11407
接受了	-11408
服务社会	-11409
营养不良	-11410
具有较高的	-11411
的一致好评	-11412
▁▲	-11413
去看	-11414
横梁	-11415
管路	-11416
冷凝器	-11417
告诉你	-11418
和精神	-11419
完成的	-11420
的政策	-11421
真空泵	-11422
第一名	-11423
。198	-11424
创新驱动	-11425
社会保障	-11426
网络营销	-11427
行政部门	-11428
▁X	-11429
取胜	-11430
只想	-11431
可控	-11432
命名	-11433
忍受	-11434
急剧	-11435
所示	-11436
旗舰	-11437
的年	-11438
碎片	-11439
秒时	-11440
编织	-11441
轻度	-11442
领跑	-11443
做一些	-11444
形势下	-11445
装配式	-11446
中路	-11447
低廉	-11448
供需	-11449
内置	-11450
力强	-11451
排污	-11452
月亮	-11453
浓厚	-11454
精液	-11455
量化	-11456
仍然是	-11457
功能性	-11458
已经是	-11459
庞大的	-11460
我知道	-11461
杭州市	-11462
灌装机	-11463
的最大	-11464
的说法	-11465
类似于	-11466
规模的	-11467
阶段的	-11468
公共服务	-11469
突出贡献	-11470
基层党组织	-11471
领导班子成员	-11472
▁分	-11473
。4	-11474
乐器	-11475
了几	-11476
低价	-11477
只好	-11478
听说	-11479
明的	-11480
极致	-11481
浪潮	-11482
知識	-11483
短缺	-11484
难道	-11485
▁具体	-11486
不舒服	-11487
内马尔	-11488
分布在	-11489
可行性	-11490
多样性	-11491
得益于	-11492
比利时	-11493
概要描述	-11494
相对来说	-11495
货币政策	-11496
还是比较	-11497
▁说	-11498
冲动	-11499
可得	-11500
后悔	-11501
四种	-11502
木门	-11503
树种	-11504
洪水	-11505
白糖	-11506
通俗	-11507
0.8	-11508
▁作者	-11509
不允许	-11510
安全感	-11511
羽毛球	-11512
都能够	-11513
深入学习	-11514
▁主	-11515
也对	-11516
冶炼	-11517
剖析	-11518
吸尘	-11519
妹妹	-11520
小平	-11521
开的	-11522
执政	-11523
規劃	-11524
遗症	-11525
▁1)	-11526
▁对此	-11527
价格的	-11528
归属于	-11529
的报告	-11530
非常高	-11531
数字经济	-11532
证券交易所	-11533
-3	-11534
1。	-11535
Cr	-11536
下旬	-11537
励志	-11538
华盛	-11539
推崇	-11540
根源	-11541
滚筒	-11542
狀態	-11543
▁可是	-11544
▁国际	-11545
▁日本	-11546
不具备	-11547
在世界	-11548
新模式	-11549
是一個	-11550
的意见	-11551
综合素质	-11552
装备制造	-11553
具有重要意义	-11554
自主知识产权	-11555
介紹	-11556
停药	-11557
几何	-11558
到期	-11559
厅长	-11560
巴基	-11561
带的	-11562
打通	-11563
整套	-11564
條件	-11565
比的	-11566
老虎	-11567
茄子	-11568
菜单	-11569
高尚	-11570
吉林省	-11571
存在于	-11572
推动了	-11573
欧洲杯	-11574
部位的	-11575
也不例外	-11576
实用新型	-11577
改革创新	-11578
----------------	-11579
仍是	-11580
内有	-11581
分期	-11582
勘察	-11583
女方	-11584
报送	-11585
負責	-11586
锻造	-11587
阵地	-11588
顶部	-11589
可再生	-11590
吃什么	-11591
火车站	-11592
要根据	-11593
设备等	-11594
历史悠久	-11595
意义重大	-11596
文化艺术	-11597
表面处理	-11598
身体状况	-11599
一类	-11600
中性	-11601
之力	-11602
交替	-11603
交给	-11604
占用	-11605
复习	-11606
帽子	-11607
时空	-11608
梅州	-11609
烧烤	-11610
艰辛	-11611
金奖	-11612
银河	-11613
非标	-11614
顽强	-11615
主要为	-11616
二维码	-11617
体育场	-11618
的食品	-11619
▁以上是	-11620
使用方便	-11621
容易造成	-11622
成为中国	-11623
有不同的	-11624
疫苗接种	-11625
还要注意	-11626
之乡	-11627
之家	-11628
君子	-11629
守信	-11630
本市	-11631
海峡	-11632
滚动	-11633
盐水	-11634
眼中	-11635
鉴别	-11636
反腐败	-11637
工作时	-11638
莫斯科	-11639
高层次	-11640
应该如何	-11641
是什么原因	-11642
碳水化合物	-11643
!。	-11644
ce	-11645
丰收	-11646
交谈	-11647
但它	-11648
侵入	-11649
字号	-11650
数千	-11651
梅花	-11652
百家	-11653
监局	-11654
積極	-11655
虫害	-11656
走廊	-11657
这名	-11658
铝板	-11659
。10	-11660
事业部	-11661
增加值	-11662
客户端	-11663
每年的	-11664
的新闻	-11665
老师们	-11666
资料显示	-11667
资源共享	-11668
重点项目	-11669
阿里巴巴	-11670
▁特	-11671
内衣	-11672
处长	-11673
引资	-11674
數據	-11675
果汁	-11676
民国	-11677
洛杉	-11678
胰岛	-11679
胶原	-11680
能为	-11681
酱香	-11682
预选	-11683
▁新华	-11684
可以为	-11685
等现象	-11686
▁很多人	-11687
美术学院	-11688
规划设计	-11689
之称	-11690
台上	-11691
土木	-11692
地块	-11693
恐怕	-11694
核电	-11695
澳門	-11696
看的	-11697
空腹	-11698
管线	-11699
而非	-11700
道教	-11701
万元的	-11702
准确性	-11703
快速的	-11704
级资质	-11705
锦标赛	-11706
交流合作	-11707
副秘书长	-11708
如果我们	-11709
产品和服务	-11710
一处	-11711
上周	-11712
兩個	-11713
困惑	-11714
尿液	-11715
油田	-11716
淄博	-11717
片中	-11718
行為	-11719
西湖	-11720
遏制	-11721
遮阳	-11722
锐意	-11723
隨著	-11724
风的	-11725
-30	-11726
▁当前	-11727
▁本届	-11728
一定是	-11729
农作物	-11730
就不能	-11731
展览会	-11732
成立的	-11733
就会出现	-11734
膳食纤维	-11735
Al	-11736
MV	-11737
光眼	-11738
實際	-11739
射精	-11740
廣泛	-11741
总之	-11742
意图	-11743
感器	-11744
星星	-11745
最美	-11746
汗水	-11747
经久	-11748
补血	-11749
逃避	-11750
▁日前	-11751
▁香港	-11752
主要以	-11753
其他人	-11754
在这一	-11755
流行的	-11756
产业集群	-11757
智能家居	-11758
的时间内	-11759
od	-11760
万台	-11761
了吗	-11762
农机	-11763
名将	-11764
嚴重	-11765
大人	-11766
如期	-11767
愤怒	-11768
村的	-11769
武磊	-11770
经开	-11771
至此	-11772
软管	-11773
然后在	-11774
设备及	-11775
优惠政策	-11776
共产党的	-11777
研究成果	-11778
经营活动	-11779
PT	-11780
ke	-11781
。9	-11782
伊斯	-11783
军团	-11784
口号	-11785
大有	-11786
常州	-11787
清扫	-11788
温水	-11789
绿地	-11790
螺丝	-11791
6%。	-11792
中指出	-11793
固定的	-11794
求生存	-11795
白色的	-11796
程度高	-11797
过去了	-11798
宫颈糜烂	-11799
ov	-11800
切勿	-11801
时效	-11802
滋补	-11803
私募	-11804
衍生	-11805
迈进	-11806
追踪	-11807
除臭	-11808
领袖	-11809
龙门	-11810
1.1	-11811
5%,	-11812
重大的	-11813
革命先	-11814
以上学历	-11815
发现自己	-11816
用自己的	-11817
的人来说	-11818
一贯	-11819
偏食	-11820
四十	-11821
孕育	-11822
對于	-11823
最快	-11824
期盼	-11825
瓶颈	-11826
目標	-11827
穿过	-11828
签字	-11829
运送	-11830
饲养	-11831
高管	-11832
为了让	-11833
年全国	-11834
整体的	-11835
的样子	-11836
的水平	-11837
大大降低	-11838
广泛关注	-11839
文物保护	-11840
职业院校	-11841
自学考试	-11842
监督管理局	-11843
BC	-11844
pH	-11845
了他	-11846
供货	-11847
兒童	-11848
关税	-11849
叶酸	-11850
搭载	-11851
的話	-11852
自動	-11853
谷歌	-11854
预备	-11855
一季度	-11856
作出的	-11857
分析了	-11858
和文化	-11859
增长的	-11860
男性的	-11861
的话题	-11862
自闭症	-11863
都是在	-11864
准备工作	-11865
玻璃纤维	-11866
用户提供	-11867
临沂	-11868
克罗	-11869
婚外	-11870
应付	-11871
愈合	-11872
污垢	-11873
液态	-11874
眼里	-11875
▁治疗	-11876
体系和	-11877
只要你	-11878
始建于	-11879
应根据	-11880
我相信	-11881
的努力	-11882
等业务	-11883
给他们	-11884
背后的	-11885
银行卡	-11886
非常大	-11887
从根本上	-11888
建筑设计	-11889
综合实力	-11890
重新加入	-11891
▁各	-11892
一声	-11893
专心	-11894
克尔	-11895
宫腔	-11896
褪色	-11897
1.3	-11898
▁深圳	-11899
目标任务	-11900
重要指示	-11901
销售收入	-11902
▁若	-11903
五行	-11904
偶然	-11905
凡事	-11906
基礎	-11907
女神	-11908
年期	-11909
强强	-11910
想去	-11911
湿热	-11912
现行	-11913
的山	-11914
等候	-11915
缅怀	-11916
聚会	-11917
赶到	-11918
▁to	-11919
了一次	-11920
听取了	-11921
在日常	-11922
幸福感	-11923
热烈的	-11924
结构和	-11925
里程碑	-11926
企业提供	-11927
安全管理	-11928
小康社会	-11929
恢复正常	-11930
非常适合	-11931
民主生活会	-11932
保驾	-11933
前十	-11934
反應	-11935
实处	-11936
惩罚	-11937
是无	-11938
普洱	-11939
服从	-11940
极高	-11941
營養	-11942
物种	-11943
環保	-11944
的路	-11945
紧迫	-11946
要对	-11947
不相同	-11948
已经被	-11949
线城市	-11950
组织和	-11951
表现在	-11952
专家学者	-11953
此次活动	-11954
社会保险	-11955
工业和信息化	-11956
世间	-11957
农田	-11958
异的	-11959
指控	-11960
游览	-11961
漏洞	-11962
以及对	-11963
娱乐圈	-11964
生殖器	-11965
的形成	-11966
短期内	-11967
等各类	-11968
结束了	-11969
青光眼	-11970
包装材料	-11971
导热系数	-11972
科研成果	-11973
项目管理	-11974
律师事务所	-11975
▁按	-11976
三相	-11977
传送	-11978
储能	-11979
入住	-11980
共振	-11981
助学	-11982
可为	-11983
吊装	-11984
忘了	-11985
据说	-11986
汇总	-11987
胶粘	-11988
起床	-11989
迎战	-11990
遍及	-11991
防伪	-11992
2-0	-11993
App	-11994
分数线	-11995
当我们	-11996
的增加	-11997
的帮助	-11998
的意义	-11999
一个好的	-12000
投入使用	-12001
科学知识	-12002
客户的需求	-12003
很大程度上	-12004
全面建设社会主义现代化国家	-12005
(1	-12006
一幅	-12007
上也	-12008
分割	-12009
去找	-12010
尽力	-12011
带队	-12012
棋牌	-12013
歌舞	-12014
申花	-12015
评级	-12016
诸如	-12017
财物	-12018
霉素	-12019
一年的	-12020
了一条	-12021
住房和	-12022
国内的	-12023
往往是	-12024
支持下	-12025
日开始	-12026
有多少	-12027
流量计	-12028
深加工	-12029
的理想	-12030
▁本公司	-12031
全产业链	-12032
所需要的	-12033
旅游景区	-12034
人际	-12035
儿科	-12036
兰特	-12037
当局	-12038
抽烟	-12039
数值	-12040
杂物	-12041
概括	-12042
滴滴	-12043
立式	-12044
给出	-12045
诱导	-12046
起草	-12047
0.3	-12048
4%。	-12049
▁这里	-12050
▁选择	-12051
写字楼	-12052
容易被	-12053
指挥部	-12054
的电影	-12055
今年以来	-12056
作风建设	-12057
技术水平	-12058
操作方便	-12059
以习近平同志为核心的党中央	-12060
▁国	-12061
为宜	-12062
品味	-12063
大部	-12064
年中	-12065
开口	-12066
洋溢	-12067
球星	-12068
稀土	-12069
等都	-12070
赛程	-12071
过年	-12072
青铜	-12073
20.	-12074
于是以	-12075
介绍说	-12076
和创新	-12077
就这样	-12078
工艺品	-12079
数量的	-12080
方法是	-12081
来到了	-12082
的爱情	-12083
的身份	-12084
发展改革	-12085
收费标准	-12086
的一系列	-12087
职业道德	-12088
不同程度的	-12089
在使用过程中	-12090
▁到	-12091
上火	-12092
不成	-12093
丝网	-12094
危及	-12095
告别	-12096
喜悦	-12097
地表	-12098
宝贝	-12099
想想	-12100
执教	-12101
抗战	-12102
灰色	-12103
烟雾	-12104
被害	-12105
近代	-12106
酒吧	-12107
阳县	-12108
雷达	-12109
面条	-12110
专门的	-12111
个项目	-12112
之迹象	-12113
并进行	-12114
无症状	-12115
可以实现	-12116
工业大学	-12117
政治任务	-12118
无痛人流	-12119
这场比赛	-12120
上千	-12121
加州	-12122
卫健	-12123
古镇	-12124
品質	-12125
始于	-12126
心动	-12127
有用	-12128
用以	-12129
繁琐	-12130
美白	-12131
表态	-12132
95%	-12133
不吉利	-12134
人们在	-12135
前所未	-12136
市面上	-12137
洗衣机	-12138
而言之	-12139
积极响应	-12140
立德树人	-12141
,(	-12142
侦查	-12143
出品	-12144
制片	-12145
厨师	-12146
导轨	-12147
恶臭	-12148
想着	-12149
牵引	-12150
生猪	-12151
筑牢	-12152
纯水	-12153
编码	-12154
置于	-12155
蓝图	-12156
发生后	-12157
寿命长	-12158
状态下	-12159
电影节	-12160
7000	-12161
严格遵守	-12162
牢固树立	-12163
社交媒体	-12164
不分	-12165
借贷	-12166
偿还	-12167
切入	-12168
回转	-12169
安市	-12170
或多	-12171
横向	-12172
汉字	-12173
短路	-12174
私家	-12175
胃炎	-12176
贴近	-12177
避开	-12178
个城市	-12179
其次是	-12180
华盛顿	-12181
宝贵的	-12182
的自然	-12183
笔记本	-12184
行为的	-12185
较低的	-12186
体制改革	-12187
保驾护航	-12188
加工工艺	-12189
商业银行	-12190
工业园区	-12191
巴基斯坦	-12192
环境温度	-12193
电线电缆	-12194
航空公司	-12195
规模以上	-12196
不平	-12197
全天	-12198
刷新	-12199
和我	-12200
在意	-12201
寂寞	-12202
放缓	-12203
施肥	-12204
日趋	-12205
查明	-12206
燕窝	-12207
电容	-12208
约合	-12209
造血	-12210
逮捕	-12211
重重	-12212
间距	-12213
面對	-12214
▁欢迎	-12215
先天性	-12216
▁10.	-12217
丝绸之路	-12218
产品设计	-12219
服务质量	-12220
某种程度	-12221
深入推进	-12222
BO	-12223
下注	-12224
亮的	-12225
人脸	-12226
便携	-12227
华中	-12228
可口	-12229
外在	-12230
战场	-12231
教科	-12232
本月	-12233
漏水	-12234
电热	-12235
破产	-12236
磁性	-12237
纺布	-12238
老鼠	-12239
聚力	-12240
莲花	-12241
跨度	-12242
7%。	-12243
产品在	-12244
手术后	-12245
隔墙板	-12246
废气处理	-12247
中信	-12248
八项	-12249
减灾	-12250
少了	-12251
接连	-12252
水稻	-12253
湖泊	-12254
站的	-12255
选取	-12256
酒的	-12257
革新	-12258
风云	-12259
不完全	-12260
不规则	-12261
全心全	-12262
净水器	-12263
同时在	-12264
外交部	-12265
意味著	-12266
是利用	-12267
综上所述	-12268
的工作人员	-12269
元旦	-12270
名录	-12271
基材	-12272
宝石	-12273
改變	-12274
散步	-12275
永不	-12276
点燃	-12277
的红	-12278
监事	-12279
美方	-12280
遊戲	-12281
道具	-12282
颁布	-12283
▁然后	-12284
以达到	-12285
儿童的	-12286
太极拳	-12287
政治局	-12288
电机的	-12289
都是一	-12290
附加值	-12291
及时发现	-12292
4%	-12293
客家	-12294
皮膚	-12295
記者	-12296
送达	-12297
中国梦	-12298
也是很	-12299
人类的	-12300
优势和	-12301
告诉他	-12302
工商户	-12303
更适合	-12304
的一份	-12305
,2014	-12306
中西医结合	-12307
一律	-12308
中式	-12309
人行	-12310
偏差	-12311
已是	-12312
情报	-12313
检疫	-12314
滋味	-12315
玩耍	-12316
田园	-12317
由於	-12318
约有	-12319
美人	-12320
翅膀	-12321
草药	-12322
資訊	-12323
运维	-12324
还未	-12325
进出	-12326
阶级	-12327
170	-12328
出生的	-12329
可采用	-12330
增长率	-12331
摄氏度	-12332
新闻网	-12333
极大地	-12334
全面发展	-12335
合作共赢	-12336
用户体验	-12337
广泛的应用	-12338
文化和旅游	-12339
二者	-12340
亲密	-12341
喷嘴	-12342
型和	-12343
思念	-12344
惠民	-12345
核查	-12346
牙龈	-12347
的第	-12348
答复	-12349
肥皂	-12350
讓人	-12351
谋求	-12352
会议由	-12353
加大对	-12354
可达到	-12355
在香港	-12356
智慧和	-12357
有机肥	-12358
机械化	-12359
走出去	-12360
非金属	-12361
风景区	-12362
众生	-12363
位移	-12364
全线	-12365
决胜	-12366
唱歌	-12367
喂养	-12368
天文	-12369
序幕	-12370
德斯	-12371
油价	-12372
热火	-12373
症狀	-12374
的海	-12375
绿城	-12376
自尊	-12377
行列	-12378
震动	-12379
额外	-12380
饺子	-12381
首家	-12382
▁这样	-12383
的一点	-12384
第三次	-12385
设立了	-12386
达不到	-12387
成为一个	-12388
内分泌失调	-12389
和社会保障	-12390
一手	-12391
任教	-12392
何时	-12393
信访	-12394
停留	-12395
就连	-12396
底盘	-12397
排泄	-12398
收视	-12399
新车	-12400
明珠	-12401
的金	-12402
直升	-12403
min	-12404
▁集团	-12405
不清楚	-12406
在这些	-12407
实用性	-12408
旗下的	-12409
是多少	-12410
的空气	-12411
可以进行	-12412
数据分析	-12413
正是因为	-12414
农场	-12415
切片	-12416
各式	-12417
周一	-12418
坦言	-12419
基督	-12420
备战	-12421
展位	-12422
工况	-12423
戒烟	-12424
折扣	-12425
掀起	-12426
标本	-12427
气势	-12428
猜测	-12429
碰到	-12430
精髓	-12431
美景	-12432
茶的	-12433
达尔	-12434
间断	-12435
15%	-12436
▁服务	-12437
一辈子	-12438
其实是	-12439
同一个	-12440
电加热	-12441
皮肤上	-12442
节省了	-12443
垃圾分类	-12444
自动控制	-12445
▁|	-12446
、6	-12447
上新	-12448
也好	-12449
事業	-12450
余年	-12451
北大	-12452
协力	-12453
奥林	-12454
容纳	-12455
小便	-12456
植树	-12457
概况	-12458
死刑	-12459
版的	-12460
现货	-12461
kip	-12462
。——	-12463
工商联	-12464
构成了	-12465
热交换	-12466
红斑痣	-12467
所以我们	-12468
▁2023	-12469
一群	-12470
伤病	-12471
勒斯	-12472
双赢	-12473
可与	-12474
圣诞	-12475
坐标	-12476
坚韧	-12477
失效	-12478
室温	-12479
手臂	-12480
操控	-12481
民办	-12482
烦躁	-12483
爱护	-12484
王朝	-12485
简易	-12486
脱失	-12487
诉求	-12488
▁比赛	-12489
也无法	-12490
做出的	-12491
在过去	-12492
大理石	-12493
并不会	-12494
是一部	-12495
消化道	-12496
理论与	-12497
的优秀	-12498
聚四氟	-12499
外观设计	-12500
孩子们的	-12501
专业委员会	-12502
ontent	-12503
5,	-12504
之余	-12505
受众	-12506
宣读	-12507
延误	-12508
户口	-12509
汇率	-12510
点和	-12511
經常	-12512
繁华	-12513
纸质	-12514
较轻	-12515
送往	-12516
鞋子	-12517
▁注意	-12518
不小心	-12519
城镇化	-12520
季后赛	-12521
对方的	-12522
普通人	-12523
豆制品	-12524
还是在	-12525
▁在这种	-12526
强有力的	-12527
招商引资	-12528
做试管婴儿	-12529
我希望诸位	-12530
ct	-12531
下行	-12532
勃起	-12533
品德	-12534
当场	-12535
既要	-12536
樱桃	-12537
泉州	-12538
缠绕	-12539
而后	-12540
要将	-12541
▁3)	-12542
▁所谓	-12543
专家组	-12544
为推动	-12545
俗话说	-12546
关键是	-12547
变化的	-12548
应用的	-12549
必要时	-12550
挥发性	-12551
真的很	-12552
国际合作	-12553
本次活动	-12554
yi	-12555
下肢	-12556
事例	-12557
交锋	-12558
产教	-12559
味精	-12560
异地	-12561
提质	-12562
流浪	-12563
經驗	-12564
谈及	-12565
风暴	-12566
CEO	-12567
体育馆	-12568
区域的	-12569
灵活性	-12570
的认识	-12571
等众多	-12572
转移到	-12573
加快建设	-12574
心脑血管	-12575
本科专业	-12576
鲜红斑痣	-12577
个体工商户	-12578
▁同	-12579
万户	-12580
也曾	-12581
全资	-12582
冰糖	-12583
哈萨	-12584
国立	-12585
天生	-12586
太过	-12587
就把	-12588
彩票	-12589
昂贵	-12590
植株	-12591
樱花	-12592
欧式	-12593
止血	-12594
活着	-12595
用戶	-12596
米饭	-12597
細胞	-12598
老師	-12599
耗材	-12600
这与	-12601
集合	-12602
高地	-12603
鱼类	-12604
享受到	-12605
小时的	-12606
来实现	-12607
特斯拉	-12608
生产中	-12609
中的应用	-12610
教育基地	-12611
积极探索	-12612
联系方式	-12613
一所	-12614
假冒	-12615
克强	-12616
协定	-12617
受灾	-12618
古装	-12619
我对	-12620
所用	-12621
打下	-12622
王某	-12623
粒度	-12624
重度	-12625
钥匙	-12626
隐形	-12627
電視	-12628
准备好	-12629
投资人	-12630
而对于	-12631
令我深思	-12632
表示感谢	-12633
。2014	-12634
在一定程度上	-12635
:"	-12636
DA	-12637
乳液	-12638
凝胶	-12639
就行	-12640
挤塑	-12641
无味	-12642
最小	-12643
浇水	-12644
海参	-12645
用餐	-12646
的他	-12647
相近	-12648
管辖	-12649
维斯	-12650
进水	-12651
高手	-12652
他们会	-12653
体系的	-12654
共青团	-12655
原则上	-12656
向社会	-12657
女主角	-12658
批准后	-12659
洛杉矶	-12660
相色谱	-12661
省部级	-12662
青春期	-12663
▁2012	-12664
是怎么回事	-12665
法定代表人	-12666
3/	-12667
分別	-12668
反之	-12669
天后	-12670
或在	-12671
手持	-12672
手游	-12673
普查	-12674
水土	-12675
治病	-12676
潍坊	-12677
爵士	-12678
益气	-12679
硝酸	-12680
而定	-12681
行车	-12682
表格	-12683
雄安	-12684
-19	-12685
中加入	-12686
人死亡	-12687
你需要	-12688
全覆盖	-12689
在现场	-12690
的概念	-12691
等各个	-12692
要选择	-12693
不得超过	-12694
治疗方案	-12695
身体素质	-12696
主观	-12697
多加	-12698
宏伟	-12699
居多	-12700
德尔	-12701
的单	-12702
立志	-12703
結合	-12704
绽放	-12705
胃癌	-12706
透漏	-12707
重工	-12708
长得	-12709
任何人	-12710
收益率	-12711
的产生	-12712
项目部	-12713
就会导致	-12714
建立健全	-12715
的一个重要	-12716
中层	-12717
争吵	-12718
二年	-12719
出入	-12720
参保	-12721
可选	-12722
就可	-12723
改正	-12724
水务	-12725
沉着	-12726
纹理	-12727
花了	-12728
豪门	-12729
這是	-12730
重任	-12731
的形象	-12732
的未来	-12733
附着力	-12734
合作协议	-12735
尤为重要	-12736
科学发展	-12737
一直致力于	-12738
▁除	-12739
入职	-12740
外地	-12741
已于	-12742
广电	-12743
时会	-12744
替换	-12745
物价	-12746
皮脂	-12747
睡前	-12748
续约	-12749
行李	-12750
视察	-12751
課程	-12752
运气	-12753
食疗	-12754
23.	-12755
使命感	-12756
的刺激	-12757
的根本	-12758
讲解了	-12759
铝单板	-12760
不断加强	-12761
也要注意	-12762
全会精神	-12763
家用电器	-12764
执法人员	-12765
社会主义核心价值观	-12766
VR	-12767
▁好	-12768
▁巴	-12769
写道	-12770
农林	-12771
医嘱	-12772
嘉兴	-12773
年末	-12774
张力	-12775
成形	-12776
油水	-12777
澎湃	-12778
煤灰	-12779
紫色	-12780
红包	-12781
要看	-12782
言语	-12783
阳极	-12784
音频	-12785
one	-12786
对公司	-12787
极高的	-12788
的实际	-12789
这么多	-12790
1997	-12791
个篮板和	-12792
密切相关	-12793
ia	-12794
人之	-12795
会同	-12796
克拉	-12797
初始	-12798
录音	-12799
技工	-12800
文体	-12801
早晚	-12802
智库	-12803
本草	-12804
杠杆	-12805
查阅	-12806
血栓	-12807
首相	-12808
上世纪	-12809
也应该	-12810
人性化	-12811
冠心病	-12812
和环境	-12813
带头人	-12814
早治疗	-12815
等进行	-12816
经开区	-12817
农业大学	-12818
可以减少	-12819
可以满足	-12820
学士学位	-12821
技能人才	-12822
。)	-12823
剪切	-12824
升至	-12825
占领	-12826
卷帘	-12827
商机	-12828
央企	-12829
客房	-12830
开机	-12831
松动	-12832
清香	-12833
爱尔	-12834
街头	-12835
阻挡	-12836
飞速	-12837
餐馆	-12838
巧克力	-12839
戴口罩	-12840
的想法	-12841
风格的	-12842
全面落实	-12843
妇幼保健	-12844
重大项目	-12845
Ch	-12846
不通	-12847
亲友	-12848
你能	-12849
再加	-12850
压抑	-12851
埃及	-12852
大胜	-12853
开支	-12854
怎麼	-12855
性及	-12856
打赢	-12857
时许	-12858
是非	-12859
河道	-12860
狀況	-12861
芒果	-12862
财税	-12863
跳跃	-12864
1/4	-12865
中国家	-12866
使用者	-12867
在公司	-12868
小时候	-12869
控制的	-12870
的不断	-12871
空气能	-12872
体系认证	-12873
全心全意	-12874
给人一种	-12875
脚踏实地	-12876
认真学习	-12877
患上白癜风	-12878
ul	-12879
事先	-12880
余个	-12881
反思	-12882
多地	-12883
安东	-12884
巡回	-12885
当成	-12886
相识	-12887
维尔	-12888
行长	-12889
也开始	-12890
多层次	-12891
席会议	-12892
耐酸碱	-12893
先进水平	-12894
已经开始	-12895
高等院校	-12896
ir	-12897
代孕	-12898
准入	-12899
加装	-12900
堅持	-12901
延期	-12902
开店	-12903
排毒	-12904
揭牌	-12905
港元	-12906
罕见	-12907
脓疱	-12908
腰部	-12909
节气	-12910
▁武汉	-12911
他强调	-12912
切实把	-12913
和专业	-12914
和产品	-12915
并根据	-12916
我们有	-12917
节目中	-12918
近距离	-12919
护理工作	-12920
是我们的	-12921
疫情防控工作	-12922
解决这个问题	-12923
不做	-12924
不顺	-12925
功耗	-12926
加盖	-12927
取暖	-12928
后会	-12929
官兵	-12930
年和	-12931
得起	-12932
恋人	-12933
着色	-12934
红肿	-12935
绿水	-12936
辞职	-12937
阴性	-12938
降水	-12939
随即	-12940
骨头	-12941
9%。	-12942
单位和	-12943
如今的	-12944
较小的	-12945
配套设施	-12946
可能会出现	-12947
属于自己的	-12948
患者的病情	-12949
▁会	-12950
去的	-12951
大海	-12952
少先	-12953
巡查	-12954
打得	-12955
支队	-12956
来电	-12957
杰克	-12958
海带	-12959
眼泪	-12960
纯粹	-12961
行使	-12962
风速	-12963
▁一些	-12964
▁这次	-12965
比亚迪	-12966
的知识	-12967
鼓风机	-12968
中国大陆	-12969
始终保持	-12970
监控系统	-12971
▁会议指出	-12972
▁白癜风的	-12973
,,	-12974
CM	-12975
▁东	-12976
买家	-12977
共鸣	-12978
前瞻	-12979
卵泡	-12980
地带	-12981
平和	-12982
性欲	-12983
手里	-12984
振奋	-12985
捕捉	-12986
易爆	-12987
滨海	-12988
红的	-12989
较短	-12990
▁不要	-12991
与应用	-12992
可以吃	-12993
可以把	-12994
的保护	-12995
经营的	-12996
的比赛中	-12997
范围内的	-12998
违法违规	-12999
重点实验室	-13000
医生的指导下	-13001
7%	-13002
信托	-13003
假设	-13004
冲泡	-13005
執行	-13006
奋战	-13007
小块	-13008
成長	-13009
抓获	-13010
末端	-13011
法师	-13012
煤气	-13013
的国	-13014
维权	-13015
药业	-13016
质检	-13017
野外	-13018
香菇	-13019
▁其他	-13020
为他们	-13021
可爱的	-13022
我个人	-13023
掌握了	-13024
时间短	-13025
每句话	-13026
的代表	-13027
的好评	-13028
设置了	-13029
企业集团	-13030
刺激性的	-13031
国家战略	-13032
市场主体	-13033
很多时候	-13034
耐火材料	-13035
这不禁令我深思	-13036
名誉	-13037
哪儿	-13038
在建	-13039
悄悄	-13040
戏曲	-13041
拉德	-13042
推移	-13043
明顯	-13044
机理	-13045
欧宝	-13046
準備	-13047
當然	-13048
紧跟	-13049
胃酸	-13050
脸部	-13051
藥物	-13052
蜂窝	-13053
金的	-13054
麦克	-13055
VOC	-13056
慢慢的	-13057
新一届	-13058
的关注	-13059
盆腔炎	-13060
要做到	-13061
预处理	-13062
马拉松	-13063
文化产业	-13064
意见和建议	-13065
co	-13066
一无	-13067
之忧	-13068
兩人	-13069
扁平	-13070
折磨	-13071
暑假	-13072
票据	-13073
祭祀	-13074
较量	-13075
里克	-13076
阵阵	-13077
阿姨	-13078
365	-13079
低成本	-13080
加工的	-13081
可有效	-13082
和经济	-13083
和要求	-13084
新篇章	-13085
实事求是	-13086
自己说的	-13087
nm	-13088
▁注	-13089
亲情	-13090
修剪	-13091
八大	-13092
养分	-13093
在第	-13094
声称	-13095
教导	-13096
松弛	-13097
流出	-13098
测评	-13099
瓦楞	-13100
碳钢	-13101
笑着	-13102
错失	-13103
▁上述	-13104
他人的	-13105
开发商	-13106
物料的	-13107
统一到	-13108
营养素	-13109
宣传教育	-13110
知名企业	-13111
系列活动	-13112
聚四氟乙烯	-13113
▁花	-13114
修行	-13115
原告	-13116
又不	-13117
店面	-13118
業務	-13119
永磁	-13120
沉默	-13121
空军	-13122
简要	-13123
纽带	-13124
长途	-13125
及其它	-13126
后遗症	-13127
奥斯卡	-13128
无纺布	-13129
是不会	-13130
的吸收	-13131
美术馆	-13132
1600	-13133
只是一个	-13134
园林绿化	-13135
市场经济	-13136
聚氯乙烯	-13137
进行处理	-13138
重点工作	-13139
6%	-13140
ww	-13141
▁被	-13142
一举	-13143
专线	-13144
中海	-13145
保洁	-13146
協助	-13147
契合	-13148
年是	-13149
引用	-13150
接纳	-13151
而易	-13152
西洋	-13153
超强	-13154
迅猛	-13155
进来	-13156
道歉	-13157
AAA	-13158
几年来	-13159
然后用	-13160
的部位	-13161
等原因	-13162
实体经济	-13163
文化建设	-13164
穆里尼奥	-13165
管理模式	-13166
职业学院	-13167
产品的质量	-13168
乾隆	-13169
储罐	-13170
出新	-13171
分明	-13172
急诊	-13173
接觸	-13174
数的	-13175
暂行	-13176
水池	-13177
纯度	-13178
难忘	-13179
25.	-13180
不少人	-13181
分布式	-13182
南京市	-13183
和历史	-13184
的照片	-13185
————	-13186
▁12、	-13187
会议精神	-13188
安全事故	-13189
市委书记	-13190
部副部长	-13191
具有很好的	-13192
在这种情况下	-13193
xx	-13194
一本	-13195
一根	-13196
义乌	-13197
八一	-13198
前途	-13199
头上	-13200
故宫	-13201
斗志	-13202
春风	-13203
清朝	-13204
牙膏	-13205
自古	-13206
蕴含	-13207
配音	-13208
▁02	-13209
▁既然	-13210
他认为	-13211
发表了	-13212
工程质量	-13213
消化不良	-13214
激光打标	-13215
税务总局	-13216
艰苦奋斗	-13217
SA	-13218
▁l	-13219
》;	-13220
一股	-13221
他会	-13222
佳绩	-13223
时常	-13224
样式	-13225
灾区	-13226
诸葛	-13227
院的	-13228
食管	-13229
黄体	-13230
▁做法	-13231
与我们	-13232
元左右	-13233
加工厂	-13234
太大的	-13235
年龄段	-13236
热镀锌	-13237
科学历	-13238
红十字	-13239
运动的	-13240
▁什么是	-13241
加工中心	-13242
商业模式	-13243
智能手机	-13244
科研机构	-13245
白癜风医院的	-13246
DC	-13247
LO	-13248
XX	-13249
▁明	-13250
从不	-13251
任命	-13252
促進	-13253
填埋	-13254
士尼	-13255
大风	-13256
宜居	-13257
左脚	-13258
批复	-13259
推動	-13260
板和	-13261
楼宇	-13262
研判	-13263
科协	-13264
货车	-13265
越位	-13266
一下子	-13267
与企业	-13268
也十分	-13269
扁桃体	-13270
的感情	-13271
知道了	-13272
交通便利	-13273
发展方向	-13274
更多的人	-13275
生活质量	-13276
一起来看看吧	-13277
▁罗	-13278
千克	-13279
卡尔	-13280
基准	-13281
对策	-13282
恰当	-13283
摄制	-13284
消灭	-13285
离合	-13286
花钱	-13287
荷载	-13288
诱惑	-13289
起源	-13290
过低	-13291
▁世界	-13292
▁没有	-13293
不是一	-13294
但他们	-13295
地进行	-13296
工程院	-13297
旅行社	-13298
污染的	-13299
生产力	-13300
的女人	-13301
真实性	-13302
通知书	-13303
加工设备	-13304
怀孕期间	-13305
示范基地	-13306
设计方案	-13307
坚实的基础	-13308
▁德	-13309
】:	-13310
做为	-13311
几百	-13312
品位	-13313
固然	-13314
子等	-13315
尼克	-13316
岩棉	-13317
带走	-13318
惊讶	-13319
揭示	-13320
渔业	-13321
疾控	-13322
笔试	-13323
耐酸	-13324
通畅	-13325
预订	-13326
2%。	-13327
zui	-13328
》:“	-13329
应避免	-13330
的美好	-13331
迪士尼	-13332
问题时	-13333
1996	-13334
但是如果	-13335
创造价值	-13336
呼吸困难	-13337
学科建设	-13338
结果显示	-13339
自己说的每句话	-13340
HD	-13341
侧重	-13342
冻结	-13343
卡通	-13344
沉降	-13345
法和	-13346
炎热	-13347
盆地	-13348
红薯	-13349
能效	-13350
调配	-13351
”。“	-13352
在整个	-13353
据统计	-13354
政策和	-13355
红色的	-13356
专业人士	-13357
医疗设备	-13358
各族人民	-13359
正常使用	-13360
注册商标	-13361
先进的生产	-13362
患者在治疗	-13363
不败	-13364
保證	-13365
城县	-13366
找准	-13367
晋升	-13368
烧结	-13369
珠江	-13370
而知	-13371
苏联	-13372
视线	-13373
食盐	-13374
也表示	-13375
了起来	-13376
决定的	-13377
凭借着	-13378
来选择	-13379
▁银屑病	-13380
主要生产	-13381
分钟左右	-13382
总部位于	-13383
觉得自己	-13384
▁黑	-13385
一眼	-13386
升学	-13387
反响	-13388
名校	-13389
哥伦	-13390
天内	-13391
尊敬	-13392
岁时	-13393
巨星	-13394
干旱	-13395
手足	-13396
操纵	-13397
机油	-13398
桥架	-13399
棉花	-13400
爆竹	-13401
直言	-13402
管件	-13403
紧扣	-13404
表率	-13405
见效	-13406
订购	-13407
風險	-13408
,30	-13409
与环境	-13410
主办方	-13411
熟悉的	-13412
的特殊	-13413
要求和	-13414
实训基地	-13415
有自己的	-13416
需要如何	-13417
之间的关系	-13418
▁content	-13419
PD	-13420
ob	-13421
丰田	-13422
交货	-13423
凝固	-13424
卡车	-13425
双面	-13426
喷漆	-13427
州的	-13428
悲观	-13429
接力	-13430
搭档	-13431
文凭	-13432
消声	-13433
蝴蝶	-13434
调料	-13435
问责	-13436
音樂	-13437
首度	-13438
创造出	-13439
发挥着	-13440
寄生虫	-13441
想知道	-13442
持之以	-13443
有帮助	-13444
率达到	-13445
目标是	-13446
食用油	-13447
绝大部分	-13448
胜利召开	-13449
迄今为止	-13450
▁朱	-13451
上半	-13452
久的	-13453
今晚	-13454
含金	-13455
多万	-13456
大肠	-13457
将从	-13458
就此	-13459
布莱	-13460
李某	-13461
柏林	-13462
水解	-13463
狠抓	-13464
病史	-13465
看完	-13466
花开	-13467
适时	-13468
防冻	-13469
马逊	-13470
默契	-13471
▁医院	-13472
内部的	-13473
创新型	-13474
在阳光	-13475
液位计	-13476
规划和	-13477
三个方面	-13478
对我们的	-13479
组织实施	-13480
移动互联网	-13481
随着时间的	-13482
低迷	-13483
作的	-13484
凝结	-13485
发文	-13486
叠加	-13487
子孙	-13488
安保	-13489
无愧	-13490
杀人	-13491
涨价	-13492
电位	-13493
變化	-13494
”——	-13495
▁而在	-13496
关键的	-13497
委員會	-13498
并获得	-13499
拿到了	-13500
月以来	-13501
氢氧化	-13502
确定的	-13503
食物的	-13504
科研项目	-13505
聚合氯化铝	-13506
不准	-13507
便会	-13508
唐代	-13509
大宗	-13510
天赋	-13511
平滑	-13512
抵御	-13513
收回	-13514
燃煤	-13515
特的	-13516
猫咪	-13517
白蚁	-13518
致命	-13519
见过	-13520
赞扬	-13521
路的	-13522
雇主	-13523
,18	-13524
▁18	-13525
但我们	-13526
大城市	-13527
对孩子	-13528
强企业	-13529
情况的	-13530
生活和	-13531
饮食上	-13532
科学管理	-13533
精神状态	-13534
▁先	-13535
乌龙	-13536
写的	-13537
办案	-13538
名家	-13539
快餐	-13540
打动	-13541
母校	-13542
独家	-13543
衷心	-13544
附睾	-13545
450	-13546
与传统	-13547
同行业	-13548
和各种	-13549
团队的	-13550
将通过	-13551
局限性	-13552
是不可	-13553
显微镜	-13554
的人工	-13555
公司产品	-13556
在自己的	-13557
完全恢复	-13558
意识形态	-13559
▁Skip	-13560
主要负责人	-13561
柴油发电机组	-13562
NO	-13563
一點	-13564
交手	-13565
体汇	-13566
出让	-13567
因地	-13568
对着	-13569
常有	-13570
月末	-13571
机在	-13572
机型	-13573
盛会	-13574
眼的	-13575
类等	-13576
结实	-13577
說明	-13578
错了	-13579
▁近期	-13580
为学生	-13581
克里斯	-13582
情况和	-13583
放射性	-13584
西安市	-13585
让学生	-13586
多特蒙德	-13587
消化吸收	-13588
职能部门	-13589
资源优势	-13590
中国有限公司	-13591
。6	-13592
三峡	-13593
不难	-13594
不需	-13595
保级	-13596
前身	-13597
和非	-13598
器具	-13599
大了	-13600
战线	-13601
抽搐	-13602
更低	-13603
比拟	-13604
班的	-13605
端正	-13606
纸板	-13607
网格	-13608
网的	-13609
聘用	-13610
闭幕	-13611
鱼鳞	-13612
以避免	-13613
体现出	-13614
其中有	-13615
创建于	-13616
制造的	-13617
加盟店	-13618
双眼皮	-13619
宫颈癌	-13620
管理等	-13621
身边的	-13622
这方面	-13623
二次污染	-13624
全面贯彻	-13625
尽量不要	-13626
扎实推进	-13627
法律服务	-13628
研究报告	-13629
结构紧凑	-13630
▁值得一提的是	-13631
8%	-13632
中也	-13633
之星	-13634
億元	-13635
开办	-13636
拯救	-13637
时长	-13638
有意	-13639
热力	-13640
监视	-13641
要去	-13642
震惊	-13643
和设备	-13644
探测器	-13645
日常的	-13646
指导意见	-13647
精神文明	-13648
工业机器人	-13649
我希望诸位也能好好地体会这句话	-13650
01	-13651
▁后	-13652
中说	-13653
做过	-13654
全院	-13655
发于	-13656
名叫	-13657
国学	-13658
图文	-13659
妨碍	-13660
字母	-13661
尊严	-13662
是中	-13663
普京	-13664
普惠	-13665
最长	-13666
機關	-13667
注定	-13668
盖帽	-13669
腰椎	-13670
该片	-13671
音响	-13672
▁不同	-13673
件事情	-13674
区域内	-13675
十九大	-13676
可导致	-13677
在自己	-13678
宝宝的	-13679
有两种	-13680
的动力	-13681
记忆力	-13682
世界各国	-13683
为了避免	-13684
积极推进	-13685
蓬勃发展	-13686
追求卓越	-13687
上百	-13688
乘车	-13689
公章	-13690
圆柱	-13691
宁市	-13692
屏蔽	-13693
座位	-13694
智利	-13695
汽車	-13696
浦东	-13697
清廉	-13698
澄清	-13699
秸秆	-13700
胶体	-13701
表扬	-13702
难得	-13703
和相关	-13704
差异化	-13705
应用在	-13706
性能的	-13707
摄像头	-13708
日正式	-13709
漂亮的	-13710
的个人	-13711
目前在	-13712
都具有	-13713
健康成长	-13714
工业协会	-13715
座谈会上	-13716
科技企业	-13717
TC	-13718
▁受	-13719
党走	-13720
六十	-13721
副本	-13722
天猫	-13723
异物	-13724
无偿	-13725
氮化	-13726
理学	-13727
腌制	-13728
邻居	-13729
阴影	-13730
7.5	-13731
不建议	-13732
参与者	-13733
可以是	-13734
可作为	-13735
大大的	-13736
无意间	-13737
是一场	-13738
的状况	-13739
的道路	-13740
等项目	-13741
艺术品	-13742
上下功夫	-13743
在工作中	-13744
威尼斯人	-13745
持之以恒	-13746
毕业证书	-13747
现代社会	-13748
生产车间	-13749
疫情影响	-13750
等领域的	-13751
越来越多的人	-13752
了吧	-13753
但仍	-13754
受力	-13755
史密	-13756
名师	-13757
在乎	-13758
悟空	-13759
斑点	-13760
欺诈	-13761
生根	-13762
知情	-13763
耐寒	-13764
航母	-13765
花纹	-13766
适中	-13767
24.	-13768
为建设	-13769
类药物	-13770
而来的	-13771
能满足	-13772
舒适的	-13773
万元以上	-13774
中心主任	-13775
也有很多	-13776
体制机制	-13777
全方位的	-13778
国际市场	-13779
性阴道炎	-13780
教育培训	-13781
▁公司拥有	-13782
Hz	-13783
▁文	-13784
一丝	-13785
一首	-13786
世人	-13787
众人	-13788
喷泉	-13789
封建	-13790
昂扬	-13791
演員	-13792
航运	-13793
衛生	-13794
装有	-13795
轨迹	-13796
不动产	-13797
和方法	-13798
新媒体	-13799
的音乐	-13800
纺织品	-13801
让观众	-13802
那么多	-13803
坚实基础	-13804
对于一些	-13805
市场规模	-13806
生产过程	-13807
综合利用	-13808
软件开发	-13809
黑素细胞	-13810
▁除此之外	-13811
严苛	-13812
为一	-13813
为他	-13814
久之	-13815
保湿	-13816
加息	-13817
外来	-13818
得不	-13819
得更	-13820
抽象	-13821
指责	-13822
换人	-13823
欧联	-13824
热潮	-13825
考慮	-13826
赞赏	-13827
辩护	-13828
万千瓦	-13829
不再是	-13830
分钟内	-13831
投融资	-13832
朋友的	-13833
管理部	-13834
会影响到	-13835
发展前景	-13836
工业设计	-13837
住房和城乡建设	-13838
▁单	-13839
下水	-13840
余篇	-13841
制宜	-13842
刷牙	-13843
前场	-13844
十佳	-13845
奖杯	-13846
女单	-13847
无忧	-13848
爱上	-13849
疏散	-13850
稿件	-13851
签名	-13852
而异	-13853
誓词	-13854
迈向	-13855
高雅	-13856
ine	-13857
中科院	-13858
却没有	-13859
女人的	-13860
得到的	-13861
适合于	-13862
所产生的	-13863
技术开发	-13864
更大贡献	-13865
有害气体	-13866
有机溶剂	-13867
部分组成	-13868
食品药品	-13869
主要是因为	-13870
进行了深入	-13871
▁曾	-13872
下雨	-13873
主线	-13874
便民	-13875
加湿	-13876
司令	-13877
地去	-13878
少儿	-13879
师德	-13880
得名	-13881
心思	-13882
惊艳	-13883
水流	-13884
煮熟	-13885
电荷	-13886
百货	-13887
盛宴	-13888
耕地	-13889
选型	-13890
逐一	-13891
阻尼	-13892
严重时	-13893
保质期	-13894
功能和	-13895
加入了	-13896
民主党	-13897
的特色	-13898
科技的	-13899
随时随	-13900
中国市场	-13901
商标注册	-13902
文化交流	-13903
新闻发布会	-13904
足球俱乐部	-13905
下车	-13906
中止	-13907
人情	-13908
克难	-13909
全队	-13910
卫冕	-13911
句子	-13912
好吃	-13913
应邀	-13914
校准	-13915
淡的	-13916
王国	-13917
用法	-13918
脊柱	-13919
这让	-13920
運輸	-13921
體驗	-13922
8%。	-13923
不作为	-13924
主办的	-13925
全球化	-13926
可能的	-13927
处理后	-13928
的认可	-13929
网络上	-13930
配备了	-13931
信息服务	-13932
化学成分	-13933
采用的是	-13934
因素的影响	-13935
!!	-13936
一遍	-13937
也叫	-13938
光大	-13939
喝茶	-13940
埃尔	-13941
手上	-13942
拆迁	-13943
数目	-13944
整天	-13945
整顿	-13946
的神	-13947
花朵	-13948
送给	-13949
酿酒	-13950
降到	-13951
▁患者	-13952
严重者	-13953
也成为	-13954
深层次	-13955
要避免	-13956
不断增加	-13957
光伏发电	-13958
管理水平	-13959
违法犯罪	-13960
为大家介绍	-13961
可再生能源	-13962
新发展理念	-13963
实现中华民族伟大复兴	-13964
3。	-13965
一事	-13966
其后	-13967
内斯	-13968
募集	-13969
单项	-13970
拥护	-13971
撕裂	-13972
整體	-13973
日晒	-13974
月起	-13975
板等	-13976
编号	-13977
缝隙	-13978
评议	-13979
车祸	-13980
预赛	-13981
马刺	-13982
为目的	-13983
倍以上	-13984
创造力	-13985
只是在	-13986
大会上	-13987
工程中	-13988
技术及	-13989
类似的	-13990
系统性	-13991
综合体	-13992
观看了	-13993
集中于	-13994
工作环境	-13995
的安全性	-13996
高级职称	-13997
刺激性食物	-13998
疾病的治疗	-13999
”:	-14000
▁f	-14001
▁s	-14002
人居	-14003
充沛	-14004
北海	-14005
复旦	-14006
山上	-14007
序列	-14008
恐慌	-14009
息息	-14010
朗诵	-14011
校内	-14012
欺骗	-14013
火山	-14014
熔融	-14015
甘油	-14016
答辩	-14017
美学	-14018
聯合	-14019
试行	-14020
过剩	-14021
▁编辑	-14022
卫生部	-14023
各领域	-14024
和控制	-14025
室内的	-14026
希望对	-14027
最好是	-14028
矿泉水	-14029
舞台上	-14030
????	-14031
▁新华社	-14032
广大客户	-14033
怎么样的	-14034
或者其他	-14035
方便快捷	-14036
非常简单	-14037
▁2011	-14038
一中	-14039
两类	-14040
中风	-14041
仿古	-14042
侵袭	-14043
元宵	-14044
剧场	-14045
变换	-14046
地在	-14047
學院	-14048
快船	-14049
总共	-14050
才可	-14051
洗礼	-14052
率达	-14053
甲烷	-14054
社區	-14055
肝肾	-14056
西门	-14057
违背	-14058
静静	-14059
马竞	-14060
上下游	-14061
代理人	-14062
命中率	-14063
回到了	-14064
战斗力	-14065
的理解	-14066
赛场上	-14067
世界经济	-14068
型牛皮癣	-14069
质量管理体系认证	-14070
为国	-14071
主播	-14072
伤心	-14073
偏低	-14074
出來	-14075
出货	-14076
包茎	-14077
容貌	-14078
尔夫	-14079
归属	-14080
播映	-14081
无菌	-14082
杀虫	-14083
母婴	-14084
洋葱	-14085
结肠	-14086
而有	-14087
骨髓	-14088
什么呢	-14089
凯尔特	-14090
实实在	-14091
才知道	-14092
打造的	-14093
教师的	-14094
机构和	-14095
求发展	-14096
的高速	-14097
都不是	-14098
刑事责任	-14099
医院治疗	-14100
建筑物的	-14101
获得国家	-14102
工程专业承包	-14103
令营	-14104
售前	-14105
壽命	-14106
大同	-14107
大笑	-14108
射击	-14109
對方	-14110
床位	-14111
抉择	-14112
滋润	-14113
灵感	-14114
箱体	-14115
篮网	-14116
綜合	-14117
致以	-14118
花岗	-14119
越是	-14120
选址	-14121
阐释	-14122
齐心	-14123
今后的	-14124
玩游戏	-14125
的权利	-14126
粉煤灰	-14127
膜结构	-14128
除尘器	-14129
产教融合	-14130
疾病的发生	-14131
食品添加剂	-14132
nd	-14133
▁十	-14134
中西	-14135
互惠	-14136
人参	-14137
光亮	-14138
半径	-14139
南山	-14140
去皮	-14141
地基	-14142
她是	-14143
徐州	-14144
恪守	-14145
春晚	-14146
油菜	-14147
相待	-14148
缺口	-14149
羡慕	-14150
车库	-14151
黄豆	-14152
与社会	-14153
丙烯酸	-14154
传达了	-14155
制冷剂	-14156
天然的	-14157
家人的	-14158
建设中	-14159
很高兴	-14160
第十三	-14161
也越来越	-14162
相关工作	-14163
不齐	-14164
付费	-14165
地将	-14166
头条	-14167
室的	-14168
富贵	-14169
新品	-14170
本期	-14171
滿足	-14172
特区	-14173
特效	-14174
纳斯	-14175
越小	-14176
轻型	-14177
长年	-14178
马丁	-14179
鼻腔	-14180
供给侧	-14181
增长了	-14182
显著的	-14183
的高级	-14184
临床医学	-14185
公共交通	-14186
相互作用	-14187
系统集成	-14188
技术的发展	-14189
铝合金门窗	-14190
一键	-14191
下班	-14192
产出	-14193
低调	-14194
回了	-14195
宣誓	-14196
月子	-14197
标的	-14198
注明	-14199
测绘	-14200
男方	-14201
盐酸	-14202
舉辦	-14203
词汇	-14204
跟进	-14205
过早	-14206
▁汽车	-14207
之类的	-14208
会选择	-14209
具有高	-14210
对我的	-14211
成长为	-14212
的施工	-14213
责任心	-14214
品牌建设	-14215
随着年龄	-14216
办公室主任	-14217
05	-14218
、8	-14219
与众	-14220
事发	-14221
交汇	-14222
侧面	-14223
六年	-14224
已达	-14225
应变	-14226
扬州	-14227
教务	-14228
求助	-14229
糯米	-14230
考量	-14231
預防	-14232
▁三是	-14233
不平衡	-14234
标志性	-14235
确保了	-14236
第十二	-14237
艺术的	-14238
问题上	-14239
坚持不懈	-14240
符合国家	-14241
▁★	-14242
上岗	-14243
临近	-14244
久了	-14245
人們	-14246
出土	-14247
均在	-14248
复查	-14249
大臣	-14250
年到	-14251
德勒	-14252
整個	-14253
梦之	-14254
源自	-14255
瑜伽	-14256
画的	-14257
直销	-14258
蚂蚁	-14259
赛道	-14260
送来	-14261
首饰	-14262
:1.	-14263
不仅有	-14264
人体内	-14265
当前和	-14266
支队伍	-14267
的业务	-14268
的局面	-14269
跟党走	-14270
阳离子	-14271
阴离子	-14272
世界第一	-14273
中央企业	-14274
也是比较	-14275
小微企业	-14276
式起重机	-14277
最好不要	-14278
理论学习	-14279
质量稳定	-14280
生产过程中	-14281
白癜风是一种	-14282
4:	-14283
ps	-14284
▁U	-14285
一夜	-14286
不治	-14287
公式	-14288
周六	-14289
庞大	-14290
户型	-14291
换代	-14292
确切	-14293
职教	-14294
说说	-14295
则需要	-14296
包含了	-14297
可以对	-14298
温度和	-14299
的地区	-14300
离退休	-14301
以上就是	-14302
工作原理	-14303
竞争优势	-14304
维护保养	-14305
並且	-14306
切忌	-14307
匠心	-14308
可调	-14309
司长	-14310
尼黑	-14311
建功	-14312
恐龙	-14313
有三	-14314
本病	-14315
柚子	-14316
比喻	-14317
火龙	-14318
界限	-14319
纯净	-14320
药店	-14321
车载	-14322
轻工	-14323
阴凉	-14324
,15	-14325
体育局	-14326
即使在	-14327
新局面	-14328
的实施	-14329
的语言	-14330
進一步	-14331
,2013	-14332
人们的生活	-14333
进一步增强	-14334
质量管理体系	-14335
▁郭	-14336
不让	-14337
做梦	-14338
即是	-14339
围栏	-14340
帶來	-14341
应战	-14342
总分	-14343
点赞	-14344
男士	-14345
融洽	-14346
议会	-14347
转运	-14348
采光	-14349
雷霆	-14350
▁总结	-14351
不仅在	-14352
学生会	-14353
慕尼黑	-14354
成员国	-14355
有以下	-14356
椭圆形	-14357
碳中和	-14358
粘合剂	-14359
视网膜	-14360
都应该	-14361
不良影响	-14362
严格要求	-14363
也会导致	-14364
初心使命	-14365
工作压力	-14366
帮助企业	-14367
落到实处	-14368
ut	-14369
上方	-14370
两周	-14371
争相	-14372
二的	-14373
压铸	-14374
名胜	-14375
在场	-14376
好多	-14377
崇尚	-14378
恶意	-14379
成才	-14380
抗拉	-14381
攀升	-14382
料酒	-14383
火炬	-14384
状的	-14385
着急	-14386
脖子	-14387
蜘蛛	-14388
要高	-14389
起名	-14390
钢制	-14391
铭记	-14392
1%。	-14393
一个小	-14394
做此梦	-14395
出来了	-14396
土工布	-14397
处罚金	-14398
引发的	-14399
怎么做	-14400
抓住了	-14401
投资的	-14402
方方面	-14403
管理与	-14404
经常会	-14405
还可能	-14406
这不是	-14407
也有一些	-14408
作为中国	-14409
告诉我们	-14410
如果你想	-14411
深刻领会	-14412
美好生活	-14413
▁d	-14414
但对	-14415
反感	-14416
報告	-14417
娛樂	-14418
就近	-14419
尼尔	-14420
尿频	-14421
往年	-14422
很差	-14423
承建	-14424
抵制	-14425
拿起	-14426
权限	-14427
歡迎	-14428
盗窃	-14429
粘性	-14430
网球	-14431
致敬	-14432
薪资	-14433
议题	-14434
设在	-14435
越长	-14436
这在	-14437
退税	-14438
105	-14439
也因此	-14440
可谓是	-14441
吃一些	-14442
奥林匹	-14443
小伙伴	-14444
开放式	-14445
投标人	-14446
政府和	-14447
的任务	-14448
要提高	-14449
还是很	-14450
需求量	-14451
不懈努力	-14452
情况进行	-14453
经济技术	-14454
胶原蛋白	-14455
被认为是	-14456
不错的选择	-14457
集团董事长	-14458
多个国家和地区	-14459
MS	-14460
之作	-14461
体能	-14462
内壁	-14463
出身	-14464
助听	-14465
司马	-14466
吐槽	-14467
学史	-14468
富汗	-14469
未必	-14470
杀灭	-14471
東西	-14472
消肿	-14473
無論	-14474
献策	-14475
疏通	-14476
省会	-14477
答应	-14478
门类	-14479
难过	-14480
6.5	-14481
▁用于	-14482
实施的	-14483
岁以上	-14484
忍不住	-14485
新型的	-14486
的决心	-14487
管道的	-14488
集团在	-14489
预选赛	-14490
三分之一	-14491
八项规定	-14492
制造企业	-14493
所带来的	-14494
营养丰富	-14495
颁奖典礼	-14496
领先地位	-14497
微信小程序	-14498
为消费者提供	-14499
04	-14500
2/	-14501
兼具	-14502
女王	-14503
巧合	-14504
并用	-14505
开封	-14506
张某	-14507
煮沸	-14508
登山	-14509
罗伯	-14510
自在	-14511
豆瓣	-14512
越來	-14513
车上	-14514
风量	-14515
CBA	-14516
ess	-14517
党工委	-14518
即便是	-14519
在校生	-14520
引发了	-14521
打破了	-14522
硅橡胶	-14523
签订了	-14524
设计中	-14525
资源和	-14526
还含有	-14527
颜色的	-14528
▁多年来	-14529
产业的发展	-14530
新型冠状病毒	-14531
一起来了解一下	-14532
-6	-14533
9%	-14534
ie	-14535
▁泰	-14536
乳酸	-14537
冬瓜	-14538
冰冰	-14539
单个	-14540
大全	-14541
对流	-14542
建築	-14543
得天	-14544
打响	-14545
根治	-14546
江区	-14547
纠葛	-14548
绝望	-14549
药性	-14550
行動	-14551
诚挚	-14552
销往	-14553
黑白	-14554
、20	-14555
不道德	-14556
含金量	-14557
固化剂	-14558
女性在	-14559
效果的	-14560
让用户	-14561
青年人	-14562
多方面的	-14563
年上半年	-14564
预防措施	-14565
▁Q	-14566
▁孙	-14567
▁宋	-14568
一小	-14569
一角	-14570
上榜	-14571
二度	-14572
命题	-14573
在天	-14574
大类	-14575
奋勇	-14576
录制	-14577
施加	-14578
每当	-14579
特意	-14580
肥大	-14581
苦瓜	-14582
表决	-14583
0.6	-14584
2-1	-14585
▁当天	-14586
不及时	-14587
剩下的	-14588
处处长	-14589
更加多	-14590
温度的	-14591
科技部	-14592
第二届	-14593
联赛的	-14594
银行业	-14595
客户服务	-14596
把自己的	-14597
春节期间	-14598
温室大棚	-14599
监督检查	-14600
这种方式	-14601
nb	-14602
▁苏	-14603
上腺	-14604
侵略	-14605
光洁	-14606
兰花	-14607
后代	-14608
回流	-14609
回避	-14610
康熙	-14611
当晚	-14612
往返	-14613
得手	-14614
棕色	-14615
淡水	-14616
現代	-14617
生津	-14618
空心	-14619
素有	-14620
给水	-14621
醒来	-14622
钢的	-14623
。4、	-14624
几十年	-14625
发展为	-14626
少量的	-14627
抗老化	-14628
早期的	-14629
是一所	-14630
有能力	-14631
独有的	-14632
的办学	-14633
的大量	-14634
那时候	-14635
都有着	-14636
阻燃剂	-14637
不会出现	-14638
临床表现	-14639
为什么要	-14640
优良传统	-14641
好自己的	-14642
引人注目	-14643
能够满足	-14644
06	-14645
cc	-14646
ng	-14647
价廉	-14648
刀片	-14649
单体	-14650
多孔	-14651
失信	-14652
宣言	-14653
展馆	-14654
故乡	-14655
未知	-14656
格尔	-14657
桌椅	-14658
气和	-14659
海尔	-14660
电图	-14661
菠萝	-14662
事件的	-14663
周围的	-14664
如果说	-14665
小规模	-14666
少年的	-14667
患上了	-14668
男人的	-14669
的伟大	-14670
说明了	-14671
问题和	-14672
食品的	-14673
1995	-14674
个性化的	-14675
全球经济	-14676
可以起到	-14677
如果患者	-14678
思想和行动	-14679
患者一定要	-14680
采访时表示	-14681
▁白癜风患者	-14682
以下有期徒刑	-14683
▁唐	-14684
三代	-14685
三项	-14686
上限	-14687
不畅	-14688
城的	-14689
妇联	-14690
定为	-14691
带入	-14692
常住	-14693
弥漫	-14694
得太	-14695
接线	-14696
攻门	-14697
枕头	-14698
磨练	-14699
禁毒	-14700
素材	-14701
臺灣	-14702
讲师	-14703
阴虚	-14704
面膜	-14705
黑豆	-14706
▁南京	-14707
▁广东	-14708
为依托	-14709
分辨率	-14710
卫健委	-14711
及各种	-14712
年轻的	-14713
记者从	-14714
遇到的	-14715
1993	-14716
不会产生	-14717
为代表的	-14718
力学性能	-14719
大家可以	-14720
室内空气	-14721
紧密结合	-14722
IV	-14723
▁斯	-14724
一千	-14725
但从	-14726
体型	-14727
全胜	-14728
县域	-14729
同名	-14730
太太	-14731
年华	-14732
秒钟	-14733
纵向	-14734
联想	-14735
视听	-14736
转身	-14737
进化	-14738
飞跃	-14739
▁15	-14740
▁游戏	-14741
亚马逊	-14742
但对于	-14743
加盟商	-14744
含量高	-14745
有多种	-14746
波纹管	-14747
第二大	-14748
第二轮	-14749
老同志	-14750
是最好的	-14751
生产总值	-14752
相关规定	-14753
精神因素	-14754
音乐学院	-14755
CR	-14756
IF	-14757
产于	-14758
产销	-14759
先将	-14760
呵护	-14761
商人	-14762
回想	-14763
奔跑	-14764
密性	-14765
山大	-14766
平日	-14767
底层	-14768
座椅	-14769
把手	-14770
最終	-14771
渤海	-14772
画册	-14773
科大	-14774
米尔	-14775
精制	-14776
而这	-14777
还与	-14778
重力	-14779
颠覆	-14780
传染性	-14781
生产商	-14782
的措施	-14783
经济体	-14784
维护和	-14785
这个人	-14786
阐述了	-14787
协同发展	-14788
广大用户	-14789
聚苯乙烯	-14790
pa	-14791
▁古	-14792
下次	-14793
他将	-14794
估算	-14795
公分	-14796
兴旺	-14797
发了	-14798
变异	-14799
四处	-14800
房的	-14801
无色	-14802
时至	-14803
曲张	-14804
會議	-14805
月在	-14806
此刻	-14807
渗漏	-14808
湿疣	-14809
赌博	-14810
较早	-14811
關注	-14812
高位	-14813
211	-14814
ers	-14815
为患者	-14816
代表性	-14817
和健康	-14818
处理器	-14819
市政协	-14820
开发出	-14821
胰岛素	-14822
都无法	-14823
压缩空气	-14824
在市场上	-14825
疫情期间	-14826
造成伤害	-14827
党的十八大以来	-14828
三四	-14829
不畏	-14830
不觉	-14831
借此	-14832
制止	-14833
团伙	-14834
多重	-14835
威海	-14836
就餐	-14837
站长	-14838
莱万	-14839
迁移	-14840
▁了解	-14841
▁昨天	-14842
两人的	-14843
地下水	-14844
孩子在	-14845
所以要	-14846
早发现	-14847
然后将	-14848
的人民	-14849
能达到	-14850
50%,	-14851
市委常委	-14852
很长时间	-14853
考试科目	-14854
自由贸易	-14855
艺术学院	-14856
负面影响	-14857
(3	-14858
GS	-14859
也应	-14860
剥离	-14861
吊顶	-14862
孔隙	-14863
并无	-14864
彼得	-14865
恰恰	-14866
或将	-14867
护照	-14868
推射	-14869
楼盘	-14870
演示	-14871
的发	-14872
相较	-14873
紫砂	-14874
详尽	-14875
追逐	-14876
那不	-14877
降幅	-14878
高山	-14879
麻辣	-14880
▁无论	-14881
中使用	-14882
也有人	-14883
及服务	-14884
女演员	-14885
开发和	-14886
构成的	-14887
淋漓尽	-14888
珍贵的	-14889
的网络	-14890
的趋势	-14891
进程中	-14892
音乐会	-14893
黑芝麻	-14894
1300	-14895
一个非常	-14896
不用担心	-14897
专业人员	-14898
健康安全	-14899
参赛选手	-14900
因为它是	-14901
大力推进	-14902
更多的是	-14903
节约能源	-14904
及以上学历	-14905
一種	-14906
上港	-14907
仍将	-14908
削减	-14909
区位	-14910
区内	-14911
双边	-14912
因人	-14913
失衡	-14914
就很	-14915
年輕	-14916
戴着	-14917
滋养	-14918
玩笑	-14919
答题	-14920
老家	-14921
跨界	-14922
这点	-14923
为我国	-14924
作品的	-14925
停留在	-14926
在其中	-14927
并具有	-14928
本专业	-14929
要强化	-14930
培训基地	-14931
塑料制品	-14932
开工建设	-14933
毛细血管	-14934
丰厚	-14935
光度	-14936
地利	-14937
影子	-14938
托管	-14939
持平	-14940
杀手	-14941
条约	-14942
来做	-14943
板上	-14944
男主	-14945
眼部	-14946
肺部	-14947
腿部	-14948
衰弱	-14949
言行	-14950
金斯	-14951
也是有	-14952
亿元的	-14953
史密斯	-14954
在不同	-14955
在购买	-14956
大家对	-14957
报告中	-14958
有任何	-14959
的实力	-14960
顾之忧	-14961
讲话精神	-14962
da	-14963
一堂	-14964
不时	-14965
丝毫	-14966
久而	-14967
作法	-14968
分校	-14969
右手	-14970
基石	-14971
多月	-14972
录用	-14973
把控	-14974
探究	-14975
无一	-14976
有为	-14977
模特	-14978
潜伏	-14979
点缀	-14980
站立	-14981
观影	-14982
調整	-14983
超高	-14984
过载	-14985
部委	-14986
雾化	-14987
东莞市	-14988
也会有	-14989
大学等	-14990
实用的	-14991
您可以	-14992
继发性	-14993
耐老化	-14994
通常在	-14995
都必须	-14996
2030	-14997
专家表示	-14998
进一步完善	-14999
-5	-15000
买入	-15001
以來	-15002
克莱	-15003
失利	-15004
实务	-15005
月任	-15006
混淆	-15007
的无	-15008
皱纹	-15009
科教	-15010
等着	-15011
維持	-15012
红利	-15013
英勇	-15014
造船	-15015
離子	-15016
骨科	-15017
▁后来	-15018
变得更	-15019
尤其在	-15020
思想上	-15021
消泡剂	-15022
的程度	-15023
确定了	-15024
阶段性	-15025
从而提高	-15026
回收利用	-15027
普遍认为	-15028
生产加工	-15029
。2013	-15030
水平的提高	-15031
▁北	-15032
久久	-15033
克的	-15034
公约	-15035
分差	-15036
即时	-15037
含水	-15038
放宽	-15039
断面	-15040
沮丧	-15041
热源	-15042
男足	-15043
留给	-15044
病灶	-15045
看过	-15046
租房	-15047
结节	-15048
输给	-15049
遴选	-15050
重心	-15051
金球	-15052
长传	-15053
限额	-15054
xue	-15055
——“	-15056
一体机	-15057
婚外情	-15058
嵌入式	-15059
月开始	-15060
混合物	-15061
的一生	-15062
组织部	-15063
让患者	-15064
进入到	-15065
都可能	-15066
防腐蚀	-15067
广泛使用	-15068
政协委员	-15069
是世界上	-15070
签约仪式	-15071
▁众所周知	-15072
经过多年的	-15073
MW	-15074
ne	-15075
▁美	-15076
不顾	-15077
军民	-15078
却在	-15079
变迁	-15080
家装	-15081
家风	-15082
峡谷	-15083
希尔	-15084
开来	-15085
抢断	-15086
热度	-15087
热身	-15088
电台	-15089
的去	-15090
穿透	-15091
精选	-15092
连败	-15093
闭环	-15094
闲置	-15095
1.7	-15096
中心和	-15097
制度的	-15098
去年的	-15099
受精卵	-15100
对皮肤	-15101
就会有	-15102
总资产	-15103
污染源	-15104
管理者	-15105
类风湿	-15106
老干部	-15107
连接器	-15108
阿富汗	-15109
高密度	-15110
▁接下来	-15111
也是如此	-15112
学术交流	-15113
支部书记	-15114
积极作用	-15115
积极治疗	-15116
。2022	-15117
先进的技术	-15118
取得的成绩	-15119
市人民政府	-15120
的生活方式	-15121
上是	-15122
与你	-15123
争做	-15124
值守	-15125
厌氧	-15126
又在	-15127
受访	-15128
大片	-15129
对新	-15130
小小	-15131
来回	-15132
来访	-15133
特兰	-15134
甜美	-15135
相邻	-15136
计时	-15137
试用	-15138
遵义	-15139
降级	-15140
题为	-15141
风向	-15142
-15	-15143
5.5	-15144
。。。	-15145
一点点	-15146
不饱和	-15147
中发现	-15148
会受到	-15149
医学会	-15150
各行业	-15151
工程等	-15152
正常人	-15153
病虫害	-15154
的一半	-15155
责任制	-15156
转变为	-15157
▁(6)	-15158
为了保证	-15159
人与自然	-15160
可以获得	-15161
恢复健康	-15162
研发团队	-15163
设备进行	-15164
▁2010	-15165
▁综上所述	-15166
市场占有率	-15167
百年奋斗目标	-15168
一阵	-15169
不作	-15170
不算	-15171
串联	-15172
入睡	-15173
全套	-15174
出不	-15175
势必	-15176
和有	-15177
基调	-15178
多边	-15179
导入	-15180
导游	-15181
抛弃	-15182
清代	-15183
滋阴	-15184
生抽	-15185
网片	-15186
肉质	-15187
腐蝕	-15188
訓練	-15189
远射	-15190
领头	-15191
频频	-15192
为群众	-15193
他们是	-15194
优美的	-15195
因为他	-15196
所以我	-15197
的文章	-15198
车辆的	-15199
为主题的	-15200
二氧化硫	-15201
因地制宜	-15202
定期检查	-15203
机械工业	-15204
生物医药	-15205
财务管理	-15206
PO	-15207
××	-15208
▁做	-15209
两项	-15210
买到	-15211
余热	-15212
出示	-15213
加压	-15214
并就	-15215
开具	-15216
急于	-15217
性与	-15218
文档	-15219
根基	-15220
球墨	-15221
终结	-15222
给与	-15223
胸怀	-15224
试样	-15225
钱包	-15226
防洪	-15227
马达	-15228
30-	-15229
▁现代	-15230
倾向于	-15231
再利用	-15232
受害者	-15233
学校和	-15234
攻坚战	-15235
离心机	-15236
蔬菜和	-15237
资格证	-15238
分支机构	-15239
奋斗目标	-15240
宣传活动	-15241
相当严重	-15242
自身免疫	-15243
同比快速增长	-15244
生态环境保护	-15245
▁◆	-15246
一组	-15247
七年	-15248
偏向	-15249
反腐	-15250
外围	-15251
妙的	-15252
安定	-15253
张继	-15254
折不	-15255
提琴	-15256
旺季	-15257
来之	-15258
果树	-15259
浸润	-15260
甲醇	-15261
纯洁	-15262
螃蟹	-15263
该国	-15264
赞助	-15265
配上	-15266
铝箔	-15267
首节	-15268
麦芽	-15269
黄疸	-15270
0.4	-15271
不能够	-15272
合伙人	-15273
宫颈炎	-15274
我们是	-15275
比较低	-15276
的人文	-15277
的信心	-15278
缺少的	-15279
大多数人	-15280
它是一种	-15281
持续发展	-15282
的作用下	-15283
结构设计	-15284
进行分析	-15285
锐意进取	-15286
大大提高了	-15287
▁更	-15288
▁胡	-15289
一侧	-15290
上皮	-15291
上诉	-15292
为首	-15293
主业	-15294
分歧	-15295
办好	-15296
华丽	-15297
双层	-15298
听从	-15299
它們	-15300
录像	-15301
文创	-15302
无不	-15303
殡葬	-15304
烧伤	-15305
硅藻	-15306
种族	-15307
粘贴	-15308
踊跃	-15309
长辈	-15310
阿斯	-15311
降噪	-15312
静态	-15313
以至于	-15314
分离器	-15315
喜爱的	-15316
广州队	-15317
意义上	-15318
所用的	-15319
技术等	-15320
据报道	-15321
控制和	-15322
浓度的	-15323
清晰的	-15324
灭火器	-15325
的一天	-15326
的首要	-15327
硝酸盐	-15328
能量的	-15329
获得感	-15330
这些人	-15331
产品品质	-15332
优势互补	-15333
发挥作用	-15334
可以促进	-15335
烟花爆竹	-15336
生态系统	-15337
贫困地区	-15338
在剧中饰演	-15339
生态文明建设	-15340
人力资源和社会保障	-15341
(2	-15342
GO	-15343
TM	-15344
▁个	-15345
▁奥	-15346
与您	-15347
会谈	-15348
养血	-15349
农牧	-15350
发芽	-15351
受贿	-15352
奖牌	-15353
媒介	-15354
性等	-15355
敏锐	-15356
明明	-15357
栏杆	-15358
格斯	-15359
梅开	-15360
泵站	-15361
真情	-15362
重回	-15363
镜子	-15364
驾车	-15365
,24	-15366
25%	-15367
人员在	-15368
他们对	-15369
可选择	-15370
和学习	-15371
提高到	-15372
杰出的	-15373
的理论	-15374
让客户	-15375
1994	-15376
两个确立	-15377
产业升级	-15378
和维生素	-15379
失业保险	-15380
客户要求	-15381
无私奉献	-15382
生活环境	-15383
男性朋友	-15384
都有哪些	-15385
最大限度地	-15386
的企业精神	-15387
人民代表大会	-15388
、7	-15389
下调	-15390
专著	-15391
世的	-15392
九州	-15393
了近	-15394
事关	-15395
价为	-15396
包围	-15397
化验	-15398
天才	-15399
头号	-15400
夸张	-15401
夹具	-15402
干粉	-15403
意料	-15404
油污	-15405
清凉	-15406
烹调	-15407
球门	-15408
公司与	-15409
创作的	-15410
夫斯基	-15411
赛季的	-15412
起源于	-15413
▁习近平	-15414
主任医师	-15415
实实在在	-15416
局副局长	-15417
应用程序	-15418
拥有一支	-15419
非常丰富	-15420
正常情况下	-15421
深入贯彻落实	-15422
AN	-15423
PV	-15424
下來	-15425
你想	-15426
創造	-15427
压滤	-15428
后台	-15429
困難	-15430
坏死	-15431
完好	-15432
少林	-15433
建言	-15434
時代	-15435
格林	-15436
特产	-15437
甲级	-15438
病发	-15439
百叶	-15440
科比	-15441
維護	-15442
营运	-15443
负于	-15444
间歇	-15445
-11	-15446
、12	-15447
人员和	-15448
作用是	-15449
再一次	-15450
喜欢吃	-15451
在他的	-15452
在企业	-15453
在学习	-15454
工作服	-15455
生产出	-15456
的法律	-15457
的范围	-15458
知识的	-15459
经济带	-15460
能促进	-15461
这样就	-15462
▁13、	-15463
企业形象	-15464
尽量减少	-15465
相关专业	-15466
诚信为本	-15467
诚信经营	-15468
变得越来越	-15469
固定资产投资	-15470
ra	-15471
▁Y	-15472
▁■	-15473
▁乐	-15474
▁法	-15475
七一	-15476
三类	-15477
人寿	-15478
八十	-15479
初次	-15480
千亿	-15481
图为	-15482
大腿	-15483
对标	-15484
山地	-15485
抢险	-15486
是的	-15487
正值	-15488
没人	-15489
浓浓	-15490
火热	-15491
痔疮	-15492
硅酸	-15493
车内	-15494
车牌	-15495
这张	-15496
高热	-15497
-12	-15498
28.	-15499
不发生	-15500
中心等	-15501
中进行	-15502
以减少	-15503
副产品	-15504
历史性	-15505
和美国	-15506
清楚地	-15507
溶于水	-15508
的种类	-15509
责任人	-15510
9000	-15511
农业生产	-15512
社会组织	-15513
的重要因素	-15514
等荣誉称号	-15515
糖尿病患者	-15516
体操	-15517
德拉	-15518
情侣	-15519
是被	-15520
模样	-15521
海底	-15522
老大	-15523
薄的	-15524
转账	-15525
还得	-15526
---	-15527
-18	-15528
260	-15529
不能吃	-15530
个月内	-15531
中小微	-15532
切削液	-15533
在平时	-15534
快乐的	-15535
是无法	-15536
汽车的	-15537
珠三角	-15538
的考生	-15539
行政区	-15540
该设备	-15541
专业服务	-15542
主题活动	-15543
先进个人	-15544
又会如何	-15545
受欢迎的	-15546
容易产生	-15547
市公安局	-15548
应急救援	-15549
亲戚	-15550
值为	-15551
出征	-15552
分為	-15553
危險	-15554
战国	-15555
捍卫	-15556
日语	-15557
明代	-15558
本色	-15559
栽种	-15560
概述	-15561
津贴	-15562
節目	-15563
膝盖	-15564
阶层	-15565
26.	-15566
▁研究	-15567
不了解	-15568
在每个	-15569
夏令营	-15570
大小的	-15571
活力的	-15572
的科学	-15573
这部剧	-15574
一体化的	-15575
安装方便	-15576
诱发因素	-15577
7)	-15578
▁外	-15579
一轮	-15580
专卖	-15581
五谷	-15582
仍未	-15583
冷轧	-15584
化纤	-15585
多变	-15586
奢侈	-15587
安检	-15588
局地	-15589
并举	-15590
截图	-15591
所说	-15592
殊荣	-15593
沉迷	-15594
油画	-15595
用房	-15596
確保	-15597
計畫	-15598
▁技术	-15599
不承担	-15600
也有所	-15601
学专业	-15602
实训室	-15603
杜兰特	-15604
树立了	-15605
流行病	-15606
经济和	-15607
让人们	-15608
负离子	-15609
▁不锈钢	-15610
几乎没有	-15611
发表论文	-15612
工艺流程	-15613
排名第一	-15614
教学质量	-15615
详细了解	-15616
发展改革委	-15617
很大的影响	-15618
积累了丰富的	-15619
ee	-15620
于心	-15621
五星	-15622
出任	-15623
取证	-15624
套管	-15625
它会	-15626
尘埃	-15627
打卡	-15628
昆山	-15629
更衣	-15630
清潔	-15631
牵涉	-15632
笔画	-15633
终究	-15634
结业	-15635
自家	-15636
落叶	-15637
规避	-15638
針對	-15639
電話	-15640
▁医生	-15641
不到位	-15642
与技术	-15643
商品的	-15644
在没有	-15645
常用于	-15646
无疑是	-15647
更方便	-15648
欧联杯	-15649
独一无	-15650
的动作	-15651
的氛围	-15652
的结合	-15653
贫困户	-15654
50%。	-15655
意见建议	-15656
教育工作	-15657
行动计划	-15658
表面光滑	-15659
中央电视台	-15660
白癜风发病	-15661
优秀传统文化	-15662
BR	-15663
In	-15664
两端	-15665
买了	-15666
保姆	-15667
团圆	-15668
好人	-15669
媒體	-15670
宽容	-15671
招募	-15672
提炼	-15673
无处	-15674
消費	-15675
热心	-15676
称重	-15677
穿戴	-15678
脚下	-15679
萃取	-15680
表层	-15681
要好	-15682
警报	-15683
趋于	-15684
銀行	-15685
1-3	-15686
▁本站	-15687
公安部	-15688
在安装	-15689
条件和	-15690
浓厚的	-15691
的安装	-15692
的追求	-15693
肾上腺	-15694
book	-15695
一个时期	-15696
义务教育	-15697
仪器设备	-15698
值得信赖	-15699
先锋模范	-15700
每一个人	-15701
防火涂料	-15702
万元人民币	-15703
国家发改委	-15704
技术力量雄厚	-15705
丝印	-15706
之王	-15707
二醇	-15708
则为	-15709
城堡	-15710
学一	-15711
把关	-15712
时分	-15713
稱為	-15714
站台	-15715
红牌	-15716
让它	-15717
较弱	-15718
那天	-15719
银川	-15720
黄山	-15721
▁四川	-15722
▁更多	-15723
▁江苏	-15724
、11	-15725
公益性	-15726
包装机	-15727
开启了	-15728
总工会	-15729
执行力	-15730
指导和	-15731
日活动	-15732
未成年	-15733
的性格	-15734
自贸区	-15735
都已经	-15736
专业人才	-15737
工程造价	-15738
时事政治	-15739
,2012	-15740
空气净化器	-15741
之本	-15742
价钱	-15743
剧组	-15744
卵石	-15745
变白	-15746
地向	-15747
坏了	-15748
填报	-15749
宽敞	-15750
就将	-15751
尺度	-15752
折射	-15753
明朝	-15754
极佳	-15755
每個	-15756
氮气	-15757
深切	-15758
焊缝	-15759
相声	-15760
能与	-15761
自立	-15762
落的	-15763
觀眾	-15764
见解	-15765
遥控	-15766
长短	-15767
马里	-15768
▁浙江	-15769
与客户	-15770
乘用车	-15771
公开赛	-15772
应用中	-15773
材质的	-15774
极强的	-15775
模块化	-15776
民法典	-15777
病毒的	-15778
的高温	-15779
网友们	-15780
购买的	-15781
這樣的	-15782
保温隔热	-15783
只有这样	-15784
现有员工	-15785
经济损失	-15786
绿色建筑	-15787
科技股份有限公司	-15788
▁下	-15789
价的	-15790
刊物	-15791
又叫	-15792
各县	-15793
太陽	-15794
安宁	-15795
屠宰	-15796
开户	-15797
提案	-15798
油和	-15799
泥浆	-15800
球磨	-15801
白血	-15802
着床	-15803
腐烂	-15804
花粉	-15805
討論	-15806
试题	-15807
转为	-15808
辽足	-15809
里有	-15810
30.	-15811
一大批	-15812
与普通	-15813
具备了	-15814
包装袋	-15815
双一流	-15816
命名为	-15817
和保护	-15818
增加到	-15819
外国语	-15820
好消息	-15821
子宫颈	-15822
并表示	-15823
更安全	-15824
有问题	-15825
男主角	-15826
的员工	-15827
第三节	-15828
群体的	-15829
顾客的	-15830
久而久之	-15831
克罗地亚	-15832
内容包括	-15833
如做此梦	-15834
妇科疾病	-15835
容易发生	-15836
师资力量	-15837
攻坚克难	-15838
次党代会	-15839
皮肤疾病	-15840
食品加工	-15841
哈萨克斯坦	-15842
两场	-15843
乳胶	-15844
大兴	-15845
奢华	-15846
宇航	-15847
寄托	-15848
尿路	-15849
憧憬	-15850
改版	-15851
无意	-15852
智商	-15853
概论	-15854
波形	-15855
牙刷	-15856
胶水	-15857
范圍	-15858
落下	-15859
送货	-15860
都说	-15861
露天	-15862
面色	-15863
麻木	-15864
bet	-15865
▁天津	-15866
▁建议	-15867
几分钟	-15868
孢子粉	-15869
尽全力	-15870
我爱你	-15871
收到了	-15872
是美国	-15873
的人力	-15874
的最后	-15875
篮球场	-15876
质量好	-15877
专家指出	-15878
仔细观察	-15879
比较大的	-15880
,2009	-15881
白癜风疾病	-15882
管理有限公司	-15883
亲近	-15884
佳节	-15885
來自	-15886
其间	-15887
函授	-15888
号楼	-15889
在有	-15890
强直	-15891
当归	-15892
心跳	-15893
担负	-15894
新聞	-15895
旅程	-15896
江山	-15897
班车	-15898
祥和	-15899
背面	-15900
路人	-15901
跻身	-15902
轻重	-15903
过热	-15904
都可	-15905
飲食	-15906
108	-15907
304	-15908
与作用	-15909
中小型	-15910
公元前	-15911
又一个	-15912
双方在	-15913
工作组	-15914
是属于	-15915
更多人	-15916
构建了	-15917
系列的	-15918
上新台阶	-15919
对其进行	-15920
提醒大家	-15921
结构调整	-15922
连续多年	-15923
毕业生就业	-15924
经济发展的	-15925
非常丰富的	-15926
全面建成小康社会	-15927
EC	-15928
ST	-15929
供图	-15930
八个	-15931
另行	-15932
国道	-15933
尔克	-15934
巴士	-15935
惠州	-15936
手術	-15937
收拾	-15938
文中	-15939
晚餐	-15940
望远	-15941
窒息	-15942
缺血	-15943
習慣	-15944
豆浆	-15945
身后	-15946
还对	-15947
针灸	-15948
钻研	-15949
馒头	-15950
▁在此	-15951
▁智能	-15952
为主体	-15953
各自的	-15954
哪家好	-15955
应立即	-15956
强制性	-15957
中国政府	-15958
产业基地	-15959
西班牙人	-15960
的工作原理	-15961
上篮	-15962
不惜	-15963
严寒	-15964
亦可	-15965
值的	-15966
减持	-15967
几千	-15968
在小	-15969
堆放	-15970
大声	-15971
奔驰	-15972
婚后	-15973
日用	-15974
昨晚	-15975
死角	-15976
沙盘	-15977
渐进	-15978
演变	-15979
烟酒	-15980
照顧	-15981
熔点	-15982
田间	-15983
磨削	-15984
耕耘	-15985
莲子	-15986
贵宾	-15987
踢球	-15988
通告	-15989
遇上	-15990
高龄	-15991
争夺战	-15992
云平台	-15993
召开的	-15994
在那里	-15995
彰显了	-15996
执行官	-15997
标准和	-15998
第四节	-15999
纯净水	-16000
老师和	-16001
腹腔镜	-16002
规格的	-16003
需要有	-16004
做大做强	-16005
各种各样	-16006
垃圾处理	-16007
淋漓尽致	-16008
管理学院	-16009
管理软件	-16010
9001:	-16011
不同类型的	-16012
;《	-16013
▁g	-16014
一到	-16015
三农	-16016
不和	-16017
不相	-16018
人机	-16019
传闻	-16020
便可	-16021
公证	-16022
区长	-16023
发型	-16024
国籍	-16025
婚纱	-16026
尿酸	-16027
居室	-16028
并没	-16029
拍攝	-16030
教堂	-16031
清澈	-16032
源地	-16033
热衷	-16034
看病	-16035
穿孔	-16036
而行	-16037
跟上	-16038
踏上	-16039
阻断	-16040
▁材料	-16041
▁河南	-16042
减速器	-16043
工业园	-16044
干燥机	-16045
现实的	-16046
的人数	-16047
的各项	-16048
的场所	-16049
的情況	-16050
银行的	-16051
需要对	-16052
准确把握	-16053
凯尔特人	-16054
志愿者们	-16055
生活污水	-16056
这部电影	-16057
前所未有的	-16058
▁等	-16059
下单	-16060
不限	-16061
九九	-16062
争执	-16063
五四	-16064
亲和	-16065
人體	-16066
军训	-16067
助于	-16068
台词	-16069
字的	-16070
寒假	-16071
我有	-16072
日新	-16073
洗碗	-16074
玄武	-16075
祖先	-16076
红线	-16077
红花	-16078
胶合	-16079
设想	-16080
试试	-16081
长约	-16082
顶层	-16083
保温板	-16084
的交流	-16085
的模式	-16086
紧固件	-16087
自信心	-16088
青海省	-16089
首先是	-16090
▁生活中	-16091
专项整治	-16092
乡村旅游	-16093
方向发展	-16094
物流公司	-16095
行政管理	-16096
坚定理想信念	-16097
3》	-16098
上万	-16099
严密	-16100
争先	-16101
但她	-16102
八年	-16103
几位	-16104
分区	-16105
勇夺	-16106
匈牙	-16107
名城	-16108
喜庆	-16109
接班	-16110
欧阳	-16111
源源	-16112
特大	-16113
直射	-16114
身处	-16115
退火	-16116
隔墙	-16117
鳞片	-16118
▁第六	-16119
不代表	-16120
公里的	-16121
古老的	-16122
可提供	-16123
和蔬菜	-16124
家里的	-16125
工业中	-16126
爱的人	-16127
的伤害	-16128
的检查	-16129
还存在	-16130
避孕药	-16131
充分考虑	-16132
尖锐湿疣	-16133
方方面面	-16134
球墨铸铁	-16135
红木家具	-16136
老年人的	-16137
工业互联网	-16138
是什么意思	-16139
广大党员干部	-16140
SO	-16141
se	-16142
▁吃	-16143
举动	-16144
也称	-16145
产区	-16146
保税	-16147
劣势	-16148
取名	-16149
和无	-16150
四级	-16151
围棋	-16152
報導	-16153
女主	-16154
客流	-16155
封面	-16156
年长	-16157
我说	-16158
收盘	-16159
昏迷	-16160
格拉	-16161
欢喜	-16162
残酷	-16163
海港	-16164
电控	-16165
的四	-16166
穴位	-16167
给您	-16168
腹胀	-16169
花果	-16170
身穿	-16171
送去	-16172
都与	-16173
配制	-16174
隐蔽	-16175
香烟	-16176
鲜活	-16177
art	-16178
▁人们	-16179
▁电影	-16180
作用于	-16181
厂家的	-16182
大功率	-16183
市中心	-16184
应用型	-16185
接触到	-16186
的提高	-16187
的色彩	-16188
的高端	-16189
要切实	-16190
▁据报道	-16191
要进一步	-16192
,2010	-16193
心理咨询师	-16194
电子元器件	-16195
万股	-16196
三方	-16197
上调	-16198
下达	-16199
不留	-16200
乐于	-16201
分之	-16202
別人	-16203
后在	-16204
地为	-16205
大雨	-16206
安县	-16207
巴斯	-16208
強調	-16209
敦煌	-16210
晚年	-16211
暑期	-16212
武帝	-16213
毅力	-16214
的非	-16215
皮书	-16216
禁令	-16217
角质	-16218
辦理	-16219
进账	-16220
递交	-16221
這麼	-16222
飞船	-16223
黄花	-16224
40°	-16225
一家人	-16226
友好的	-16227
各地区	-16228
并结合	-16229
开始后	-16230
的分析	-16231
皮肤科	-16232
相比于	-16233
税务局	-16234
而产生	-16235
错过了	-16236
就是因为	-16237
我们知道	-16238
日出生于	-16239
明确规定	-16240
的带领下	-16241
相比之下	-16242
静脉曲张	-16243
妇幼保健院	-16244
治疗银屑病	-16245
三家	-16246
主打	-16247
五粮	-16248
兵团	-16249
再接	-16250
就没	-16251
崇高	-16252
巡逻	-16253
平民	-16254
挑食	-16255
改制	-16256
日产	-16257
曝气	-16258
根系	-16259
湿气	-16260
滴虫	-16261
臭味	-16262
远大	-16263
退化	-16264
▁图为	-16265
一会儿	-16266
中之重	-16267
助听器	-16268
和销售	-16269
开拓者	-16270
必须是	-16271
服务等	-16272
氧化碳	-16273
的单位	-16274
范围广	-16275
表面积	-16276
证明了	-16277
健康管理	-16278
早期症状	-16279
环境影响	-16280
继续执行	-16281
运营管理	-16282
造成影响	-16283
到底是一种	-16284
即使是这样	-16285
各级党组织	-16286
用实际行动	-16287
怎么样的存在	-16288
AG	-16289
oc	-16290
三层	-16291
免税	-16292
動物	-16293
厂的	-16294
名词	-16295
向下	-16296
吞吐	-16297
地暖	-16298
增殖	-16299
峰值	-16300
平坦	-16301
後來	-16302
杂粮	-16303
李小	-16304
死的	-16305
氏体	-16306
海中	-16307
花样	-16308
蛋黄	-16309
認識	-16310
谣言	-16311
载人	-16312
难治	-16313
2.4	-16314
▁中医	-16315
▁至于	-16316
个专业	-16317
也随之	-16318
及周边	-16319
召开了	-16320
可能有	-16321
总数的	-16322
月下旬	-16323
死亡率	-16324
的检测	-16325
的进行	-16326
第二季	-16327
精致的	-16328
网站上	-16329
而引起	-16330
严格控制	-16331
互联互通	-16332
关键技术	-16333
具有一定	-16334
劳动关系	-16335
可以作为	-16336
坚持治疗	-16337
性关节炎	-16338
电商平台	-16339
红色基因	-16340
这方面的	-16341
食欲不振	-16342
。2012	-16343
中医药大学	-16344
工作的重要	-16345
高级工程师	-16346
可持续发展的	-16347
也与	-16348
加斯	-16349
发红	-16350
女兒	-16351
实操	-16352
小将	-16353
并存	-16354
德罗	-16355
日渐	-16356
果断	-16357
格的	-16358
求真	-16359
潜艇	-16360
等国	-16361
纷呈	-16362
胰腺	-16363
裁定	-16364
足迹	-16365
距離	-16366
通透	-16367
不会对	-16368
出租车	-16369
和教育	-16370
在一定	-16371
漫长的	-16372
的事件	-16373
的人口	-16374
直升机	-16375
第一家	-16376
都是有	-16377
领域中	-16378
一般采用	-16379
早日康复	-16380
有很多种	-16381
本职工作	-16382
科技发展	-16383
项目经理	-16384
我们的生活	-16385
实用新型专利	-16386
VS	-16387
▁校	-16388
》:	-16389
之感	-16390
乐队	-16391
乔治	-16392
五花	-16393
伪造	-16394
兒子	-16395
刻意	-16396
向外	-16397
地毯	-16398
感人	-16399
招待	-16400
放开	-16401
果然	-16402
游离	-16403
生了	-16404
留念	-16405
略有	-16406
砝码	-16407
神經	-16408
紧缺	-16409
育种	-16410
莲藕	-16411
迪奥	-16412
,16	-16413
ell	-16414
▁个人	-16415
▁当时	-16416
中国式	-16417
产品中	-16418
亿欧元	-16419
会根据	-16420
但不能	-16421
保持了	-16422
实力和	-16423
对他们	-16424
工业的	-16425
手续费	-16426
癌细胞	-16427
的步伐	-16428
的饮食	-16429
肯定是	-16430
项目中	-16431
马斯克	-16432
0.00	-16433
代表性的	-16434
增长速度	-16435
复旦大学	-16436
安全问题	-16437
绿色低碳	-16438
让自己的	-16439
一段时间后	-16440
到目前为止	-16441
命运共同体	-16442
党的十九届六中全会精神	-16443
-4	-16444
09	-16445
▁热	-16446
上汽	-16447
不爱	-16448
之所	-16449
之首	-16450
休假	-16451
先容	-16452
原文	-16453
受邀	-16454
听得	-16455
和多	-16456
娃娃	-16457
拉萨	-16458
搜集	-16459
未婚	-16460
油等	-16461
為主	-16462
铁道	-16463
防震	-16464
▁大会	-16465
保温层	-16466
共同的	-16467
可以做	-16468
咖啡因	-16469
平均值	-16470
当年的	-16471
最近的	-16472
的经验	-16473
等作用	-16474
缺点是	-16475
设立的	-16476
诊断及	-16477
面对面	-16478
食用菌	-16479
与会人员	-16480
工伤保险	-16481
营销模式	-16482
附属医院	-16483
到底是一种怎么样的存在	-16484
ub	-16485
▁两	-16486
三名	-16487
中南	-16488
企图	-16489
刘某	-16490
听了	-16491
听见	-16492
夺取	-16493
尔的	-16494
平淡	-16495
抗病	-16496
时而	-16497
最强	-16498
橘子	-16499
涡轮	-16500
盛世	-16501
肉眼	-16502
艰巨	-16503
车轮	-16504
这只	-16505
问卷	-16506
首创	-16507
高贵	-16508
魔术	-16509
1-1	-16510
▁西安	-16511
。11	-16512
也希望	-16513
但现在	-16514
使用权	-16515
加油站	-16516
总产值	-16517
所高校	-16518
据介绍	-16519
比去年	-16520
的土地	-16521
的好坏	-16522
的战绩	-16523
的正确	-16524
竞争中	-16525
还是有	-16526
中国国际	-16527
塞尔维亚	-16528
没有办法	-16529
这些食物	-16530
▁本文摘要	-16531
传统文化的	-16532
都有自己的	-16533
内容仅供参考	-16534
七十	-16535
不乏	-16536
中日	-16537
亚泰	-16538
充值	-16539
分组	-16540
刻画	-16541
卖家	-16542
博大	-16543
吸声	-16544
姓氏	-16545
年青	-16546
彩虹	-16547
报到	-16548
擔任	-16549
杏仁	-16550
沐浴	-16551
法案	-16552
用好	-16553
竞价	-16554
組成	-16555
繁忙	-16556
缔造	-16557
耳鼻	-16558
近百	-16559
这片	-16560
酸菜	-16561
階段	-16562
马斯	-16563
MPa	-16564
东北部	-16565
会比较	-16566
净资产	-16567
工程和	-16568
总量的	-16569
我喜欢	-16570
效率和	-16571
留下的	-16572
的到来	-16573
的希望	-16574
制造工艺	-16575
哥伦比亚	-16576
就是为了	-16577
最常见的	-16578
深刻印象	-16579
生产技术	-16580
电子邮件	-16581
相关信息	-16582
突发事件	-16583
视频会议	-16584
质量保证	-16585
一定的意义	-16586
说过这样一句话	-16587
思想和行动统一到	-16588
!」	-16589
▁次	-16590
上台	-16591
也更	-16592
亿人	-16593
复产	-16594
悬念	-16595
悲剧	-16596
机票	-16597
跌幅	-16598
醫學	-16599
防灾	-16600
▁我的	-16601
。2.	-16602
不正当	-16603
与美国	-16604
些时候	-16605
优点是	-16606
含量的	-16607
在施工	-16608
在水中	-16609
工作了	-16610
我們的	-16611
理解和	-16612
的开发	-16613
的提升	-16614
研发的	-16615
社会上	-16616
中小学生	-16617
外商投资	-16618
服务机构	-16619
清洗干净	-16620
相对较低	-16621
积极参加	-16622
综艺节目	-16623
辅助治疗	-16624
顺利完成	-16625
国家统计局	-16626
中乙	-16627
主干	-16628
之城	-16629
传授	-16630
全网	-16631
养颜	-16632
凡是	-16633
卫浴	-16634
启用	-16635
微软	-16636
意境	-16637
感謝	-16638
敬畏	-16639
果肉	-16640
炎等	-16641
物和	-16642
甜味	-16643
百花	-16644
粽子	-16645
细微	-16646
脑部	-16647
花茶	-16648
营利	-16649
西游	-16650
赞美	-16651
返乡	-16652
離開	-16653
青藏	-16654
(19	-16655
99.	-16656
▁拥有	-16657
一些人	-16658
体会到	-16659
便携式	-16660
在致辞	-16661
多方面	-16662
总公司	-16663
慢慢地	-16664
方式的	-16665
方法的	-16666
盲目的	-16667
第三代	-16668
紧接着	-16669
要进行	-16670
货物的	-16671
这部分	-16672
面上的	-16673
亿美元的	-16674
国际标准	-16675
室内设计	-16676
工作岗位	-16677
干事创业	-16678
数据采集	-16679
深刻认识	-16680
直接接触	-16681
综合考虑	-16682
认真落实	-16683
20000	-16684
国务院关于	-16685
有限公司是一家	-16686
无意间说过这样一句话	-16687
02	-16688
1~	-16689
cr	-16690
if	-16691
专员	-16692
为新	-16693
受限	-16694
国米	-16695
增量	-16696
帮你	-16697
心目	-16698
想必	-16699
扭转	-16700
教學	-16701
是其	-16702
本案	-16703
欧文	-16704
死者	-16705
起初	-16706
III	-16707
几年的	-16708
可提高	-16709
在国外	-16710
大健康	-16711
小时后	-16712
机体的	-16713
没有了	-16714
的男人	-16715
等场所	-16716
表面上	-16717
发现问题	-16718
如果出现	-16719
稳定性好	-16720
顺利进行	-16721
仍然代表了	-16722
很容易导致	-16723
结构性改革	-16724
仍然代表了一定的意义	-16725
)”	-16726
书豪	-16727
享用	-16728
偷偷	-16729
優質	-16730
单打	-16731
国标	-16732
增長	-16733
套餐	-16734
安区	-16735
形的	-16736
日均	-16737
昼夜	-16738
水器	-16739
波长	-16740
润肺	-16741
深造	-16742
的王	-16743
看不	-16744
秋冬	-16745
科幻	-16746
菌群	-16747
西汉	-16748
这块	-16749
部門	-16750
量少	-16751
锅内	-16752
高精	-16753
▁2,	-16754
乳制品	-16755
人口的	-16756
放置在	-16757
测试仪	-16758
电子烟	-16759
精细化	-16760
纪录片	-16761
各方面的	-16762
建筑施工	-16763
意想不到	-16764
达成协议	-16765
非常大的	-16766
当前和今后	-16767
中等职业学校	-16768
完善的售后服务	-16769
DS	-16770
▁长	-16771
三百	-16772
中考	-16773
之分	-16774
书的	-16775
來源	-16776
保有	-16777
冲刺	-16778
刚玉	-16779
加強	-16780
助手	-16781
变性	-16782
寄予	-16783
屬於	-16784
当做	-16785
很不	-16786
手部	-16787
教会	-16788
早产	-16789
此病	-16790
深夜	-16791
熟知	-16792
特點	-16793
的生	-16794
米粉	-16795
糖果	-16796
肤色	-16797
花香	-16798
该病	-16799
预售	-16800
3-4	-16801
POS	-16802
▁01	-16803
为全国	-16804
些什么	-16805
会逐渐	-16806
你必须	-16807
健康和	-16808
再接再	-16809
化工厂	-16810
和孩子	-16811
并取得	-16812
显示出	-16813
普洱茶	-16814
更需要	-16815
每天都	-16816
爱尔兰	-16817
生命力	-16818
相比较	-16819
茅台酒	-16820
培训中心	-16821
教育事业	-16822
的工作中	-16823
精神压力	-16824
细菌感染	-16825
美观大方	-16826
这样一来	-16827
领先水平	-16828
主要应用于	-16829
党的十九大精神	-16830
伯纳	-16831
借口	-16832
入场	-16833
升华	-16834
发给	-16835
基体	-16836
天王	-16837
套路	-16838
尽职	-16839
心力	-16840
抗原	-16841
抽查	-16842
拖延	-16843
探头	-16844
掩盖	-16845
敬老	-16846
期满	-16847
没收	-16848
活化	-16849
测温	-16850
经络	-16851
萨尔	-16852
近些	-16853
造影	-16854
钓鱼	-16855
閱讀	-16856
队和	-16857
降压	-16858
陷阱	-16859
随身	-16860
饰品	-16861
3-0	-16862
led	-16863
▁我們	-16864
▁设备	-16865
▁郑州	-16866
一定能	-16867
也不用	-16868
加强与	-16869
拥有的	-16870
提供更	-16871
文明的	-16872
时间段	-16873
玻璃的	-16874
的限制	-16875
等其他	-16876
还会有	-16877
陌生人	-16878
只有一个	-16879
必不可少	-16880
有机废气	-16881
梅开二度	-16882
相当大的	-16883
积极分子	-16884
积极贡献	-16885
质量问题	-16886
这样的话	-16887
需要考虑	-16888
党总支书记	-16889
▁易	-16890
乐团	-16891
交融	-16892
减压	-16893
出产	-16894
则在	-16895
十条	-16896
和省	-16897
增压	-16898
奥巴	-16899
專家	-16900
就来	-16901
左手	-16902
带到	-16903
干涉	-16904
微微	-16905
心得	-16906
探寻	-16907
搞笑	-16908
摆在	-16909
春运	-16910
水垢	-16911
清爽	-16912
理化	-16913
虽说	-16914
词语	-16915
课外	-16916
辈子	-16917
部落	-16918
铸就	-16919
29.	-16920
▁所有	-16921
。”“	-16922
》,《	-16923
商品房	-16924
室内外	-16925
深思熟	-16926
温湿度	-16927
的一家	-16928
的使命	-16929
等功效	-16930
不能满足	-16931
专业技能	-16932
中央纪委	-16933
代理记账	-16934
做出贡献	-16935
机械性能	-16936
自己喜欢	-16937
▁2008	-16938
▁2009	-16939
全国各族人民	-16940
无症状感染者	-16941
▁能	-16942
▁龙	-16943
★★	-16944
不为	-16945
亚博	-16946
何种	-16947
免除	-16948
凝心	-16949
名思	-16950
城管	-16951
安神	-16952
崩溃	-16953
并被	-16954
康养	-16955
惩处	-16956
打扮	-16957
把他	-16958
浴室	-16959
的开	-16960
紧绷	-16961
而使	-16962
股本	-16963
跳动	-16964
进场	-16965
闭经	-16966
▁16	-16967
▁学习	-16968
不只是	-16969
为主线	-16970
了大量	-16971
以前的	-16972
余万元	-16973
使用中	-16974
做到的	-16975
充电桩	-16976
危险性	-16977
反应器	-16978
可满足	-16979
名学生	-16980
和分析	-16981
和市场	-16982
多万元	-16983
性激素	-16984
手机的	-16985
摄入量	-16986
植物的	-16987
浏览器	-16988
的对象	-16989
端午节	-16990
等都是	-16991
精美的	-16992
耐久性	-16993
要按照	-16994
见证了	-16995
入党誓词	-16996
公司注册	-16997
功能紊乱	-16998
新老客户	-16999
服务水平	-17000
能够帮助	-17001
那不勒斯	-17002
随时随地	-17003
的重要举措	-17004
负责人表示	-17005
一二	-17006
供應	-17007
勃勃	-17008
匆匆	-17009
嘴巴	-17010
园艺	-17011
国债	-17012
块钱	-17013
夏日	-17014
多是	-17015
多用	-17016
婆婆	-17017
字体	-17018
尸体	-17019
工藝	-17020
悉尼	-17021
拇指	-17022
杨家	-17023
格力	-17024
每种	-17025
泽马	-17026
直埋	-17027
福特	-17028
红星	-17029
该项	-17030
路边	-17031
颅内	-17032
鲁迅	-17033
2.2	-17034
。12	-17035
为学校	-17036
亲爱的	-17037
匈牙利	-17038
和研究	-17039
坚强的	-17040
得天独	-17041
抗癫痫	-17042
有一次	-17043
的职业	-17044
的能量	-17045
约翰逊	-17046
蒸发器	-17047
调整为	-17048
谋发展	-17049
面积约	-17050
领导者	-17051
▁实际上	-17052
休闲娱乐	-17053
先进设备	-17054
关键时刻	-17055
后顾之忧	-17056
调查研究	-17057
中央八项规定	-17058
ye	-17059
▁问	-17060
两轮	-17061
主罚	-17062
代办	-17063
前茅	-17064
历任	-17065
反超	-17066
只为	-17067
回路	-17068
富士	-17069
将由	-17070
待人	-17071
最差	-17072
步步	-17073
甘草	-17074
痴呆	-17075
辅料	-17076
送出	-17077
阳气	-17078
预先	-17079
预热	-17080
饥饿	-17081
SEO	-17082
中西部	-17083
为主导	-17084
他人之	-17085
你应该	-17086
告诉我	-17087
影响着	-17088
慢性病	-17089
成本高	-17090
类产品	-17091
过程的	-17092
伙伴关系	-17093
圆满完成	-17094
成果转化	-17095
报告显示	-17096
深入了解	-17097
试验设备	-17098
该怎么办	-17099
选择一个	-17100
锻炼身体	-17101
征求意见稿	-17102
经济的发展	-17103
白癜风的发病	-17104
1～	-17105
一笔	-17106
丁俊	-17107
万千	-17108
下沉	-17109
不合	-17110
亦是	-17111
会把	-17112
優勢	-17113
去掉	-17114
可按	-17115
呼叫	-17116
回馈	-17117
常見	-17118
房企	-17119
日出	-17120
是经	-17121
气压	-17122
源性	-17123
照料	-17124
牙周	-17125
發揮	-17126
自重	-17127
菜品	-17128
計算	-17129
调和	-17130
这支	-17131
防空	-17132
高举	-17133
鲜美	-17134
▁学生	-17135
不论是	-17136
以及在	-17137
保证金	-17138
到这里	-17139
同样是	-17140
式发展	-17141
是人类	-17142
本产品	-17143
李克强	-17144
港澳台	-17145
结束时	-17146
这一天	-17147
不是一个	-17148
但是对于	-17149
体育运动	-17150
在线观看	-17151
工匠精神	-17152
成为一名	-17153
接种疫苗	-17154
计划生育	-17155
我们都知道	-17156
数字化转型	-17157
的原因之一	-17158
最高人民法院	-17159
▁于	-17160
▁内	-17161
▁台	-17162
三餐	-17163
不计	-17164
凹凸	-17165
刘备	-17166
加拉	-17167
历代	-17168
后天	-17169
在做	-17170
基数	-17171
宽带	-17172
年年	-17173
库里	-17174
德华	-17175
截面	-17176
敦促	-17177
會有	-17178
止咳	-17179
潜能	-17180
热议	-17181
研發	-17182
纵横	-17183
莅临	-17184
莱坞	-17185
话剧	-17186
通便	-17187
酸痛	-17188
112	-17189
▁孩子	-17190
▁文章	-17191
上市的	-17192
不小的	-17193
二十四	-17194
会因为	-17195
向大家	-17196
大家庭	-17197
它不仅	-17198
实施了	-17199
招投标	-17200
日本的	-17201
晒太阳	-17202
温暖的	-17203
胶粘剂	-17204
▁14、	-17205
▁聚氨酯	-17206
不会影响	-17207
专门从事	-17208
也可用于	-17209
合理安排	-17210
怎么治疗	-17211
排放标准	-17212
根本任务	-17213
还有就是	-17214
呼吸道感染	-17215
以下几个方面	-17216
cn	-17217
▁h	-17218
▁家	-17219
不着	-17220
世上	-17221
丰硕	-17222
书院	-17223
五月	-17224
交织	-17225
他与	-17226
何况	-17227
储藏	-17228
关卡	-17229
劣质	-17230
半个	-17231
县的	-17232
又被	-17233
受体	-17234
吸湿	-17235
周公	-17236
堡垒	-17237
壁画	-17238
巨人	-17239
感官	-17240
抗议	-17241
日和	-17242
格雷	-17243
梦幻	-17244
沙滩	-17245
石的	-17246
秦皇	-17247
给她	-17248
能有	-17249
若有	-17250
获评	-17251
贵族	-17252
金牛	-17253
27.	-17254
▁于是	-17255
丁俊晖	-17256
两学一	-17257
中秋节	-17258
了一套	-17259
会更加	-17260
会降低	-17261
分钟的	-17262
创业板	-17263
只要是	-17264
实在是	-17265
忽视了	-17266
意思是	-17267
或其它	-17268
最适合	-17269
涉及的	-17270
火龙果	-17271
老人的	-17272
专项行动	-17273
各个方面	-17274
形成一个	-17275
森林公园	-17276
深思熟虑	-17277
燃料电池	-17278
爸爸妈妈	-17279
目前已经	-17280
金融科技	-17281
新发展格局	-17282
癫痫病医院	-17283
三元	-17284
之都	-17285
买房	-17286
低速	-17287
国人	-17288
墙上	-17289
天蝎	-17290
年份	-17291
文案	-17292
斩获	-17293
新乡	-17294
洗发	-17295
测算	-17296
現象	-17297
痊愈	-17298
白点	-17299
盛典	-17300
而解	-17301
肝癌	-17302
肩膀	-17303
菜肴	-17304
誓言	-17305
購買	-17306
钢格	-17307
雄鹿	-17308
他们将	-17309
危险的	-17310
发展新	-17311
只是一	-17312
工作台	-17313
当中的	-17314
目标的	-17315
调味品	-17316
透明的	-17317
▁适用于	-17318
中超联赛	-17319
互利共赢	-17320
发布公告	-17321
可以降低	-17322
各不相同	-17323
家庭教育	-17324
技术应用	-17325
操作系统	-17326
经济运行	-17327
诚实守信	-17328
采取措施	-17329
首席执行官	-17330
与否	-17331
中被	-17332
兴业	-17333
军委	-17334
卧式	-17335
处以	-17336
外籍	-17337
富豪	-17338
应收	-17339
归纳	-17340
扰乱	-17341
抢抓	-17342
敬意	-17343
沙拉	-17344
波尔	-17345
清算	-17346
真石	-17347
章节	-17348
粮油	-17349
置身	-17350
脱色	-17351
跳舞	-17352
过得	-17353
遮盖	-17354
须经	-17355
高涨	-17356
▁只有	-17357
与现代	-17358
专访时	-17359
另一方	-17360
型白酒	-17361
处理好	-17362
大多是	-17363
想要的	-17364
所在的	-17365
技术在	-17366
等优势	-17367
级以上	-17368
而努力	-17369
范围的	-17370
铁矿石	-17371
青春痘	-17372
非常多	-17373
1100	-17374
▁100	-17375
党的领导	-17376
公益事业	-17377
副理事长	-17378
在我们的	-17379
实践经验	-17380
应急预案	-17381
建筑行业	-17382
提供一个	-17383
旅游景点	-17384
有很多的	-17385
财产安全	-17386
十分重要的	-17387
的产品质量	-17388
9、	-17389
万事	-17390
三轮	-17391
不法	-17392
中建	-17393
二代	-17394
化瘀	-17395
南市	-17396
南美	-17397
壁纸	-17398
姆巴	-17399
对讲	-17400
巴拉	-17401
强者	-17402
手機	-17403
投注	-17404
挪威	-17405
换乘	-17406
推拉	-17407
新手	-17408
早早	-17409
标注	-17410
火力	-17411
直达	-17412
粘土	-17413
置换	-17414
考证	-17415
良心	-17416
贮藏	-17417
跑到	-17418
醋酸	-17419
重启	-17420
餐厨	-17421
香菜	-17422
双方的	-17423
回顾了	-17424
好不好	-17425
工人的	-17426
年平均	-17427
患者应	-17428
惊人的	-17429
期间的	-17430
理论上	-17431
病原体	-17432
的办法	-17433
看一下	-17434
部电影	-17435
产业园区	-17436
国内市场	-17437
投资基金	-17438
目前正在	-17439
离子电池	-17440
还会出现	-17441
青年教师	-17442
心血管疾病	-17443
acebook	-17444
RO	-17445
TA	-17446
▁光	-17447
▁回	-17448
▁把	-17449
▁饰	-17450
一新	-17451
七个	-17452
也给	-17453
交友	-17454
共和	-17455
兼备	-17456
函数	-17457
变大	-17458
后备	-17459
喷射	-17460
地把	-17461
封口	-17462
就地	-17463
山脉	-17464
建模	-17465
敏捷	-17466
毁灭	-17467
每股	-17468
耐受	-17469
蓝牙	-17470
解说	-17471
走的	-17472
身价	-17473
轴向	-17474
锅里	-17475
▁生活	-17476
▁网络	-17477
加强了	-17478
变电站	-17479
她们的	-17480
干净的	-17481
抗腐蚀	-17482
现场的	-17483
电视机	-17484
的客户	-17485
的水分	-17486
等环节	-17487
类食物	-17488
预期的	-17489
中心城市	-17490
从来没有	-17491
是一样的	-17492
物流运输	-17493
这种现象	-17494
进行全面	-17495
工程院院士	-17496
皇家马德里	-17497
主权	-17498
乌拉	-17499
伤残	-17500
全家	-17501
土建	-17502
对人	-17503
屡屡	-17504
干的	-17505
年里	-17506
并列	-17507
征服	-17508
挽救	-17509
文具	-17510
片段	-17511
粒径	-17512
血脉	-17513
越发	-17514
酶的	-17515
银保	-17516
高超	-17517
▁人生	-17518
在很多	-17519
岁以下	-17520
张继科	-17521
我们所	-17522
等重大	-17523
计划的	-17524
象征着	-17525
颗粒物	-17526
产品销售	-17527
任何一个	-17528
公益活动	-17529
可能出现	-17530
奥林匹克	-17531
安全保障	-17532
报名参加	-17533
环境监测	-17534
装饰材料	-17535
交流与合作	-17536
参加了会议	-17537
是很重要的	-17538
灵芝孢子粉	-17539
科学与技术	-17540
2~	-17541
2～	-17542
RS	-17543
▁电	-17544
两组	-17545
伊始	-17546
似的	-17547
公报	-17548
冷的	-17549
化痰	-17550
召回	-17551
強度	-17552
强行	-17553
当我	-17554
恢復	-17555
报刊	-17556
收官	-17557
新网	-17558
歌词	-17559
毗邻	-17560
毛病	-17561
火的	-17562
状元	-17563
男单	-17564
留守	-17565
耐水	-17566
花草	-17567
關鍵	-17568
SCI	-17569
依然是	-17570
力量的	-17571
反应釜	-17572
多喝水	-17573
希望在	-17574
性发作	-17575
等企业	-17576
絮凝剂	-17577
级别的	-17578
重要性	-17579
取得胜利	-17580
成员单位	-17581
所以对于	-17582
推广应用	-17583
来之不易	-17584
等行业的	-17585
纪委监委	-17586
调查显示	-17587
高度评价	-17588
生产和销售	-17589
的发展趋势	-17590
03	-17591
MI	-17592
不服	-17593
两点	-17594
为由	-17595
乙肝	-17596
人到	-17597
余种	-17598
分流	-17599
副总	-17600
又可	-17601
固态	-17602
多糖	-17603
失踪	-17604
奈何	-17605
奉行	-17606
如其	-17607
尽情	-17608
工矿	-17609
弊端	-17610
松茸	-17611
正直	-17612
独行	-17613
相伴	-17614
胜任	-17615
自如	-17616
設施	-17617
證明	-17618
让其	-17619
该院	-17620
还被	-17621
选题	-17622
38.	-17623
不规律	-17624
中医院	-17625
丰富了	-17626
介质的	-17627
代表作	-17628
克服了	-17629
和他的	-17630
是公司	-17631
植物油	-17632
用什么	-17633
第三届	-17634
自然界	-17635
要通过	-17636
会员单位	-17637
原因之一	-17638
团结带领	-17639
大家一起	-17640
对人体的	-17641
族自治县	-17642
本科学历	-17643
本身就是	-17644
。2010	-17645
下面我们就	-17646
信息化建设	-17647
太阳能电池	-17648
现实生活中	-17649
诱发白癜风	-17650
▁卡	-17651
、9	-17652
一刻	-17653
勘探	-17654
十个	-17655
却又	-17656
在這	-17657
少见	-17658
巨蟹	-17659
意見	-17660
提振	-17661
浮动	-17662
经受	-17663
绘制	-17664
腾飞	-17665
英國	-17666
起动	-17667
轮廓	-17668
过错	-17669
遇难	-17670
3.2	-17671
不规范	-17672
以服务	-17673
助学金	-17674
参与到	-17675
商学院	-17676
均采用	-17677
大中型	-17678
我们党	-17679
我们还	-17680
排放量	-17681
管理层	-17682
自己是	-17683
认可的	-17684
再接再厉	-17685
出现白斑	-17686
动脉硬化	-17687
基本情况	-17688
消防救援	-17689
深入人心	-17690
积极主动	-17691
设备安装	-17692
齐心协力	-17693
发挥重要作用	-17694
▁超	-17695
丧生	-17696
事的	-17697
交响	-17698
原先	-17699
各市	-17700
地貌	-17701
多发	-17702
多台	-17703
循環	-17704
投出	-17705
抽动	-17706
浮雕	-17707
的微	-17708
绝佳	-17709
追捧	-17710
钱财	-17711
颇为	-17712
▁利用	-17713
也逐渐	-17714
反映出	-17715
发生于	-17716
和一个	-17717
根本性	-17718
比其他	-17719
的有关	-17720
第一届	-17721
肾功能	-17722
落实到	-17723
融入到	-17724
诺贝尔	-17725
不良情绪	-17726
主要产品	-17727
很重要的	-17728
所以患者	-17729
热烈欢迎	-17730
RC	-17731
▁生	-17732
了然	-17733
交错	-17734
会更	-17735
军区	-17736
创下	-17737
動力	-17738
原著	-17739
吃完	-17740
后可	-17741
和王	-17742
在哪	-17743
差点	-17744
成正	-17745
挂钩	-17746
无聊	-17747
激增	-17748
爱岗	-17749
真挚	-17750
福祉	-17751
立的	-17752
等你	-17753
答卷	-17754
缺水	-17755
老将	-17756
足坛	-17757
进货	-17758
进驻	-17759
遮挡	-17760
钟表	-17761
防霉	-17762
风清	-17763
马龙	-17764
104	-17765
但随着	-17766
内容和	-17767
原发性	-17768
发出的	-17769
同时对	-17770
国家对	-17771
国民党	-17772
在会上	-17773
地坪漆	-17774
就不要	-17775
很快就	-17776
无害化	-17777
是一座	-17778
比上月	-17779
煤化工	-17780
的事项	-17781
祖国的	-17782
自我的	-17783
节目的	-17784
软硬件	-17785
中国制造	-17786
优秀人才	-17787
保健食品	-17788
合作交流	-17789
国际社会	-17790
充分体现了	-17791
有针对性的	-17792
规模最大的	-17793
工程有限公司	-17794
6,	-17795
一波	-17796
不外	-17797
东亚	-17798
了新	-17799
井盖	-17800
作曲	-17801
公牛	-17802
共进	-17803
升值	-17804
吃得	-17805
團體	-17806
年第	-17807
应运	-17808
恒星	-17809
插座	-17810
收受	-17811
文书	-17812
暴跌	-17813
此举	-17814
漫长	-17815
王的	-17816
球后	-17817
甄选	-17818
病患	-17819
相對	-17820
积聚	-17821
胜地	-17822
自驾	-17823
花期	-17824
路透	-17825
遗迹	-17826
问世	-17827
黄酮	-17828
;2、	-17829
了解下	-17830
公众号	-17831
妇产科	-17832
对学生	-17833
封闭式	-17834
本泽马	-17835
用清水	-17836
等地区	-17837
而发生	-17838
被害人	-17839
诸葛亮	-17840
通报了	-17841
高尔夫	-17842
也会影响	-17843
党建引领	-17844
其实就是	-17845
制作工艺	-17846
家庭成员	-17847
特色鲜明	-17848
自然环境	-17849
视觉效果	-17850
造成严重	-17851
▁会议要求	-17852
委员会主任	-17853
经济技术开发区	-17854
一向	-17855
一头	-17856
临界	-17857
会很	-17858
传出	-17859
低头	-17860
傍晚	-17861
北极	-17862
却不	-17863
和外	-17864
喷洒	-17865
在那	-17866
大中	-17867
季军	-17868
引流	-17869
换气	-17870
油性	-17871
父子	-17872
现身	-17873
考场	-17874
耗费	-17875
胸闷	-17876
芜湖	-17877
隔绝	-17878
電腦	-17879
香油	-17880
哺乳期	-17881
完整性	-17882
对这些	-17883
平台和	-17884
开设了	-17885
性刺激	-17886
有网友	-17887
正因为	-17888
清洗机	-17889
灵敏度	-17890
的原理	-17891
等大型	-17892
20%,	-17893
gong	-17894
。。。。	-17895
从而影响	-17896
传感器的	-17897
大力弘扬	-17898
并处罚金	-17899
有可能是	-17900
的影响力	-17901
第二阶段	-17902
自动驾驶	-17903
艺术设计	-17904
进行调整	-17905
大家都知道	-17906
市场为导向	-17907
轻质隔墙板	-17908
子宫内膜异位	-17909
Mo	-17910
”?	-17911
▁!	-17912
久坐	-17913
他曾	-17914
分担	-17915
动工	-17916
卡斯	-17917
各异	-17918
国会	-17919
如实	-17920
展台	-17921
建工	-17922
成考	-17923
才行	-17924
按键	-17925
斯托	-17926
明智	-17927
水域	-17928
潜心	-17929
由来	-17930
發表	-17931
省力	-17932
童话	-17933
置信	-17934
耳机	-17935
起义	-17936
跌倒	-17937
阴囊	-17938
不得已	-17939
与创新	-17940
为全球	-17941
分布于	-17942
后期的	-17943
含水量	-17944
对产品	-17945
是很有	-17946
有保障	-17947
的精彩	-17948
等方法	-17949
转化成	-17950
▁深圳市	-17951
内容丰富	-17952
如何选择	-17953
服务能力	-17954
知道自己	-17955
饮食方面	-17956
博士生导师	-17957
自己的力量	-17958
▁也	-17959
▁地	-17960
一脚	-17961
三千	-17962
你好	-17963
关村	-17964
冷漠	-17965
化物	-17966
多喝	-17967
多食	-17968
小额	-17969
年薪	-17970
成药	-17971
所欲	-17972
抬头	-17973
有何	-17974
有余	-17975
特拉	-17976
特邀	-17977
穿梭	-17978
翻新	-17979
芬兰	-17980
被测	-17981
讲授	-17982
迷信	-17983
追加	-17984
酵母	-17985
醫生	-17986
電池	-17987
黄海	-17988
COD	-17989
▁英国	-17990
一切都	-17991
了一段	-17992
公司已	-17993
和心理	-17994
噪音低	-17995
在城市	-17996
在当地	-17997
好处的	-17998
提取物	-17999
甚至在	-18000
的高效	-18001
睾丸炎	-18002
贸市场	-18003
都属于	-18004
采取了	-18005
黑木耳	-18006
30%,	-18007
4500	-18008
▁世界杯	-18009
▁无论是	-18010
人脸识别	-18011
共产主义	-18012
参加活动	-18013
高峰论坛	-18014
▁查看更多	-18015
产品的研发	-18016
具有很高的	-18017
有着丰富的	-18018
企业技术中心	-18019
以求	-18020
伟业	-18021
光彩	-18022
及各	-18023
古巴	-18024
召集	-18025
同樣	-18026
和尚	-18027
四强	-18028
四方	-18029
回味	-18030
展品	-18031
建军	-18032
征战	-18033
惠及	-18034
把我	-18035
挂在	-18036
推拿	-18037
死后	-18038
當中	-18039
督察	-18040
磁力	-18041
磅礴	-18042
私自	-18043
精通	-18044
胎盘	-18045
轻便	-18046
都想	-18047
酒业	-18048
阿联	-18049
限期	-18050
高雄	-18051
,14	-18052
ord	-18053
和一些	-18054
国际上	-18055
大型的	-18056
最佳的	-18057
有人说	-18058
洗涤剂	-18059
演唱会	-18060
的资金	-18061
等材料	-18062
为您服务	-18063
伺服电机	-18064
但是由于	-18065
促进作用	-18066
就业方向	-18067
建筑节能	-18068
法律规定	-18069
游乐设备	-18070
自然灾害	-18071
量身定制	-18072
的大力支持	-18073
中转	-18074
为我	-18075
书店	-18076
交联	-18077
党务	-18078
咀嚼	-18079
天府	-18080
学制	-18081
家家	-18082
布里	-18083
幽门	-18084
廊坊	-18085
挣扎	-18086
排烟	-18087
明清	-18088
检索	-18089
科长	-18090
粘附	-18091
辦公	-18092
連續	-18093
開放	-18094
鱼肉	-18095
-60	-18096
2.3	-18097
▁03	-18098
▁安全	-18099
▁建立	-18100
▁河北	-18101
▁简介	-18102
不会被	-18103
主人公	-18104
到最后	-18105
名思义	-18106
并及时	-18107
成本的	-18108
新赛季	-18109
显示器	-18110
深深的	-18111
耐候性	-18112
耐化学	-18113
近期的	-18114
邓小平	-18115
高风险	-18116
1992	-18117
企业经营	-18118
北京国安	-18119
启动仪式	-18120
品牌价值	-18121
在互联网	-18122
增强体质	-18123
应用技术	-18124
目前国内	-18125
是不一样的	-18126
战略合作协议	-18127
中国共产党成立	-18128
pe	-18129
▁w	-18130
▁山	-18131
之类	-18132
你不	-18133
凉爽	-18134
凭着	-18135
協會	-18136
占总	-18137
当好	-18138
扫码	-18139
找寻	-18140
标牌	-18141
每隔	-18142
缓缓	-18143
网信	-18144
罚球	-18145
翡翠	-18146
自带	-18147
陈述	-18148
风尚	-18149
麦当	-18150
天花板	-18151
姆巴佩	-18152
对社会	-18153
小龙虾	-18154
年获得	-18155
必须有	-18156
指定的	-18157
最初的	-18158
电解质	-18159
的胜利	-18160
管理学	-18161
美国人	-18162
过度的	-18163
一旦发现	-18164
中国文化	-18165
工作任务	-18166
帮助他们	-18167
引起重视	-18168
操作简便	-18169
施工单位	-18170
理论知识	-18171
顾名思义	-18172
▁另一方面	-18173
企业所得税	-18174
政府工作报告	-18175
07	-18176
▁百	-18177
三七	-18178
九龙	-18179
从容	-18180
佛罗	-18181
僵局	-18182
充滿	-18183
免征	-18184
单人	-18185
却被	-18186
及時	-18187
含糖	-18188
嗅觉	-18189
增塑	-18190
委屈	-18191
安康	-18192
当他	-18193
思议	-18194
拥堵	-18195
春夏	-18196
曲折	-18197
极度	-18198
点点	-18199
理发	-18200
白银	-18201
纖維	-18202
胞胎	-18203
至於	-18204
言而	-18205
不包括	-18206
东南部	-18207
便捷的	-18208
分会场	-18209
可能在	-18210
可能會	-18211
吸尘器	-18212
均匀的	-18213
对应的	-18214
或者说	-18215
指明了	-18216
检测及	-18217
洗干净	-18218
玻璃棉	-18219
的信念	-18220
的热门	-18221
的视频	-18222
贾克斯	-18223
还表示	-18224
一直坚持	-18225
可以增加	-18226
工作中的	-18227
很可能会	-18228
意义上的	-18229
绿水青山	-18230
先锋模范作用	-18231
SS	-18232
三月	-18233
个县	-18234
也已	-18235
克洛	-18236
冷热	-18237
判定	-18238
前方	-18239
四位	-18240
外力	-18241
弱的	-18242
文科	-18243
日记	-18244
时时	-18245
权重	-18246
灌木	-18247
画卷	-18248
瘦身	-18249
磨粉	-18250
绝热	-18251
美誉	-18252
血流	-18253
触及	-18254
越野	-18255
造林	-18256
鼻窦	-18257
齐聚	-18258
(10	-18259
all	-18260
一般都	-18261
你们的	-18262
和世界	-18263
和工业	-18264
在欧洲	-18265
女孩子	-18266
性功能	-18267
无任何	-18268
源热泵	-18269
的气氛	-18270
相适应	-18271
给排水	-18272
隶属于	-18273
家政服务	-18274
履职尽责	-18275
建设工作	-18276
我们已经	-18277
深入贯彻	-18278
的高质量	-18279
监管部门	-18280
空气净化	-18281
重复使用	-18282
含有大量的	-18283
有限公司成立于	-18284
▁米	-18285
上行	-18286
书本	-18287
克里	-18288
出海	-18289
剪纸	-18290
加载	-18291
同城	-18292
周四	-18293
存量	-18294
小品	-18295
工学	-18296
开出	-18297
德比	-18298
我家	-18299
日讯	-18300
易懂	-18301
星光	-18302
是小	-18303
暴食	-18304
有氧	-18305
畢業	-18306
礼貌	-18307
网购	-18308
美感	-18309
西蒙	-18310
讲好	-18311
越低	-18312
迎刃	-18313
选材	-18314
都对	-18315
防雷	-18316
首演	-18317
▁4)	-18318
▁50	-18319
一步步	-18320
不明显	-18321
优秀奖	-18322
保障了	-18323
入口处	-18324
另一半	-18325
可以向	-18326
将根据	-18327
方向的	-18328
方式和	-18329
来完成	-18330
次会议	-18331
每一天	-18332
润滑剂	-18333
游泳池	-18334
玩家们	-18335
研究室	-18336
精湛的	-18337
10%,	-18338
产品开发	-18339
佩戴口罩	-18340
其中之一	-18341
制度改革	-18342
常务理事	-18343
环境卫生	-18344
相关人员	-18345
设备制造	-18346
转型发展	-18347
迎刃而解	-18348
▁本次活动	-18349
经济开发区	-18350
Cl	-18351
ph	-18352
中俄	-18353
之风	-18354
会将	-18355
全景	-18356
务工	-18357
北斗	-18358
區域	-18359
告訴	-18360
头顶	-18361
好在	-18362
对战	-18363
接轨	-18364
月季	-18365
横跨	-18366
洞察	-18367
满贯	-18368
漂浮	-18369
父親	-18370
當地	-18371
的李	-18372
競爭	-18373
逃跑	-18374
集结	-18375
ind	-18376
亚克力	-18377
他希望	-18378
各企业	-18379
如何在	-18380
应尽量	-18381
座的人	-18382
是完全	-18383
水溶液	-18384
由国家	-18385
第一部	-18386
等措施	-18387
等重要	-18388
补助金	-18389
长沙市	-18390
会展中心	-18391
在此期间	-18392
中国共产党的	-18393
安全生产工作	-18394
Si	-18395
ge	-18396
事項	-18397
以最	-18398
博润	-18399
呼声	-18400
大巴	-18401
守住	-18402
对付	-18403
尾气	-18404
干线	-18405
心臟	-18406
我厂	-18407
招牌	-18408
改动	-18409
柿子	-18410
滤芯	-18411
烘烤	-18412
私营	-18413
自建	-18414
这笔	-18415
远处	-18416
通往	-18417
钣金	-18418
随处	-18419
霍尔	-18420
韦德	-18421
顏色	-18422
骗取	-18423
ard	-18424
▁任何	-18425
一次次	-18426
中长期	-18427
亚运会	-18428
做好了	-18429
准确地	-18430
困难和	-18431
如果要	-18432
家公司	-18433
寒冷的	-18434
手中的	-18435
挖掘机	-18436
日本队	-18437
欧足联	-18438
氏硬度	-18439
激发了	-18440
的医院	-18441
的情形	-18442
资料图	-18443
交易平台	-18444
体育总局	-18445
可以保证	-18446
旅游资源	-18447
砥砺前行	-18448
高品质的	-18449
,2011	-18450
。2008	-18451
(5	-18452
▁石	-18453
上都	-18454
不由	-18455
与水	-18456
作案	-18457
储量	-18458
公关	-18459
减税	-18460
出赛	-18461
刊登	-18462
功用	-18463
后将	-18464
在各	-18465
如是	-18466
嫦娥	-18467
布尔	-18468
开好	-18469
弱者	-18470
强壮	-18471
微米	-18472
性感	-18473
捞出	-18474
文的	-18475
文联	-18476
方能	-18477
星球	-18478
比率	-18479
沸腾	-18480
浑身	-18481
满怀	-18482
滤波	-18483
物件	-18484
特质	-18485
甜食	-18486
的正	-18487
荷叶	-18488
议程	-18489
谈论	-18490
-25	-18491
2.8	-18492
ity	-18493
▁提供	-18494
▁每天	-18495
▁需要	-18496
开展的	-18497
成本和	-18498
教研室	-18499
明白了	-18500
的发育	-18501
的宣传	-18502
的热爱	-18503
的运行	-18504
的都是	-18505
股份制	-18506
节日的	-18507
这不仅	-18508
鹅卵石	-18509
龟头炎	-18510
不同程度	-18511
主要分为	-18512
依法治国	-18513
可以用于	-18514
学院院长	-18515
实施细则	-18516
年的时间	-18517
承载能力	-18518
真正做到	-18519
统计数据	-18520
ation	-18521
汽车零部件	-18522
工程技术人员	-18523
随着时间的推移	-18524
党的二十大胜利召开	-18525
DI	-18526
RE	-18527
万能	-18528
储蓄	-18529
克林	-18530
前辈	-18531
反抗	-18532
受热	-18533
均已	-18534
坎坷	-18535
增设	-18536
壁厚	-18537
多点	-18538
微粉	-18539
性地	-18540
性病	-18541
挑戰	-18542
摔倒	-18543
改装	-18544
新京	-18545
新秀	-18546
毛孔	-18547
水等	-18548
流向	-18549
生子	-18550
痘痘	-18551
看点	-18552
管家	-18553
西药	-18554
要先	-18555
运载	-18556
远方	-18557
邪教	-18558
雨雪	-18559
2.7	-18560
上一层	-18561
不属于	-18562
不要在	-18563
可进行	-18564
名球员	-18565
和其它	-18566
在各种	-18567
成长的	-18568
我没有	-18569
手术室	-18570
新业态	-18571
水电站	-18572
犯罪的	-18573
的商品	-18574
的高低	-18575
而且是	-18576
转换成	-18577
较上年	-18578
▁报道称	-18579
中国女足	-18580
医疗保健	-18581
发展空间	-18582
宏观经济	-18583
实力雄厚	-18584
技术人才	-18585
教学工作	-18586
新时代的	-18587
联席会议	-18588
质量为本	-18589
东京奥运会	-18590
人民为中心	-18591
政府信息公开	-18592
产品广泛应用于	-18593
ak	-18594
▁何	-18595
▁另	-18596
▁江	-18597
人权	-18598
以為	-18599
佼佼	-18600
再去	-18601
加分	-18602
发球	-18603
同性	-18604
壮观	-18605
学分	-18606
幾乎	-18607
文昌	-18608
无须	-18609
此役	-18610
烘焙	-18611
的她	-18612
皮下	-18613
益处	-18614
知晓	-18615
立春	-18616
追赶	-18617
韵味	-18618
125	-18619
▁坚持	-18620
元素的	-18621
出发点	-18622
培养了	-18623
市场和	-18624
普通话	-18625
比较小	-18626
沈阳市	-18627
消化的	-18628
男朋友	-18629
目标和	-18630
科维奇	-18631
签署了	-18632
类物质	-18633
那么在	-18634
1990	-18635
一级学科	-18636
下面我们	-18637
交易中心	-18638
优秀教师	-18639
充分认识	-18640
党和人民	-18641
可以考虑	-18642
可以避免	-18643
型银屑病	-18644
培养学生	-18645
政治建设	-18646
活动现场	-18647
牢牢把握	-18648
考试成绩	-18649
越来越好	-18650
一定要选择	-18651
发展中国家	-18652
比上年同期	-18653
:4	-18654
▁郑	-18655
一词	-18656
三期	-18657
买的	-18658
了个	-18659
人有	-18660
住户	-18661
前夕	-18662
勒沃	-18663
原体	-18664
吃到	-18665
城建	-18666
岛屿	-18667
從而	-18668
忌食	-18669
我还	-18670
旧址	-18671
期末	-18672
栖息	-18673
植被	-18674
母猪	-18675
淮河	-18676
深层	-18677
渲染	-18678
源泉	-18679
白热	-18680
美团	-18681
群岛	-18682
裝置	-18683
隐瞒	-18684
领略	-18685
0.7	-18686
上升到	-18687
乳白色	-18688
了下来	-18689
人心的	-18690
场角逐	-18691
尼西亚	-18692
已成功	-18693
年产值	-18694
并提出	-18695
才会有	-18696
抗衰老	-18697
不同的是	-18698
中共党员	-18699
中华文化	-18700
为自己的	-18701
主要原因	-18702
出现异常	-18703
参加工作	-18704
发展机遇	-18705
多种多样	-18706
就业前景	-18707
就是这样	-18708
设计理念	-18709
高职院校	-18710
新中国成立	-18711
的高新技术	-18712
开展经营活动	-18713
可以根据自己的	-18714
▁梁	-18715
两级	-18716
也从	-18717
人類	-18718
会所	-18719
伦理	-18720
免受	-18721
全域	-18722
其所	-18723
和张	-18724
头疼	-18725
居于	-18726
建华	-18727
或少	-18728
扫黑	-18729
指向	-18730
村镇	-18731
核定	-18732
玉兰	-18733
票价	-18734
美金	-18735
诸侯	-18736
身着	-18737
零下	-18738
35.	-18739
IPO	-18740
五粮液	-18741
和学生	-18742
在任何	-18743
奥委会	-18744
常规赛	-18745
按要求	-18746
方便的	-18747
有的是	-18748
林书豪	-18749
生动的	-18750
生态链	-18751
秦皇岛	-18752
突破了	-18753
粉丝们	-18754
肯定会	-18755
落实好	-18756
高度的	-18757
一些问题	-18758
严重不足	-18759
党委常委	-18760
在国内外	-18761
外形美观	-18762
如果发现	-18763
开发利用	-18764
有更多的	-18765
比较容易	-18766
综合治理	-18767
质量第一	-18768
迅速发展	-18769
市委副书记	-18770
根据不同的	-18771
▁我们都知道	-18772
du	-18773
▁青	-18774
一笑	-18775
七大	-18776
上月	-18777
不渝	-18778
中途	-18779
丰满	-18780
分列	-18781
切口	-18782
北约	-18783
可信	-18784
吵架	-18785
容许	-18786
导管	-18787
库森	-18788
往下	-18789
成績	-18790
推薦	-18791
有钱	-18792
未曾	-18793
梦中	-18794
沙尘	-18795
波特	-18796
用具	-18797
续航	-18798
考点	-18799
花瓣	-18800
谐波	-18801
车企	-18802
通话	-18803
上进行	-18804
切入点	-18805
单纯的	-18806
和信息	-18807
如果能	-18808
本单位	-18809
治疗后	-18810
清明节	-18811
电容器	-18812
的成分	-18813
的金属	-18814
真石漆	-18815
观众们	-18816
诊断为	-18817
印象深刻	-18818
永远不会	-18819
电子技术	-18820
相关企业	-18821
研究机构	-18822
示范企业	-18823
经济建设	-18824
规划建设	-18825
都有可能	-18826
防护措施	-18827
党的百年奋斗	-18828
▁杜	-18829
中華	-18830
之于	-18831
五是	-18832
全称	-18833
厚望	-18834
反正	-18835
叔叔	-18836
和李	-18837
商铺	-18838
夺下	-18839
家常	-18840
带式	-18841
弗拉	-18842
惊人	-18843
极力	-18844
民进	-18845
溯源	-18846
的面	-18847
结垢	-18848
罪的	-18849
聲明	-18850
设法	-18851
账款	-18852
贴切	-18853
贴标	-18854
采矿	-18855
金黄	-18856
阶梯	-18857
领土	-18858
马云	-18859
0.9	-18860
2.6	-18861
、15	-18862
了这个	-18863
和使命	-18864
抗病毒	-18865
改善了	-18866
最大化	-18867
来确定	-18868
热电偶	-18869
爱情的	-18870
现如今	-18871
要考虑	-18872
还是会	-18873
:00,	-18874
团队合作	-18875
密切关注	-18876
所以大家	-18877
文化底蕴	-18878
美国总统	-18879
到正规医院	-18880
提供了一个	-18881
白癜风的症状	-18882
会是	-18883
冲破	-18884
刚好	-18885
功底	-18886
动车	-18887
图表	-18888
增至	-18889
已婚	-18890
布料	-18891
布线	-18892
往前	-18893
德育	-18894
忧虑	-18895
排斥	-18896
推销	-18897
无声	-18898
暴饮	-18899
最受	-18900
桂花	-18901
梗塞	-18902
民國	-18903
汕头	-18904
波罗	-18905
流泪	-18906
漏电	-18907
砂轮	-18908
立交	-18909
自此	-18910
酸甜	-18911
金华	-18912
闪烁	-18913
卷帘门	-18914
多年前	-18915
奶茶店	-18916
始终以	-18917
年成立	-18918
年我国	-18919
打开了	-18920
是采用	-18921
球员的	-18922
的区域	-18923
个人卫生	-18924
为了防止	-18925
十分重要	-18926
平方米的	-18927
执业药师	-18928
抗击疫情	-18929
沟通交流	-18930
管理平台	-18931
结构合理	-18932
自主品牌	-18933
记者表示	-18934
领先优势	-18935
拜仁慕尼黑	-18936
▁以上就是关于	-18937
学习宣传贯彻党的二十大精神	-18938
Ph	-18939
▁圖	-18940
下垂	-18941
二零	-18942
他又	-18943
利好	-18944
卵形	-18945
取向	-18946
吃药	-18947
后人	-18948
因果	-18949
大打	-18950
孝敬	-18951
学风	-18952
容忍	-18953
山顶	-18954
得住	-18955
心地	-18956
情緒	-18957
想的	-18958
抄袭	-18959
提议	-18960
杀害	-18961
树叶	-18962
洛夫	-18963
流转	-18964
深得	-18965
特地	-18966
现今	-18967
看望	-18968
称呼	-18969
移交	-18970
等高	-18971
纲领	-18972
纸上	-18973
绿叶	-18974
老挝	-18975
而过	-18976
菲尔	-18977
街区	-18978
补足	-18979
贩卖	-18980
这三	-18981
逃离	-18982
邮寄	-18983
酒类	-18984
闪电	-18985
陆军	-18986
▁塑料	-18987
▁想要	-18988
一些小	-18989
为代表	-18990
也更加	-18991
办主任	-18992
同时又	-18993
在新的	-18994
在讲话	-18995
太原市	-18996
尿道炎	-18997
报警器	-18998
教学楼	-18999
更年期	-19000
每个月	-19001
消息称	-19002
清洗剂	-19003
甚至会	-19004
白斑病	-19005
部分的	-19006
也是可以	-19007
保护作用	-19008
勒沃库森	-19009
化工原料	-19010
在游戏中	-19011
工作实际	-19012
服务企业	-19013
疾控中心	-19014
积极推动	-19015
维生素和	-19016
负责管理	-19017
雄安新区	-19018
副主任医师	-19019
广大客户的	-19020
控股有限公司	-19021
BB	-19022
▁首	-19023
一味	-19024
一汽	-19025
为大	-19026
入户	-19027
再创	-19028
分层	-19029
切莫	-19030
初衷	-19031
參考	-19032
启示	-19033
团团	-19034
城际	-19035
应以	-19036
战中	-19037
揭幕	-19038
收割	-19039
是与	-19040
校级	-19041
桂圆	-19042
梯队	-19043
海运	-19044
港股	-19045
电弧	-19046
研学	-19047
罐头	-19048
耐压	-19049
药效	-19050
谷物	-19051
運行	-19052
▁德国	-19053
不要太	-19054
不要让	-19055
交易的	-19056
他没有	-19057
佛山市	-19058
佼佼者	-19059
使我们	-19060
六个月	-19061
出一个	-19062
出不穷	-19063
创新和	-19064
占据了	-19065
图所示	-19066
并将其	-19067
应该在	-19068
想象的	-19069
模式的	-19070
玻璃瓶	-19071
白细胞	-19072
相当大	-19073
移动式	-19074
组组长	-19075
综合的	-19076
进口的	-19077
也得到了	-19078
应运而生	-19079
慢性疾病	-19080
财经大学	-19081
阿贾克斯	-19082
中级人民法院	-19083
党风廉政建设和	-19084
工程技术研究中心	-19085
两面	-19086
严守	-19087
中对	-19088
也比	-19089
佛法	-19090
周刊	-19091
型钢	-19092
好几	-19093
實驗	-19094
折弯	-19095
攻略	-19096
政权	-19097
椰子	-19098
正气	-19099
潜水	-19100
王者	-19101
疏导	-19102
的呢	-19103
的本	-19104
盾构	-19105
着的	-19106
红豆	-19107
自称	-19108
自营	-19109
血红	-19110
说服	-19111
车厢	-19112
邯郸	-19113
防风	-19114
马力	-19115
高远	-19116
123	-19117
▁步骤	-19118
中所含	-19119
副省长	-19120
可能与	-19121
复发的	-19122
就在于	-19123
干燥的	-19124
很明显	-19125
打造了	-19126
新品种	-19127
的联系	-19128
给人以	-19129
被人们	-19130
金刚石	-19131
一致认为	-19132
不利影响	-19133
产品品种	-19134
年世界杯	-19135
技术咨询	-19136
文明单位	-19137
环境优美	-19138
种类繁多	-19139
经久耐用	-19140
货物运输	-19141
。2011	-19142
企业的发展	-19143
工作领导小组	-19144
牛皮癣的治疗	-19145
?」	-19146
一审	-19147
专场	-19148
仍旧	-19149
休克	-19150
八强	-19151
共生	-19152
刚度	-19153
可乐	-19154
園區	-19155
地标	-19156
太湖	-19157
宽广	-19158
导率	-19159
展演	-19160
底料	-19161
开挖	-19162
我能	-19163
扭曲	-19164
拖欠	-19165
振东	-19166
敬请	-19167
时限	-19168
望着	-19169
波斯	-19170
波澜	-19171
泥土	-19172
牌子	-19173
独有	-19174
糖分	-19175
肿大	-19176
观摩	-19177
赛车	-19178
赢了	-19179
辜负	-19180
饼干	-19181
马路	-19182
▁1,	-19183
▁17	-19184
▁金属	-19185
个进球	-19186
了一支	-19187
亿千瓦	-19188
和产业	-19189
国庆节	-19190
心中有	-19191
收获了	-19192
液压油	-19193
破坏了	-19194
等不同	-19195
等多家	-19196
能起到	-19197
自己和	-19198
被视为	-19199
资源化	-19200
风险的	-19201
▁15、	-19202
四个方面	-19203
城乡居民	-19204
工作情况	-19205
技能大赛	-19206
政策措施	-19207
理财产品	-19208
科研人员	-19209
管理条例	-19210
这个角色	-19211
社会科学院	-19212
人力资源管理	-19213
大家纷纷表示	-19214
自然科学基金	-19215
-8	-19216
3～	-19217
St	-19218
下乡	-19219
东海	-19220
东道	-19221
修缮	-19222
全是	-19223
内裤	-19224
再一	-19225
华润	-19226
名副	-19227
周日	-19228
在全	-19229
基部	-19230
大到	-19231
姜片	-19232
安居	-19233
小腿	-19234
应与	-19235
心肺	-19236
打扫	-19237
捐献	-19238
早前	-19239
校服	-19240
民意	-19241
球形	-19242
瞩目	-19243
經歷	-19244
辩证	-19245
进气	-19246
高点	-19247
鱼的	-19248
ort	-19249
zhi	-19250
▁建筑	-19251
什么样	-19252
以此来	-19253
制定的	-19254
前身为	-19255
动物的	-19256
在同一	-19257
多余的	-19258
就是指	-19259
尼克斯	-19260
帮助的	-19261
开发了	-19262
时间是	-19263
是导致	-19264
显而易	-19265
望远镜	-19266
牵涉到	-19267
的魅力	-19268
空间站	-19269
解决的	-19270
产生影响	-19271
对白癜风	-19272
层出不穷	-19273
持续推进	-19274
的环境下	-19275
稳定性和	-19276
突出问题	-19277
风景名胜	-19278
国家税务总局	-19279
当前和今后一个时期	-19280
的出现仍然代表了一定的意义	-19281
世代	-19282
东路	-19283
中非	-19284
之久	-19285
从前	-19286
偏高	-19287
只剩	-19288
号的	-19289
客商	-19290
實力	-19291
患了	-19292
我都	-19293
断电	-19294
断路	-19295
李晓	-19296
流速	-19297
浑浊	-19298
烧开	-19299
癌的	-19300
白宫	-19301
省时	-19302
矢志	-19303
粘稠	-19304
紧随	-19305
綠色	-19306
终生	-19307
自查	-19308
舉行	-19309
觀察	-19310
赫尔	-19311
适配	-19312
逐漸	-19313
領導	-19314
馆长	-19315
高大	-19316
CPI	-19317
▁梦境	-19318
▁特点	-19319
▁男性	-19320
产品及	-19321
再进行	-19322
副县长	-19323
就好像	-19324
总比分	-19325
挤塑板	-19326
细致的	-19327
适合的	-19328
万立方米	-19329
全体师生	-19330
工作要求	-19331
得出结论	-19332
正在进行	-19333
睡眠质量	-19334
统一思想	-19335
还可能会	-19336
重中之重	-19337
新华社记者	-19338
内蒙古自治区	-19339
EX	-19340
▁夏	-19341
▁平	-19342
为题	-19343
争冠	-19344
以南	-19345
住所	-19346
前海	-19347
同质	-19348
培訓	-19349
奥迪	-19350
它与	-19351
底漆	-19352
心悸	-19353
或用	-19354
扁豆	-19355
托运	-19356
日月	-19357
是会	-19358
最短	-19359
术前	-19360
林木	-19361
水生	-19362
求实	-19363
流的	-19364
猛龙	-19365
献礼	-19366
盖上	-19367
自理	-19368
萨拉	-19369
試驗	-19370
议案	-19371
诚意	-19372
费率	-19373
辨识	-19374
迎合	-19375
逆变	-19376
遵纪	-19377
重塑	-19378
领事	-19379
驰名	-19380
106	-19381
GMP	-19382
▁双方	-19383
。3.	-19384
人物的	-19385
始终把	-19386
局限于	-19387
巴黎圣	-19388
是解决	-19389
最早的	-19390
症患者	-19391
的经典	-19392
虽然在	-19393
部主任	-19394
▁下一步	-19395
人民生活	-19396
其他一切	-19397
压力容器	-19398
同学们的	-19399
成套设备	-19400
担当作为	-19401
浙江大学	-19402
特别适合	-19403
目前我国	-19404
重大意义	-19405
习近平主席	-19406
皮肤病医院	-19407
科技成果转化	-19408
(4	-19409
+1	-19410
la	-19411
▁a	-19412
▁谢	-19413
上前	-19414
不只	-19415
之子	-19416
即为	-19417
周三	-19418
固执	-19419
备份	-19420
外貌	-19421
建校	-19422
开端	-19423
构图	-19424
楼层	-19425
热熔	-19426
特尔	-19427
真皮	-19428
福田	-19429
粉状	-19430
补时	-19431
解剖	-19432
解散	-19433
说出	-19434
长足	-19435
240	-19436
ren	-19437
▁要想	-19438
万余元	-19439
为保证	-19440
付出的	-19441
包括了	-19442
在工业	-19443
天左右	-19444
就容易	-19445
崭新的	-19446
影视剧	-19447
改革的	-19448
新工艺	-19449
无线电	-19450
的一款	-19451
的情感	-19452
研究与	-19453
确立了	-19454
自己对	-19455
色彩的	-19456
要积极	-19457
中国足球	-19458
使用效果	-19459
保护环境	-19460
做好准备	-19461
利润总额	-19462
及时处理	-19463
安排部署	-19464
工商管理	-19465
建言献策	-19466
循环利用	-19467
政府采购	-19468
易燃易爆	-19469
科技公司	-19470
结合自身	-19471
股票代码	-19472
融为一体	-19473
辅助生殖	-19474
主要集中在	-19475
有效的治疗	-19476
党的二十大报告	-19477
供给侧结构性改革	-19478
第二个百年奋斗目标	-19479
-7	-19480
hu	-19481
▁>	-19482
▁常	-19483
人不	-19484
你有	-19485
华山	-19486
南路	-19487
唐山	-19488
因伤	-19489
国奥	-19490
媳妇	-19491
尔蒙	-19492
尾巴	-19493
工控	-19494
底下	-19495
成名	-19496
房地	-19497
摩羯	-19498
欠佳	-19499
民心	-19500
烫伤	-19501
瑞拉	-19502
磨合	-19503
积淀	-19504
置疑	-19505
者们	-19506
耳聋	-19507
脓性	-19508
自制	-19509
融化	-19510
被困	-19511
谈谈	-19512
邀請	-19513
限定	-19514
集约	-19515
體系	-19516
▁国内	-19517
▁电子	-19518
一生的	-19519
不能用	-19520
从源头	-19521
信息和	-19522
可使用	-19523
可行的	-19524
和化学	-19525
和提高	-19526
多注意	-19527
总冠军	-19528
恢复到	-19529
打下了	-19530
描写了	-19531
更多地	-19532
有害的	-19533
有趣的	-19534
的商业	-19535
等食物	-19536
经典的	-19537
耐冲击	-19538
规定了	-19539
还必须	-19540
附加赛	-19541
一定程度	-19542
临床经验	-19543
典型案例	-19544
凝心聚力	-19545
努力学习	-19546
哪家医院	-19547
开展工作	-19548
湖南卫视	-19549
等多方面	-19550
社会的发展	-19551
▁值得注意的是	-19552
▁+	-19553
▁Z	-19554
一目	-19555
他命	-19556
作弊	-19557
像素	-19558
兔子	-19559
军的	-19560
剧照	-19561
动荡	-19562
印制	-19563
吸纳	-19564
大体	-19565
宜昌	-19566
山河	-19567
巾帼	-19568
店内	-19569
有其	-19570
有名	-19571
有线	-19572
朝气	-19573
束缚	-19574
油品	-19575
痛风	-19576
盆栽	-19577
穿刺	-19578
管和	-19579
血壓	-19580
被判	-19581
身亡	-19582
车程	-19583
返还	-19584
退还	-19585
通关	-19586
酗酒	-19587
锤炼	-19588
黄蜂	-19589
ABS	-19590
▁--	-19591
▁、“	-19592
▁推荐	-19593
但是一	-19594
和处理	-19595
在比赛	-19596
安东尼	-19597
常见病	-19598
步行者	-19599
毕业证	-19600
生长的	-19601
中国国家	-19602
中国女排	-19603
全民健身	-19604
可以提供	-19605
年轻人的	-19606
开拓进取	-19607
引领作用	-19608
现在很多	-19609
生物技术	-19610
继续保持	-19611
让消费者	-19612
的主要成分	-19613
3~	-19614
EV	-19615
MO	-19616
PG	-19617
上手	-19618
主板	-19619
主食	-19620
九十	-19621
公害	-19622
内存	-19623
刘邦	-19624
化合	-19625
发泄	-19626
在三	-19627
多酚	-19628
少于	-19629
就得	-19630
市盈	-19631
年版	-19632
征信	-19633
恒定	-19634
日程	-19635
氢气	-19636
溝通	-19637
热风	-19638
牌照	-19639
物力	-19640
生鲜	-19641
类和	-19642
精索	-19643
纳德	-19644
统考	-19645
话语	-19646
闸蟹	-19647
限量	-19648
101	-19649
37.	-19650
中获得	-19651
介绍的	-19652
企业与	-19653
冷却水	-19654
加热器	-19655
受访者	-19656
好莱坞	-19657
孙悟空	-19658
对客户	-19659
已形成	-19660
开始的	-19661
日夜夜	-19662
月出生	-19663
而造成	-19664
能得到	-19665
要学会	-19666
说什么	-19667
运营的	-19668
透明度	-19669
速度和	-19670
青岛市	-19671
1988	-19672
发展的新	-19673
多元化的	-19674
病情恶化	-19675
税务机关	-19676
精神紧张	-19677
系统疾病	-19678
警示教育	-19679
▁2006	-19680
印度尼西亚	-19681
整体解决方案	-19682
中去	-19683
之多	-19684
優秀	-19685
分销	-19686
动人	-19687
十月	-19688
口臭	-19689
含油	-19690
售卖	-19691
四面	-19692
大哥	-19693
室內	-19694
就想	-19695
弱势	-19696
形体	-19697
性情	-19698
情操	-19699
换届	-19700
明月	-19701
明目	-19702
毁坏	-19703
比对	-19704
泸州	-19705
洛蒂	-19706
測量	-19707
离职	-19708
落幕	-19709
薪水	-19710
躲避	-19711
骑行	-19712
3.6	-19713
USB	-19714
▁希望	-19715
不间断	-19716
伊斯兰	-19717
吞吐量	-19718
和朋友	-19719
在主场	-19720
大酒店	-19721
的地位	-19722
等组成	-19723
运行的	-19724
遗传性	-19725
邀请了	-19726
个工作日	-19727
中国足协	-19728
人工流产	-19729
市政工程	-19730
指导思想	-19731
日日夜夜	-19732
生命周期	-19733
色素脱失	-19734
这就需要	-19735
面向全国	-19736
共同努力下	-19737
法定节假日	-19738
▁當	-19739
下药	-19740
不愈	-19741
不经	-19742
乔丹	-19743
以身	-19744
來看	-19745
侦探	-19746
俱全	-19747
写出	-19748
压榨	-19749
叙述	-19750
喷淋	-19751
嘴里	-19752
在同	-19753
多动	-19754
学到	-19755
年获	-19756
床垫	-19757
抢占	-19758
排球	-19759
数以	-19760
曾經	-19761
梗阻	-19762
检出	-19763
滤料	-19764
滴水	-19765
白羊	-19766
相亲	-19767
看重	-19768
眼底	-19769
老实	-19770
苦难	-19771
说起	-19772
货源	-19773
达峰	-19774
采纳	-19775
间盘	-19776
静止	-19777
▁最终	-19778
▁食品	-19779
也都是	-19780
分别在	-19781
危险品	-19782
培训和	-19783
就会被	-19784
月份的	-19785
每小时	-19786
济南市	-19787
的人士	-19788
的儿子	-19789
的独特	-19790
的病人	-19791
等有关	-19792
绿色的	-19793
荷尔蒙	-19794
计划在	-19795
追溯到	-19796
通过的	-19797
专用设备	-19798
冷链物流	-19799
团结一致	-19800
复工复产	-19801
大力支持	-19802
威廉姆斯	-19803
山东泰山	-19804
建议大家	-19805
进行检测	-19806
▁2007	-19807
认真贯彻落实	-19808
NG	-19809
低端	-19810
体化	-19811
公办	-19812
勘查	-19813
受潮	-19814
垫片	-19815
多大	-19816
大都	-19817
奠基	-19818
好吗	-19819
对党	-19820
并由	-19821
开云	-19822
手脚	-19823
扬尘	-19824
抽取	-19825
拨打	-19826
揭晓	-19827
搭乘	-19828
查验	-19829
汉堡	-19830
派驻	-19831
理智	-19832
璀璨	-19833
的下	-19834
盘点	-19835
省钱	-19836
移送	-19837
稳中	-19838
获利	-19839
補充	-19840
製作	-19841
购票	-19842
软骨	-19843
钻石	-19844
青椒	-19845
280	-19846
中国画	-19847
中草药	-19848
把握好	-19849
旅游局	-19850
旗舰店	-19851
最主要	-19852
来治疗	-19853
涂料的	-19854
液体的	-19855
物体的	-19856
生产及	-19857
的风格	-19858
等工业	-19859
网络的	-19860
老龄化	-19861
血液中	-19862
责任的	-19863
贵金属	-19864
预告片	-19865
香港的	-19866
40%,	-19867
不可思议	-19868
临床症状	-19869
互联网的	-19870
共同富裕	-19871
师范学院	-19872
很容易被	-19873
有足够的	-19874
治疗难度	-19875
金融危机	-19876
个人所得税	-19877
以质量求生存	-19878
提高工作效率	-19879
CB	-19880
▁别	-19881
▁木	-19882
▁让	-19883
一碗	-19884
三板	-19885
不该	-19886
两边	-19887
于此	-19888
传言	-19889
冬虫	-19890
出差	-19891
北区	-19892
喷塑	-19893
国情	-19894
在南	-19895
大纲	-19896
家务	-19897
崇拜	-19898
废料	-19899
微机	-19900
打着	-19901
挂号	-19902
据此	-19903
握手	-19904
橱柜	-19905
江县	-19906
没法	-19907
洗脸	-19908
神圣	-19909
精诚	-19910
路易	-19911
锈蚀	-19912
電機	-19913
食谱	-19914
骨料	-19915
)》,	-19916
▁位于	-19917
▁进入	-19918
不均匀	-19919
与世界	-19920
仅仅是	-19921
动植物	-19922
卓越的	-19923
后面的	-19924
启动了	-19925
地下室	-19926
对健康	-19927
技术上	-19928
收视率	-19929
是指在	-19930
杯冠军	-19931
活动和	-19932
甚至有	-19933
福州市	-19934
虽然是	-19935
10%。	-19936
3500	-19937
不确定性	-19938
两学一做	-19939
你会发现	-19940
大型企业	-19941
技术要求	-19942
服务工作	-19943
,2008	-19944
占地面积小	-19945
完善的产品	-19946
深刻的印象	-19947
蔬菜和水果	-19948
国家和地区的	-19949
白癜风的病因	-19950
质量体系认证	-19951
AP	-19952
▁從	-19953
不光	-19954
亦有	-19955
你看	-19956
保值	-19957
冲锋	-19958
出境	-19959
千家	-19960
千斤	-19961
原谅	-19962
取保	-19963
听听	-19964
告诫	-19965
商圈	-19966
巴尔	-19967
彩灯	-19968
散文	-19969
文人	-19970
旅遊	-19971
最先	-19972
有条	-19973
杂草	-19974
炒作	-19975
然後	-19976
的古	-19977
社工	-19978
禁用	-19979
秀丽	-19980
私立	-19981
穿上	-19982
突击	-19983
竞猜	-19984
精灵	-19985
索取	-19986
约会	-19987
罗汉	-19988
美育	-19989
跟你	-19990
转弯	-19991
邻近	-19992
钻井	-19993
雪山	-19994
麻痹	-19995
,13	-19996
118	-19997
▁每个	-19998
▁网站	-19999
体验到	-20000
副厅长	-20001
单一的	-20002
在其他	-20003
就像是	-20004
的学校	-20005
的概率	-20006
的消费	-20007
粒进球	-20008
[...]
