<unk>	0
<s>	0
</s>	0
[PAD]	0
[UNK]	0
[CLS]	0
[SEP]	0
[MASK]	0
20	-0
可以	-1
公司	-2
工作	-3
发展	-4
中国	-5
我们	-6
企业	-7
00	-8
一个	-9
产品	-10
技术	-11
进行	-12
服务	-13
自己	-14
使用	-15
管理	-16
治疗	-17
▁,	-18
生产	-19
需要	-20
国家	-21
201	-22
问题	-23
通过	-24
建设	-25
患者	-26
生活	-27
时间	-28
没有	-29
▁1	-30
如果	-31
主要	-32
设备	-33
专业	-34
市场	-35
安全	-36
教育	-37
重要	-38
就是	-39
好的	-40
具有	-41
系统	-42
提供	-43
社会	-44
10	-45
研究	-46
工程	-47
项目	-48
影响	-49
设计	-50
质量	-51
白癜	-52
白癜风	-53
行业	-54
可能	-55
经济	-56
要求	-57
方面	-58
同时	-59
他们	-60
▁2	-61
环境	-62
所以	-63
情况	-64
的人	-65
因为	-66
是一	-67
不同	-68
以及	-69
活动	-70
材料	-71
很多	-72
出现	-73
选择	-74
世界	-75
什么	-76
非常	-77
文化	-78
一些	-79
这个	-80
提高	-81
大的	-82
”,	-83
▁3	-84
能力	-85
作用	-86
学习	-87
中心	-88
人员	-89
中的	-90
大学	-91
一定	-92
▁。	-93
也是	-94
健康	-95
作为	-96
这样	-97
大家	-98
医院	-99
精神	-100
信息	-101
目前	-102
处理	-103
因此	-104
对于	-105
产业	-106
创新	-107
人的	-108
表示	-109
相关	-110
过程	-111
成为	-112
根据	-113
国际	-114
合作	-115
一般	-116
发生	-117
19	-118
▁、	-119
有限	-120
人民	-121
但是	-122
时候	-123
用于	-124
注意	-125
这些	-126
自己的	-127
组织	-128
科技	-129
以上	-130
▁在	-131
功能	-132
能够	-133
第一	-134
孩子	-135
学校	-136
的一	-137
已经	-138
学生	-139
客户	-140
。”	-141
其他	-142
方法	-143
部分	-144
全国	-145
建筑	-146
比较	-147
实现	-148
不断	-149
方式	-150
不能	-151
标准	-152
科学	-153
集团	-154
了解	-155
12	-156
其中	-157
到了	-158
投资	-159
由于	-160
导致	-161
城市	-162
获得	-163
有限公司	-164
”。	-165
工业	-166
200	-167
都是	-168
政府	-169
不是	-170
控制	-171
包括	-172
结构	-173
的是	-174
这种	-175
数据	-176
采用	-177
疾病	-178
开始	-179
北京	-180
30	-181
效果	-182
应用	-183
单位	-184
品牌	-185
而且	-186
▁(	-187
11	-188
基础	-189
容易	-190
不会	-191
那么	-192
增加	-193
▁4	-194
领域	-195
地区	-196
平台	-197
各种	-198
提升	-199
202	-200
现在	-201
造成	-202
15	-203
积极	-204
一步	-205
代表	-206
需求	-207
保护	-208
比赛	-209
希望	-210
制造	-211
产生	-212
开展	-213
有效	-214
必须	-215
美国	-216
身体	-217
国内	-218
水平	-219
资源	-220
还是	-221
学院	-222
完成	-223
更加	-224
▁2、	-225
内容	-226
部门	-227
会议	-228
性能	-229
皮肤	-230
的时候	-231
或者	-232
发现	-233
全面	-234
价格	-235
个人	-236
年的	-237
解决	-238
介绍	-239
为了	-240
不仅	-241
用户	-242
经营	-243
保持	-244
形成	-245
历史	-246
之后	-247
不要	-248
增长	-249
加工	-250
开发	-251
上的	-252
机构	-253
达到	-254
坚持	-255
我国	-256
应该	-257
利用	-258
来说	-259
新的	-260
综合	-261
一起	-262
网络	-263
原因	-264
汽车	-265
拥有	-266
特别	-267
100	-268
书记	-269
:“	-270
避免	-271
),	-272
消费	-273
帮助	-274
分析	-275
50	-276
稳定	-277
所有	-278
检查	-279
关系	-280
食品	-281
▁“	-282
分钟	-283
如何	-284
自然	-285
知道	-286
还有	-287
第二	-288
责任	-289
业务	-290
▁3、	-291
销售	-292
领导	-293
基本	-294
运动	-295
认为	-296
传统	-297
及时	-298
▁1、	-299
支持	-300
时代	-301
引起	-302
来的	-303
上海	-304
现代	-305
更多	-306
之一	-307
优势	-308
机械	-309
智能	-310
进一步	-311
直接	-312
人才	-313
过程中	-314
亿元	-315
结合	-316
参加	-317
这一	-318
存在	-319
了一	-320
减少	-321
规定	-322
人们	-323
电子	-324
重点	-325
严重	-326
检测	-327
加强	-328
条件	-329
随着	-330
取得	-331
施工	-332
操作	-333
持续	-334
症状	-335
%,	-336
体系	-337
虽然	-338
有关	-339
自动	-340
实际	-341
目标	-342
努力	-343
丰富	-344
政策	-345
,“	-346
专家	-347
系列	-348
这是	-349
知识	-350
今年	-351
进入	-352
经过	-353
职业	-354
成功	-355
全球	-356
方案	-357
得到	-358
因素	-359
负责	-360
艺术	-361
推动	-362
广泛	-363
交通	-364
安装	-365
18	-366
地方	-367
食物	-368
降低	-369
甚至	-370
促进	-371
正常	-372
范围	-373
教学	-374
受到	-375
朋友	-376
特色	-377
旅游	-378
保证	-379
1.	-380
之间	-381
性的	-382
研发	-383
▁5	-384
只有	-385
成本	-386
超过	-387
温度	-388
价值	-389
才能	-390
中央	-391
任何	-392
充分	-393
表面	-394
是一种	-395
现场	-396
生物	-397
医疗	-398
长期	-399
16	-400
培训	-401
共同	-402
推进	-403
工艺	-404
特点	-405
的发展	-406
一直	-407
体育	-408
最后	-409
继续	-410
显示	-411
计划	-412
交流	-413
思想	-414
网站	-415
压力	-416
委员	-417
建立	-418
表现	-419
实施	-420
许多	-421
空气	-422
——	-423
体的	-424
成立	-425
保障	-426
政治	-427
关于	-428
游戏	-429
未来	-430
做好	-431
提出	-432
并且	-433
一次	-434
事业	-435
物质	-436
主义	-437
先进	-438
经验	-439
从而	-440
能源	-441
面积	-442
报告	-443
良好的	-444
年来	-445
0.	-446
14	-447
环保	-448
的大	-449
建议	-450
以下	-451
两个	-452
一种	-453
改革	-454
家庭	-455
污染	-456
不可	-457
期间	-458
变化	-459
女性	-460
空间	-461
以来	-462
就会	-463
培养	-464
简单	-465
战略	-466
党的	-467
%。	-468
规划	-469
核心	-470
联网	-471
有的	-472
药物	-473
按照	-474
落实	-475
13	-476
量的	-477
)、	-478
高的	-479
生态	-480
金属	-481
快速	-482
参与	-483
的重要	-484
000	-485
规模	-486
发挥	-487
金融	-488
第三	-489
怎么	-490
细胞	-491
团队	-492
宣传	-493
关键	-494
疫情	-495
员工	-496
模式	-497
是否	-498
卫生	-499
)。	-500
一样	-501
满足	-502
是在	-503
我们的	-504
癫痫	-505
电影	-506
起来	-507
也有	-508
氧化	-509
制作	-510
理念	-511
接受	-512
发布	-513
▁一	-514
的高	-515
心理	-516
措施	-517
然后	-518
行为	-519
维护	-520
不过	-521
方便	-522
25	-523
法律	-524
牛皮	-525
优秀	-526
银行	-527
十分	-528
确保	-529
化学	-530
无法	-531
不同的	-532
的话	-533
营养	-534
记者	-535
竞争	-536
玻璃	-537
指导	-538
指出	-539
”、	-540
结果	-541
感染	-542
▁4、	-543
医生	-544
完善	-545
合理	-546
左右	-547
状态	-548
除了	-549
儿童	-550
牛皮癣	-551
增强	-552
力量	-553
程度	-554
他的	-555
日本	-556
此外	-557
带来	-558
深入	-559
小时	-560
明显	-561
作品	-562
你的	-563
运行	-564
风险	-565
完全	-566
实验	-567
教师	-568
阶段	-569
40	-570
打造	-571
--	-572
17	-573
我的	-574
发展的	-575
效率	-576
万元	-577
方向	-578
其实	-579
重要的	-580
经常	-581
分别	-582
60	-583
▁本	-584
自身	-585
饮食	-586
形式	-587
计算	-588
尤其	-589
的情况	-590
任务	-591
申请	-592
喜欢	-593
考虑	-594
制度	-595
设施	-596
都有	-597
联合	-598
决定	-599
组成	-600
越来	-601
看到	-602
关注	-603
越来越	-604
党员	-605
主任	-606
基地	-607
比如	-608
适合	-609
▁据	-610
此次	-611
的工作	-612
》,	-613
注册	-614
调整	-615
一定要	-616
速度	-617
群众	-618
也会	-619
农业	-620
的治疗	-621
24	-622
▁2.	-623
病情	-624
一下	-625
意义	-626
普通	-627
厂家	-628
重大	-629
区域	-630
另外	-631
球队	-632
交易	-633
具体	-634
出了	-635
▁二	-636
干部	-637
首先	-638
化的	-639
2020	-640
中华	-641
生命	-642
包装	-643
民族	-644
2.	-645
反应	-646
下降	-647
属于	-648
意识	-649
绿色	-650
实践	-651
的事	-652
今天	-653
主题	-654
运输	-655
的新	-656
有些	-657
媒体	-658
行动	-659
严格	-660
成果	-661
广大	-662
劳动	-663
日常	-664
正在	-665
多种	-666
符合	-667
也不	-668
手术	-669
贡献	-670
这里	-671
针对	-672
考试	-673
之前	-674
毕业	-675
消费者	-676
是一个	-677
党委	-678
协会	-679
质的	-680
▁6	-681
收入	-682
老师	-683
的问题	-684
办公	-685
创造	-686
贯彻	-687
通常	-688
互联网	-689
明确	-690
来看	-691
机会	-692
成绩	-693
人体	-694
基金	-695
做到	-696
资金	-697
科研	-698
2021	-699
刺激	-700
目的	-701
规范	-702
生素	-703
近平	-704
预防	-705
白斑	-706
只要	-707
句话	-708
强度	-709
执行	-710
2019	-711
软件	-712
改善	-713
多的	-714
▁1.	-715
香港	-716
一定的	-717
习近平	-718
整个	-719
调查	-720
恢复	-721
最终	-722
故事	-723
▁3.	-724
理论	-725
80	-726
防止	-727
数字	-728
整体	-729
。“	-730
它的	-731
来自	-732
哪些	-733
电视	-734
an	-735
都会	-736
2018	-737
不得	-738
运营	-739
感觉	-740
塑料	-741
赛季	-742
视频	-743
力的	-744
费用	-745
▁三	-746
物流	-747
全部	-748
咨询	-749
分为	-750
出的	-751
后的	-752
委员会	-753
特殊	-754
不少	-755
山东	-756
个月	-757
手机	-758
双方	-759
保险	-760
免疫	-761
相对	-762
改变	-763
从事	-764
3.	-765
当地	-766
只是	-767
行政	-768
认真	-769
产品的	-770
加入	-771
2022	-772
化工	-773
》、	-774
开放	-775
美元	-776
面对	-777
困难	-778
准备	-779
”、“	-780
重视	-781
确定	-782
大型	-783
含有	-784
青年	-785
平方	-786
深圳	-787
▁公司	-788
常见	-789
每天	-790
高度	-791
高质量	-792
现象	-793
位于	-794
并不	-795
内的	-796
植物	-797
品质	-798
公共	-799
也可以	-800
有一	-801
这样的	-802
习惯	-803
白癜风的	-804
领先	-805
商业	-806
正式	-807
相信	-808
患者的	-809
机的	-810
进行了	-811
位置	-812
医学	-813
出口	-814
大多	-815
广东	-816
人类	-817
体验	-818
文明	-819
各类	-820
可能会	-821
23	-822
供应	-823
▁《	-824
保温	-825
维生素	-826
in	-827
临床	-828
再次	-829
病毒	-830
音乐	-831
大量	-832
集中	-833
企业的	-834
技能	-835
接触	-836
真正	-837
蛋白	-838
多个	-839
正确	-840
如此	-841
广州	-842
的作用	-843
腐蚀	-844
寿命	-845
统一	-846
二十	-847
70	-848
有所	-849
创业	-850
想要	-851
教授	-852
加快	-853
意见	-854
购买	-855
为主	-856
展示	-857
课程	-858
报道	-859
公里	-860
连续	-861
生活中	-862
▁我	-863
28	-864
具备	-865
球员	-866
危害	-867
资料	-868
有机	-869
节能	-870
原则	-871
发病	-872
社会主义	-873
联系	-874
的产品	-875
下来	-876
性和	-877
道路	-878
生的	-879
资产	-880
认识	-881
欢迎	-882
500	-883
始终	-884
必要	-885
元素	-886
中医	-887
时期	-888
就业	-889
22	-890
强调	-891
监督	-892
下面	-893
用的	-894
新闻	-895
智慧	-896
__	-897
自由	-898
的小	-899
实力	-900
理解	-901
过去	-902
类型	-903
同比	-904
银屑	-905
安排	-906
测试	-907
纤维	-908
机制	-909
机器	-910
2017	-911
当然	-912
要注意	-913
21	-914
同学	-915
无论	-916
银屑病	-917
机关	-918
各项	-919
冠军	-920
新时代	-921
等方面	-922
试验	-923
样的	-924
动力	-925
全体	-926
更好	-927
采取	-928
颜色	-929
每个	-930
幸福	-931
融合	-932
▁5、	-933
》、《	-934
例如	-935
逐渐	-936
26	-937
90	-938
社区	-939
就可以	-940
高速	-941
生长	-942
清洗	-943
可靠	-944
形象	-945
分子	-946
联赛	-947
▁第	-948
的影响	-949
大会	-950
它们	-951
负责人	-952
不足	-953
这句话	-954
有着	-955
等等	-956
详细	-957
循环	-958
专业的	-959
食用	-960
去年	-961
7.	-962
污水	-963
是什么	-964
东西	-965
觉得	-966
说过	-967
程序	-968
投入	-969
商品	-970
处于	-971
不到	-972
出来	-973
情绪	-974
吸收	-975
发作	-976
复杂	-977
贸易	-978
血管	-979
家长	-980
强化	-981
举行	-982
利于	-983
合同	-984
股份	-985
神经	-986
最大	-987
浙江	-988
成员	-989
强的	-990
工作的	-991
不良	-992
丰富的	-993
农村	-994
职工	-995
含量	-996
装饰	-997
观众	-998
相比	-999
往往	-1000
干燥	-1001
队伍	-1002
知名	-1003
迅速	-1004
举办	-1005
父母	-1006
的主要	-1007
消防	-1008
展开	-1009
成长	-1010
良好	-1011
护理	-1012
主席	-1013
移动	-1014
学科	-1015
排名	-1016
以后	-1017
连接	-1018
室内	-1019
重庆	-1020
酒店	-1021
资格	-1022
曾经	-1023
内部	-1024
然而	-1025
199	-1026
制定	-1027
同志	-1028
制品	-1029
董事	-1030
▁这	-1031
4.	-1032
尤其是	-1033
结束	-1034
升级	-1035
装置	-1036
数量	-1037
仍然	-1038
说明	-1039
涉及	-1040
的时间	-1041
电池	-1042
办法	-1043
经理	-1044
高温	-1045
四川	-1046
称为	-1047
扩大	-1048
最大的	-1049
高效	-1050
on	-1051
太阳	-1052
适应	-1053
黑色	-1054
人工	-1055
当时	-1056
清洁	-1057
认证	-1058
训练	-1059
合金	-1060
平方米	-1061
垃圾	-1062
分泌	-1063
河南	-1064
展现	-1065
营销	-1066
成分	-1067
吸引	-1068
管道	-1069
广告	-1070
高校	-1071
统计	-1072
另一	-1073
▁如果	-1074
他们的	-1075
如今	-1076
突破	-1077
配合	-1078
年轻	-1079
告诉	-1080
还要	-1081
成都	-1082
er	-1083
本次	-1084
人士	-1085
江苏	-1086
体现	-1087
有了	-1088
理想	-1089
少年	-1090
下的	-1091
测量	-1092
动物	-1093
根本	-1094
居民	-1095
设置	-1096
年度	-1097
近年来	-1098
特别是	-1099
公司的	-1100
主持	-1101
推广	-1102
优质	-1103
大大	-1104
气体	-1105
最佳	-1106
上市	-1107
值得	-1108
27	-1109
▁【	-1110
而是	-1111
更多的	-1112
州市	-1113
很大	-1114
应当	-1115
优化	-1116
各地	-1117
会上	-1118
车辆	-1119
35	-1120
一体	-1121
准确	-1122
▁4.	-1123
仪器	-1124
肯定	-1125
2016	-1126
最高	-1127
工具	-1128
治理	-1129
武汉	-1130
挑战	-1131
奋斗	-1132
红色	-1133
天然	-1134
文件	-1135
证明	-1136
相当	-1137
老年	-1138
度的	-1139
每年	-1140
状况	-1141
平均	-1142
追求	-1143
传播	-1144
革命	-1145
电力	-1146
共产	-1147
的好	-1148
部位	-1149
找到	-1150
事故	-1151
为什么	-1152
这个问题	-1153
距离	-1154
决赛	-1155
多少	-1156
一年	-1157
维修	-1158
病人	-1159
欧洲	-1160
主动	-1161
原料	-1162
有人	-1163
铁路	-1164
主要是	-1165
电机	-1166
令人	-1167
示范	-1168
顺利	-1169
更好的	-1170
消息	-1171
面的	-1172
只能	-1173
岗位	-1174
掌握	-1175
有很多	-1176
使命	-1177
足球	-1178
先后	-1179
之间的	-1180
一切	-1181
8.	-1182
29	-1183
本身	-1184
适用于	-1185
部署	-1186
涂料	-1187
引发	-1188
最好	-1189
深刻	-1190
证书	-1191
支付	-1192
蔬菜	-1193
风格	-1194
当前	-1195
突出	-1196
事件	-1197
致力	-1198
监管	-1199
调节	-1200
伤害	-1201
航空	-1202
活性	-1203
每一	-1204
即使	-1205
覆盖	-1206
应用于	-1207
三个	-1208
年龄	-1209
角度	-1210
尽量	-1211
不锈	-1212
子的	-1213
月份	-1214
相应	-1215
子宫	-1216
6.	-1217
设备的	-1218
先生	-1219
协议	-1220
坚定	-1221
讲话	-1222
自主	-1223
净化	-1224
电动	-1225
很好的	-1226
公路	-1227
而言	-1228
围绕	-1229
那些	-1230
2015	-1231
德国	-1232
的企业	-1233
不锈钢	-1234
的方式	-1235
罗斯	-1236
的原因	-1237
评价	-1238
很大的	-1239
变得	-1240
运用	-1241
白癜风患者	-1242
优点	-1243
资本	-1244
多次	-1245
即可	-1246
的心	-1247
mm	-1248
多年	-1249
更是	-1250
承担	-1251
商务	-1252
经历	-1253
进步	-1254
男性	-1255
新型	-1256
让人	-1257
中小	-1258
呼吸	-1259
实验室	-1260
固定	-1261
会有	-1262
场比赛	-1263
防控	-1264
自我	-1265
成了	-1266
通知	-1267
身份	-1268
监测	-1269
娱乐	-1270
石油	-1271
的水	-1272
事情	-1273
装备	-1274
加热	-1275
的地方	-1276
▁我们	-1277
危险	-1278
en	-1279
现代化	-1280
语言	-1281
放在	-1282
趋势	-1283
及其	-1284
的同时	-1285
依法	-1286
还可以	-1287
添加	-1288
起到	-1289
学会	-1290
的生活	-1291
构建	-1292
专利	-1293
公开	-1294
上升	-1295
在线	-1296
总书记	-1297
大利	-1298
梦见	-1299
很多人	-1300
平时	-1301
独立	-1302
适当	-1303
5.	-1304
正规	-1305
爱情	-1306
英国	-1307
心的	-1308
的一种	-1309
品种	-1310
场所	-1311
▁而	-1312
是不	-1313
天津	-1314
重新	-1315
白色	-1316
诊断	-1317
的基础	-1318
者的	-1319
1-	-1320
功效	-1321
提供了	-1322
)(	-1323
上述	-1324
使得	-1325
独特	-1326
著名	-1327
,《	-1328
进口	-1329
官方	-1330
沟通	-1331
一点	-1332
加盟	-1333
真的	-1334
300	-1335
思考	-1336
的热	-1337
总结	-1338
启动	-1339
▁从	-1340
大力	-1341
素质	-1342
之外	-1343
▁7	-1344
新技术	-1345
法院	-1346
流程	-1347
2000	-1348
葡萄	-1349
限制	-1350
器的	-1351
记录	-1352
面临	-1353
博士	-1354
他人	-1355
的要求	-1356
清楚	-1357
享受	-1358
一旦	-1359
早期	-1360
的方法	-1361
激光	-1362
9.	-1363
相互	-1364
大部分	-1365
是指	-1366
致力于	-1367
犯罪	-1368
宝宝	-1369
引导	-1370
成熟	-1371
预计	-1372
环节	-1373
大多数	-1374
似乎	-1375
也能	-1376
湖南	-1377
世纪	-1378
官网	-1379
利益	-1380
事实	-1381
婴儿	-1382
物的	-1383
学术	-1384
计算机	-1385
诚信	-1386
加重	-1387
做出	-1388
回应	-1389
支部	-1390
比例	-1391
人口	-1392
脂肪	-1393
合格	-1394
各个	-1395
补充	-1396
离子	-1397
探索	-1398
遇到	-1399
最近	-1400
的技术	-1401
众多	-1402
切实	-1403
俄罗斯	-1404
现实	-1405
表明	-1406
召开	-1407
相同	-1408
代理	-1409
文章	-1410
的服务	-1411
异常	-1412
激素	-1413
死亡	-1414
免费	-1415
障碍	-1416
推荐	-1417
乡村	-1418
随后	-1419
一家	-1420
血液	-1421
委会	-1422
将在	-1423
小组	-1424
方面的	-1425
本科	-1426
角色	-1427
部件	-1428
有哪些	-1429
高级	-1430
韩国	-1431
手段	-1432
几乎	-1433
土地	-1434
配套	-1435
世界杯	-1436
院校	-1437
公布	-1438
四个	-1439
地产	-1440
很容易	-1441
表达	-1442
注重	-1443
▁中国	-1444
节目	-1445
支撑	-1446
满意	-1447
我們	-1448
原理	-1449
两种	-1450
首次	-1451
保健	-1452
地位	-1453
家具	-1454
演员	-1455
作业	-1456
解决方案	-1457
长时间	-1458
还会	-1459
发育	-1460
过滤	-1461
学历	-1462
河北	-1463
成就	-1464
感到	-1465
给予	-1466
是由	-1467
行业的	-1468
混合	-1469
定期	-1470
指标	-1471
使用寿命	-1472
45	-1473
等奖	-1474
情况下	-1475
的情况下	-1476
消化	-1477
售后	-1478
信号	-1479
观察	-1480
都不	-1481
感情	-1482
校园	-1483
里的	-1484
▁目前	-1485
成的	-1486
难以	-1487
就能	-1488
效益	-1489
深化	-1490
完整	-1491
感受	-1492
装修	-1493
人生	-1494
密封	-1495
有可能	-1496
阳光	-1497
31	-1498
人在	-1499
回收	-1500
”“	-1501
这次	-1502
对方	-1503
截至	-1504
南京	-1505
缺乏	-1506
国内外	-1507
玩家	-1508
新冠	-1509
办公室	-1510
呈现	-1511
仪式	-1512
拒绝	-1513
2014	-1514
慢性	-1515
这么	-1516
充满	-1517
布局	-1518
印刷	-1519
志愿	-1520
意味	-1521
背景	-1522
周期	-1523
百分	-1524
》。	-1525
改造	-1526
自动化	-1527
公园	-1528
机场	-1529
公安	-1530
几个	-1531
基层	-1532
平衡	-1533
输送	-1534
癫痫病	-1535
别人	-1536
种植	-1537
小的	-1538
一流	-1539
办理	-1540
橡胶	-1541
登记	-1542
复合	-1543
工厂	-1544
不错	-1545
信心	-1546
反映	-1547
1000	-1548
出版	-1549
态度	-1550
协调	-1551
很好	-1552
损失	-1553
利润	-1554
国务	-1555
出生	-1556
发表	-1557
月经	-1558
冷却	-1559
证券	-1560
破坏	-1561
出席	-1562
天气	-1563
美的	-1564
同样	-1565
可以在	-1566
水果	-1567
系统的	-1568
自治	-1569
引领	-1570
物理	-1571
在一起	-1572
风机	-1573
的食物	-1574
认可	-1575
美丽	-1576
优良	-1577
流量	-1578
团结	-1579
土壤	-1580
也就是	-1581
湖北	-1582
电话	-1583
高等	-1584
说道	-1585
转型	-1586
提醒	-1587
加大	-1588
特性	-1589
标志	-1590
▁中	-1591
排放	-1592
的需求	-1593
胜利	-1594
立即	-1595
大量的	-1596
疾病的	-1597
定位	-1598
近期	-1599
青春	-1600
人民币	-1601
▁6、	-1602
加上	-1603
中国特色	-1604
的事情	-1605
批准	-1606
▁四	-1607
合适	-1608
依据	-1609
事项	-1610
作出	-1611
分布	-1612
医药	-1613
真实	-1614
细菌	-1615
尽管	-1616
检验	-1617
带着	-1618
显著	-1619
▁为	-1620
景区	-1621
网友	-1622
2)	-1623
主体	-1624
报名	-1625
特征	-1626
空调	-1627
在中国	-1628
孩子的	-1629
36	-1630
▁根据	-1631
定制	-1632
共享	-1633
的不	-1634
。(	-1635
伟大	-1636
唯一	-1637
99	-1638
第四	-1639
商标	-1640
水的	-1641
周围	-1642
一致	-1643
能量	-1644
转化	-1645
把握	-1646
国务院	-1647
下午	-1648
至今	-1649
很难	-1650
精彩	-1651
全省	-1652
使用的	-1653
不管	-1654
评估	-1655
实行	-1656
她的	-1657
试管	-1658
重的	-1659
此前	-1660
上下	-1661
逐步	-1662
可是	-1663
习近平总书记	-1664
并不是	-1665
感谢	-1666
有利于	-1667
疼痛	-1668
百年	-1669
在于	-1670
遗传	-1671
贷款	-1672
创建	-1673
女人	-1674
总经理	-1675
最好的	-1676
共产党	-1677
万人	-1678
早已	-1679
妈妈	-1680
应急	-1681
建成	-1682
肿瘤	-1683
信用	-1684
▁8	-1685
小编	-1686
精度	-1687
高质量发展	-1688
云南	-1689
都在	-1690
代谢	-1691
血压	-1692
也要	-1693
冲击	-1694
的生产	-1695
不好	-1696
时刻	-1697
渠道	-1698
均匀	-1699
快乐	-1700
新能源	-1701
其它	-1702
是非常	-1703
防护	-1704
参考	-1705
们的	-1706
市民	-1707
合成	-1708
怀孕	-1709
为客户	-1710
有效的	-1711
的前	-1712
▁当	-1713
焊接	-1714
幼儿	-1715
创作	-1716
设立	-1717
专门	-1718
的一个	-1719
提前	-1720
最新	-1721
电脑	-1722
十二	-1723
伙伴	-1724
是中国	-1725
消毒	-1726
构成	-1727
就要	-1728
到底	-1729
期待	-1730
普遍	-1731
▁以上	-1732
亿美元	-1733
PP	-1734
亚洲	-1735
研究生	-1736
以免	-1737
一名	-1738
天的	-1739
荣誉	-1740
行的	-1741
如果你	-1742
全力	-1743
颗粒	-1744
睡眠	-1745
乙烯	-1746
和国	-1747
上了	-1748
较大	-1749
于是	-1750
表演	-1751
近日	-1752
工作人员	-1753
财政	-1754
院长	-1755
深度	-1756
康复	-1757
一路	-1758
眼睛	-1759
较为	-1760
一个人	-1761
凭借	-1762
▁对于	-1763
董事长	-1764
2-	-1765
提到	-1766
传感	-1767
混凝	-1768
▁该	-1769
1)	-1770
当中	-1771
累计	-1772
一段	-1773
老人	-1774
色彩	-1775
线上	-1776
密度	-1777
得了	-1778
英语	-1779
高端	-1780
损害	-1781
常见的	-1782
如下	-1783
配置	-1784
2013	-1785
游客	-1786
烈的	-1787
缓解	-1788
让我们	-1789
总是	-1790
pp	-1791
黑色素	-1792
对外	-1793
锻炼	-1794
通信	-1795
宗旨	-1796
失去	-1797
用途	-1798
依然	-1799
采购	-1800
将会	-1801
现有	-1802
安徽	-1803
十年	-1804
干净	-1805
岁的	-1806
案件	-1807
法规	-1808
市场的	-1809
美观	-1810
法国	-1811
财务	-1812
担任	-1813
热水	-1814
中国特色社会主义	-1815
上涨	-1816
通风	-1817
鼓励	-1818
营业	-1819
打开	-1820
分类	-1821
兴趣	-1822
十九	-1823
突然	-1824
更为	-1825
服用	-1826
的效果	-1827
前列	-1828
违法	-1829
讲解	-1830
宣布	-1831
工商	-1832
初心	-1833
疫苗	-1834
新疆	-1835
都能	-1836
有害	-1837
队的	-1838
1、	-1839
对象	-1840
损伤	-1841
贵州	-1842
其次	-1843
所在	-1844
了一个	-1845
药品	-1846
外观	-1847
广西	-1848
三分	-1849
▁0	-1850
福建	-1851
起重	-1852
分离	-1853
停止	-1854
带领	-1855
》《	-1856
防水	-1857
产权	-1858
压缩	-1859
驾驶	-1860
故障	-1861
人物	-1862
乐部	-1863
也在	-1864
▁5.	-1865
维持	-1866
组合	-1867
树脂	-1868
俱乐部	-1869
尺寸	-1870
男人	-1871
您的	-1872
制造业	-1873
用药	-1874
万吨	-1875
讨论	-1876
以前	-1877
所谓	-1878
市委	-1879
一句	-1880
选用	-1881
学位	-1882
也可	-1883
动作	-1884
ar	-1885
紧张	-1886
陕西	-1887
房屋	-1888
----	-1889
方位	-1890
时的	-1891
就像	-1892
正是	-1893
▁他	-1894
进球	-1895
较高	-1896
形势	-1897
取得了	-1898
严重的	-1899
引进	-1900
得到了	-1901
是一家	-1902
规则	-1903
体内	-1904
自行	-1905
奥运	-1906
意味着	-1907
▁有	-1908
名字	-1909
低于	-1910
钢管	-1911
总体	-1912
离开	-1913
半年	-1914
美好	-1915
198	-1916
决策	-1917
海外	-1918
中药	-1919
力度	-1920
三年	-1921
休息	-1922
否则	-1923
种类	-1924
研究院	-1925
上午	-1926
孕妇	-1927
纪念	-1928
电源	-1929
青少年	-1930
道德	-1931
公益	-1932
直播	-1933
家人	-1934
培育	-1935
还能	-1936
定的	-1937
各级	-1938
省级	-1939
5%	-1940
接下来	-1941
有助	-1942
传承	-1943
人大	-1944
病例	-1945
参观	-1946
经典	-1947
面向	-1948
会计	-1949
层次	-1950
占地	-1951
园区	-1952
地下	-1953
监控	-1954
坚决	-1955
技术的	-1956
舒适	-1957
保养	-1958
后来	-1959
判断	-1960
反复	-1961
阴道	-1962
展览	-1963
专科	-1964
重量	-1965
不知道	-1966
规律	-1967
防治	-1968
混凝土	-1969
的专业	-1970
功率	-1971
▁会议	-1972
和谐	-1973
关节	-1974
国外	-1975
拓展	-1976
股份有限公司	-1977
更换	-1978
沒有	-1979
应对	-1980
区别	-1981
是有	-1982
电器	-1983
流动	-1984
资质	-1985
并在	-1986
抑制	-1987
之中	-1988
大赛	-1989
炎症	-1990
考生	-1991
至少	-1992
党建	-1993
期望	-1994
助力	-1995
充分发挥	-1996
网上	-1997
师生	-1998
疫情防控	-1999
▁9	-2000
的精神	-2001
某些	-2002
二十大	-2003
担当	-2004
美术	-2005
意思	-2006
台湾	-2007
全市	-2008
很快	-2009
性好	-2010
材料的	-2011
微信	-2012
赛事	-2013
不用	-2014
密切	-2015
发动	-2016
ED	-2017
引起的	-2018
节约	-2019
大小	-2020
农民	-2021
▁那么	-2022
病因	-2023
家的	-2024
担心	-2025
浓度	-2026
基因	-2027
教练	-2028
领域的	-2029
会员	-2030
婚姻	-2031
母亲	-2032
安全生产	-2033
集体	-2034
▁新	-2035
▁但	-2036
纷纷	-2037
半场	-2038
2、	-2039
润滑	-2040
都要	-2041
人群	-2042
不易	-2043
多样	-2044
发电	-2045
一是	-2046
身上	-2047
印度	-2048
3-	-2049
办学	-2050
气候	-2051
日起	-2052
2012	-2053
防腐	-2054
废水	-2055
更新	-2056
长的	-2057
出现了	-2058
指数	-2059
造型	-2060
的关键	-2061
海洋	-2062
氛围	-2063
局部	-2064
期的	-2065
通道	-2066
液体	-2067
不再	-2068
辅助	-2069
论坛	-2070
规格	-2071
▁此外	-2072
扩散	-2073
江西	-2074
专项	-2075
差异	-2076
推出	-2077
加速	-2078
多吃	-2079
收益	-2080
等地	-2081
都可以	-2082
西安	-2083
一体的	-2084
。《	-2085
基于	-2086
房地产	-2087
永远	-2088
情感	-2089
产量	-2090
有一个	-2091
图片	-2092
优质的	-2093
第一次	-2094
驱动	-2095
对此	-2096
色的	-2097
有什么	-2098
部长	-2099
▁随着	-2100
包含	-2101
生存	-2102
融资	-2103
的使用	-2104
身体健康	-2105
各位	-2106
精准	-2107
来到	-2108
顾客	-2109
体会	-2110
在这	-2111
简称	-2112
阅读	-2113
民主	-2114
产品质量	-2115
森林	-2116
毕业生	-2117
可见	-2118
2010	-2119
合物	-2120
发的	-2121
生产的	-2122
照片	-2123
想到	-2124
足够	-2125
物品	-2126
高压	-2127
季度	-2128
大幅	-2129
电气	-2130
树立	-2131
考察	-2132
营造	-2133
机遇	-2134
声音	-2135
38	-2136
确实	-2137
会导致	-2138
养老	-2139
附近	-2140
消除	-2141
等级	-2142
世界上	-2143
晚上	-2144
蛋白质	-2145
过敏	-2146
人数	-2147
文字	-2148
获得了	-2149
来源	-2150
副书记	-2151
对手	-2152
透明	-2153
水泥	-2154
关心	-2155
论文	-2156
硕士	-2157
住房	-2158
带来的	-2159
几年	-2160
信息化	-2161
男子	-2162
共和国	-2163
贯彻落实	-2164
防火	-2165
国家级	-2166
在不	-2167
联盟	-2168
竞争力	-2169
自治区	-2170
▁S	-2171
污水处理	-2172
售后服务	-2173
招生	-2174
选手	-2175
回到	-2176
今后	-2177
梦想	-2178
▁大	-2179
同比增长	-2180
的发生	-2181
整合	-2182
搭配	-2183
秉承	-2184
发言	-2185
餐饮	-2186
律师	-2187
专注	-2188
文学	-2189
废气	-2190
轴承	-2191
看看	-2192
肺炎	-2193
二是	-2194
用品	-2195
个性	-2196
开拓	-2197
的环境	-2198
典型	-2199
获取	-2200
同学们	-2201
便利	-2202
传感器	-2203
3)	-2204
▁由于	-2205
耐磨	-2206
地面	-2207
股票	-2208
青岛	-2209
全身	-2210
下了	-2211
的中	-2212
处罚	-2213
工资	-2214
多元	-2215
诱发	-2216
48	-2217
的设计	-2218
类似	-2219
打印	-2220
IS	-2221
思维	-2222
养殖	-2223
校长	-2224
辐射	-2225
两人	-2226
影片	-2227
身边	-2228
也很	-2229
专用	-2230
才是	-2231
一天	-2232
出血	-2233
的主	-2234
理事	-2235
陶瓷	-2236
里面	-2237
自信	-2238
并没有	-2239
国有	-2240
400	-2241
禁区	-2242
最低	-2243
轻松	-2244
山西	-2245
视觉	-2246
好好	-2247
了我	-2248
全会	-2249
一代	-2250
材质	-2251
物料	-2252
父亲	-2253
确认	-2254
作者	-2255
每个人	-2256
产生的	-2257
性格	-2258
放入	-2259
过度	-2260
33	-2261
紫外	-2262
他在	-2263
解释	-2264
识别	-2265
公告	-2266
年代	-2267
▁C	-2268
大约	-2269
更好地	-2270
参赛	-2271
调研	-2272
鉴定	-2273
自觉	-2274
博物	-2275
此时	-2276
2011	-2277
省委	-2278
线路	-2279
人为	-2280
而不	-2281
以上的	-2282
所有的	-2283
景观	-2284
先进的	-2285
慢慢	-2286
修复	-2287
中有	-2288
前景	-2289
小学	-2290
提出了	-2291
百分点	-2292
寻找	-2293
转变	-2294
每一个	-2295
篮板	-2296
适用	-2297
的安全	-2298
尽快	-2299
奉献	-2300
共有	-2301
消耗	-2302
用水	-2303
热情	-2304
超声	-2305
真空	-2306
生活的	-2307
你们	-2308
和社会	-2309
》(	-2310
▁19	-2311
提高了	-2312
个百分点	-2313
灵活	-2314
人力	-2315
副主任	-2316
集成	-2317
一系列	-2318
用来	-2319
党的二十大	-2320
工程师	-2321
冬季	-2322
研究所	-2323
做法	-2324
振兴	-2325
变形	-2326
英雄	-2327
电缆	-2328
解答	-2329
名单	-2330
▁10	-2331
演的	-2332
减轻	-2333
是因为	-2334
形状	-2335
广泛应用于	-2336
拍摄	-2337
场景	-2338
周年	-2339
航天	-2340
机床	-2341
%;	-2342
▁作为	-2343
着力	-2344
电商	-2345
较低	-2346
隐患	-2347
因為	-2348
节省	-2349
在使用	-2350
下载	-2351
清晰	-2352
收集	-2353
▁通过	-2354
主场	-2355
新区	-2356
多家	-2357
不需要	-2358
立足	-2359
十四	-2360
or	-2361
街道	-2362
咖啡	-2363
工作中	-2364
周边	-2365
所需	-2366
LED	-2367
杭州	-2368
温暖	-2369
产业链	-2370
▁但是	-2371
55	-2372
带动	-2373
助攻	-2374
试管婴儿	-2375
整改	-2376
2008	-2377
的质量	-2378
随时	-2379
糖尿	-2380
投资者	-2381
编辑	-2382
积累	-2383
科技创新	-2384
大数据	-2385
切割	-2386
中华民族	-2387
错误	-2388
履行	-2389
概念	-2390
一条	-2391
蒙古	-2392
孩子们	-2393
荣获	-2394
传统的	-2395
会出现	-2396
的能力	-2397
88	-2398
時間	-2399
服務	-2400
不但	-2401
妇女	-2402
辽宁	-2403
党支部	-2404
创意	-2405
海南	-2406
上面	-2407
每次	-2408
日前	-2409
▁(2)	-2410
的选择	-2411
巨大	-2412
有助于	-2413
厚的	-2414
也就	-2415
散热	-2416
在此	-2417
BA	-2418
和其他	-2419
高于	-2420
37	-2421
服装	-2422
许可	-2423
味道	-2424
和服务	-2425
爱的	-2426
改进	-2427
运动员	-2428
会在	-2429
专题	-2430
中国共产党	-2431
以为	-2432
延长	-2433
成人	-2434
战争	-2435
▁所以	-2436
相关的	-2437
」,	-2438
居住	-2439
祖国	-2440
车间	-2441
生产线	-2442
▁不	-2443
损坏	-2444
____	-2445
东北	-2446
患者在	-2447
为您	-2448
难度	-2449
發展	-2450
党中央	-2451
活力	-2452
报警	-2453
案例	-2454
燃烧	-2455
确诊	-2456
机器人	-2457
愿意	-2458
协助	-2459
记忆	-2460
皮肤病	-2461
免疫力	-2462
om	-2463
或是	-2464
大学生	-2465
住宅	-2466
的外	-2467
有时	-2468
竞赛	-2469
内外	-2470
实际上	-2471
前往	-2472
水分	-2473
释放	-2474
de	-2475
物联网	-2476
贫困	-2477
实用	-2478
党史	-2479
它是	-2480
允许	-2481
意外	-2482
部的	-2483
将于	-2484
!”	-2485
高中	-2486
精密	-2487
这也是	-2488
sh	-2489
采访	-2490
细节	-2491
吸附	-2492
来了	-2493
之路	-2494
哪里	-2495
一位	-2496
的症状	-2497
和平	-2498
影视	-2499
知识产权	-2500
公众	-2501
说的	-2502
会的	-2503
。。	-2504
医师	-2505
战斗	-2506
班子	-2507
门窗	-2508
钢结构	-2509
一個	-2510
基础设施	-2511
范围内	-2512
▁A	-2513
中国的	-2514
多年的	-2515
2023	-2516
糖尿病	-2517
作风	-2518
股东	-2519
申报	-2520
休闲	-2521
演出	-2522
十三	-2523
女子	-2524
不了	-2525
可以说	-2526
客户的	-2527
查看	-2528
无论是	-2529
毕竟	-2530
秘书	-2531
观看	-2532
可持续	-2533
32	-2534
前的	-2535
春节	-2536
实现了	-2537
黄金	-2538
夫妻	-2539
发行	-2540
货币	-2541
主管	-2542
考核	-2543
高新技术	-2544
攻坚	-2545
低温	-2546
的特点	-2547
转移	-2548
相应的	-2549
互动	-2550
75	-2551
▁第二	-2552
管理体系	-2553
减肥	-2554
成立于	-2555
业绩	-2556
经济发展	-2557
教育部	-2558
一场	-2559
常常	-2560
照明	-2561
很有	-2562
明星	-2563
称号	-2564
三大	-2565
党委书记	-2566
一份	-2567
更高	-2568
衣服	-2569
弘扬	-2570
的过程中	-2571
▁北京	-2572
肌肉	-2573
湿度	-2574
司法	-2575
舞台	-2576
融入	-2577
数控	-2578
▁因此	-2579
大众	-2580
西部	-2581
等领域	-2582
聚氨	-2583
租赁	-2584
会长	-2585
地球	-2586
配件	-2587
是最	-2588
合法	-2589
形成了	-2590
新鲜	-2591
邀请	-2592
中共	-2593
零件	-2594
合理的	-2595
34	-2596
结婚	-2597
下去	-2598
自学	-2599
人民共和国	-2600
成年	-2601
熟悉	-2602
电视剧	-2603
進行	-2604
图书	-2605
▁五	-2606
一批	-2607
招聘	-2608
一级	-2609
▁小	-2610
微量	-2611
▁7、	-2612
开启	-2613
广场	-2614
禁止	-2615
时尚	-2616
过于	-2617
为大家	-2618
3、	-2619
前列腺	-2620
职责	-2621
微生物	-2622
2009	-2623
大气	-2624
零售	-2625
▁?	-2626
保存	-2627
一带	-2628
直到	-2629
出来的	-2630
65	-2631
或许	-2632
產品	-2633
▁P	-2634
广东省	-2635
印象	-2636
千万	-2637
变成	-2638
到的	-2639
钢铁	-2640
可能是	-2641
中华人民共和国	-2642
智能化	-2643
协同	-2644
尊重	-2645
任意	-2646
充足	-2647
饮料	-2648
一线	-2649
事务	-2650
家里	-2651
ch	-2652
主办	-2653
的基本	-2654
轨道	-2655
他們	-2656
聚氨酯	-2657
搜索	-2658
输出	-2659
中间	-2660
le	-2661
接近	-2662
传染	-2663
权利	-2664
马克	-2665
..	-2666
日至	-2667
相结合	-2668
收费	-2669
执法	-2670
前进	-2671
审查	-2672
本人	-2673
水利	-2674
的历史	-2675
人民政府	-2676
常规	-2677
▁(1)	-2678
彻底	-2679
巨大的	-2680
余人	-2681
制冷	-2682
博物馆	-2683
多项	-2684
设有	-2685
名称	-2686
成型	-2687
敏感	-2688
更有	-2689
意大利	-2690
聚焦	-2691
宫颈	-2692
紧密	-2693
▁本次	-2694
内分泌	-2695
格局	-2696
权益	-2697
则是	-2698
包皮	-2699
队员	-2700
凝聚	-2701
烘干	-2702
富有	-2703
日的	-2704
新增	-2705
东方	-2706
动态	-2707
▁首先	-2708
心情	-2709
比赛中	-2710
依托	-2711
绝对	-2712
财产	-2713
扎实	-2714
市政	-2715
信任	-2716
区的	-2717
两年	-2718
?”	-2719
百姓	-2720
利亚	-2721
去除	-2722
经济社会	-2723
第五	-2724
成效	-2725
高考	-2726
电路	-2727
强大的	-2728
参数	-2729
将其	-2730
地理	-2731
齐全	-2732
优异	-2733
要有	-2734
苹果	-2735
地的	-2736
水中	-2737
液压	-2738
传递	-2739
因而	-2740
更大	-2741
建造	-2742
货物	-2743
溶液	-2744
控股	-2745
而成	-2746
项目的	-2747
富含	-2748
600	-2749
欧冠	-2750
很高	-2751
我们在	-2752
厚度	-2753
力和	-2754
钢板	-2755
那个	-2756
高达	-2757
硬度	-2758
日子	-2759
的市场	-2760
同时也	-2761
体积	-2762
学生的	-2763
各界	-2764
app	-2765
做的	-2766
纺织	-2767
1.5	-2768
电流	-2769
生殖	-2770
承诺	-2771
预示	-2772
园林	-2773
生理	-2774
全方位	-2775
社交	-2776
到达	-2777
的基础上	-2778
造成的	-2779
可以通过	-2780
义务	-2781
也不会	-2782
al	-2783
纳税	-2784
为客户提供	-2785
儿子	-2786
季节	-2787
分解	-2788
优惠	-2789
指挥	-2790
师范	-2791
▁与	-2792
内涵	-2793
动画	-2794
纪录	-2795
不得不	-2796
需要注意	-2797
想法	-2798
较高的	-2799
患有	-2800
做了	-2801
模具	-2802
稳定性	-2803
局长	-2804
已成为	-2805
不利	-2806
用作	-2807
地铁	-2808
外界	-2809
耐腐蚀	-2810
火灾	-2811
进展	-2812
老年人	-2813
复发	-2814
东南	-2815
试点	-2816
建立了	-2817
职业教育	-2818
▁对	-2819
就有	-2820
一般来说	-2821
更大的	-2822
地区的	-2823
天下	-2824
彼此	-2825
认定	-2826
长江	-2827
▁为了	-2828
西班	-2829
一体化	-2830
150	-2831
也许	-2832
夏季	-2833
多年来	-2834
西班牙	-2835
书法	-2836
39	-2837
遵守	-2838
独特的	-2839
静电	-2840
国民	-2841
好处	-2842
明白	-2843
建材	-2844
就在	-2845
同意	-2846
非法	-2847
性质	-2848
放弃	-2849
总部	-2850
承包	-2851
at	-2852
自身的	-2853
但在	-2854
会影响	-2855
是以	-2856
输入	-2857
抵抗	-2858
医院的	-2859
失败	-2860
条例	-2861
搅拌	-2862
讲述	-2863
收获	-2864
中学	-2865
急性	-2866
怎样	-2867
是对	-2868
让你	-2869
化妆	-2870
抓住	-2871
年底	-2872
救援	-2873
郑州	-2874
发出	-2875
诊疗	-2876
签订	-2877
提交	-2878
的内容	-2879
▁李	-2880
产业发展	-2881
冶金	-2882
口腔	-2883
三角	-2884
口罩	-2885
澳门	-2886
日在	-2887
电压	-2888
这类	-2889
信念	-2890
也将	-2891
49	-2892
导向	-2893
妇科	-2894
我们要	-2895
授权	-2896
而在	-2897
的价格	-2898
铝合金	-2899
国家的	-2900
方的	-2901
人才培养	-2902
紫外线	-2903
北京市	-2904
群体	-2905
工人	-2906
▁自	-2907
预测	-2908
消失	-2909
大于	-2910
的原则	-2911
不一样	-2912
缺点	-2913
民间	-2914
报考	-2915
每日	-2916
税务	-2917
另一方面	-2918
斯坦	-2919
同期	-2920
思路	-2921
山东省	-2922
女儿	-2923
配备	-2924
学者	-2925
国家和	-2926
导演	-2927
市场上	-2928
不忘	-2929
妻子	-2930
牢记	-2931
还在	-2932
浪费	-2933
女孩	-2934
日益	-2935
增加了	-2936
无人	-2937
家居	-2938
为核心	-2939
总统	-2940
军事	-2941
流行	-2942
再生	-2943
巴西	-2944
出发	-2945
涵盖	-2946
维度	-2947
回答	-2948
原材料	-2949
球迷	-2950
完美	-2951
整理	-2952
承受	-2953
的中国	-2954
气象	-2955
五年	-2956
心脏	-2957
化疗	-2958
形态	-2959
名为	-2960
户外	-2961
清理	-2962
微量元素	-2963
纪律	-2964
威胁	-2965
生态环境	-2966
事实上	-2967
使其	-2968
差距	-2969
文物	-2970
让我	-2971
存储	-2972
建设的	-2973
依靠	-2974
并非	-2975
摩擦	-2976
本赛季	-2977
在这里	-2978
也没有	-2979
各自	-2980
的目的	-2981
体制	-2982
3000	-2983
走向	-2984
老化	-2985
▁此次	-2986
萝卜	-2987
我校	-2988
一个新的	-2989
很少	-2990
名的	-2991
替代	-2992
卓越	-2993
120	-2994
疲劳	-2995
学员	-2996
金额	-2997
中医药	-2998
二级	-2999
城乡	-3000
效应	-3001
地板	-3002
强大	-3003
痛苦	-3004
交换	-3005
座谈	-3006
在这个	-3007
隔离	-3008
平稳	-3009
有效地	-3010
太多	-3011
简介	-3012
供应商	-3013
终于	-3014
通讯	-3015
卵巢	-3016
入口	-3017
健身	-3018
古代	-3019
生育	-3020
健康的	-3021
发明	-3022
精品	-3023
不受	-3024
精心	-3025
厘米	-3026
问题的	-3027
渗透	-3028
心态	-3029
澳大利	-3030
当天	-3031
城镇	-3032
85	-3033
优先	-3034
医治	-3035
木材	-3036
战胜	-3037
胎儿	-3038
警方	-3039
et	-3040
实时	-3041
镀锌	-3042
权威	-3043
必要的	-3044
反对	-3045
透露	-3046
人们的	-3047
发性	-3048
未来的	-3049
发达	-3050
的美	-3051
的应用	-3052
不够	-3053
▁6.	-3054
将继续	-3055
命运	-3056
介绍了	-3057
是不是	-3058
脱贫	-3059
村民	-3060
响应	-3061
不开	-3062
由此	-3063
简单的	-3064
不宜	-3065
容器	-3066
等待	-3067
是个	-3068
地点	-3069
气温	-3070
第一个	-3071
病的	-3072
数学	-3073
科技有限公司	-3074
太阳能	-3075
▁另外	-3076
带来了	-3077
皇马	-3078
即将	-3079
护栏	-3080
▁现在	-3081
想象	-3082
具有良好的	-3083
等行业	-3084
飞机	-3085
感冒	-3086
显得	-3087
新时代中国特色社会主义	-3088
或者是	-3089
减速	-3090
参加了	-3091
it	-3092
▁以	-3093
正确的	-3094
企業	-3095
落地	-3096
践行	-3097
丙烯	-3098
二氧化	-3099
澳大利亚	-3100
尝试	-3101
排水	-3102
评论	-3103
会对	-3104
▁同时	-3105
最重要	-3106
1/	-3107
系数	-3108
深受	-3109
污泥	-3110
的故事	-3111
她们	-3112
的研究	-3113
公平	-3114
少数	-3115
桥梁	-3116
风景	-3117
所得	-3118
粮食	-3119
放松	-3120
诸多	-3121
已有	-3122
接种	-3123
小区	-3124
容量	-3125
财富	-3126
无需	-3127
十八	-3128
便捷	-3129
仔细	-3130
▁以上就是	-3131
策略	-3132
处置	-3133
共计	-3134
万平方米	-3135
出去	-3136
的经营	-3137
两国	-3138
锅炉	-3139
不适	-3140
标准化	-3141
66	-3142
技巧	-3143
指示	-3144
收到	-3145
进行治疗	-3146
市政府	-3147
性强	-3148
转换	-3149
激发	-3150
▁第三	-3151
审核	-3152
制成	-3153
是很	-3154
展现出	-3155
打击	-3156
▁王	-3157
子女	-3158
检察	-3159
有力	-3160
▁(3)	-3161
初期	-3162
白酒	-3163
防范	-3164
心里	-3165
站在	-3166
ISO	-3167
无疑	-3168
出行	-3169
意间	-3170
夏天	-3171
蒸汽	-3172
比分	-3173
旅行	-3174
弹性	-3175
给大家	-3176
增值	-3177
介质	-3178
有序	-3179
苏州	-3180
5000	-3181
重复	-3182
等多种	-3183
技术人员	-3184
上有	-3185
体质	-3186
安全性	-3187
实地	-3188
信誉	-3189
可在	-3190
▁M	-3191
▁年	-3192
志愿者	-3193
销量	-3194
快速增长	-3195
复兴	-3196
过多	-3197
摄入	-3198
器官	-3199
描述	-3200
举措	-3201
互相	-3202
加拿	-3203
要在	-3204
人工智能	-3205
st	-3206
通报	-3207
沦为	-3208
民生	-3209
普及	-3210
数据显示	-3211
,3	-3212
爱心	-3213
流产	-3214
噪音	-3215
开关	-3216
的相关	-3217
800	-3218
扶贫	-3219
明显的	-3220
起了	-3221
4-	-3222
76	-3223
同步	-3224
身心	-3225
程度上	-3226
至于	-3227
二次	-3228
人文	-3229
少的	-3230
发动机	-3231
翻译	-3232
之为	-3233
策划	-3234
活动的	-3235
▁张	-3236
手表	-3237
超声波	-3238
化合物	-3239
挖掘	-3240
美容	-3241
粉丝	-3242
增速	-3243
抓好	-3244
规定的	-3245
可达	-3246
党员干部	-3247
放心	-3248
的感觉	-3249
的机会	-3250
攻击	-3251
公交	-3252
条件下	-3253
各大	-3254
绝缘	-3255
负担	-3256
生动	-3257
完善的	-3258
给了	-3259
中國	-3260
回家	-3261
后期	-3262
搭建	-3263
旋转	-3264
爱国	-3265
发热	-3266
深思	-3267
途径	-3268
▁今年	-3269
兄弟	-3270
爆炸	-3271
外国	-3272
46	-3273
城区	-3274
和发展	-3275
PV	-3276
修改	-3277
隔热	-3278
、“	-3279
西南	-3280
模型	-3281
危机	-3282
遵循	-3283
不禁	-3284
矛盾	-3285
统筹	-3286
5-	-3287
角逐	-3288
是要	-3289
▁B	-3290
数字化	-3291
被告	-3292
是可以	-3293
过的	-3294
频率	-3295
西亚	-3296
传输	-3297
关闭	-3298
舞蹈	-3299
成为了	-3300
江苏省	-3301
客场	-3302
电磁	-3303
绿化	-3304
团体	-3305
通用	-3306
健全	-3307
看来	-3308
思考这个问题	-3309
泡沫	-3310
访问	-3311
房间	-3312
PE	-3313
留下	-3314
予以	-3315
办事	-3316
以外	-3317
预期	-3318
魅力	-3319
生成	-3320
▁”	-3321
色素	-3322
感受到	-3323
上一	-3324
人流	-3325
斯特	-3326
58	-3327
煤炭	-3328
之下	-3329
而不是	-3330
河南省	-3331
有一定的	-3332
沈阳	-3333
实在	-3334
甘肃	-3335
纪委	-3336
大陆	-3337
注意事项	-3338
十大	-3339
从业	-3340
进程	-3341
携手	-3342
法治	-3343
新生	-3344
仪表	-3345
忽视	-3346
必然	-3347
节日	-3348
板材	-3349
的功能	-3350
观点	-3351
曼联	-3352
两次	-3353
地震	-3354
的光	-3355
令我	-3356
▁产品	-3357
解放	-3358
文化的	-3359
这就是	-3360
看起来	-3361
牛奶	-3362
都知道	-3363
完成了	-3364
主要有	-3365
便于	-3366
IP	-3367
el	-3368
燃料	-3369
地质	-3370
更容易	-3371
技术和	-3372
被称为	-3373
常务	-3374
新时代中国特色社会主义思想	-3375
超级	-3376
路线	-3377
喜爱	-3378
不如	-3379
肠道	-3380
党组织	-3381
,19	-3382
不仅仅	-3383
方针	-3384
退休	-3385
诉讼	-3386
对其	-3387
要想	-3388
车站	-3389
原本	-3390
小说	-3391
毫米	-3392
▁的	-3393
观念	-3394
储存	-3395
查询	-3396
称之为	-3397
的管理	-3398
的东西	-3399
小型	-3400
吉林	-3401
赢得	-3402
2007	-3403
各国	-3404
▁因为	-3405
财运	-3406
适量	-3407
较好的	-3408
在全国	-3409
甲醛	-3410
火锅	-3411
患上	-3412
水质	-3413
多人	-3414
签约	-3415
种子	-3416
4、	-3417
涂层	-3418
显然	-3419
把我们	-3420
ao	-3421
主要用于	-3422
▁高	-3423
治愈	-3424
和技术	-3425
奖励	-3426
等问题	-3427
▁据悉	-3428
下一步	-3429
摄影	-3430
录取	-3431
祝福	-3432
保留	-3433
提示	-3434
問題	-3435
便是	-3436
日常生活中	-3437
拜仁	-3438
委托	-3439
收藏	-3440
我公司	-3441
新兴	-3442
淘汰	-3443
疗法	-3444
养生	-3445
制药	-3446
开幕	-3447
协作	-3448
进而	-3449
分数	-3450
占地面积	-3451
走进	-3452
等特点	-3453
催化	-3454
同一	-3455
停车	-3456
刑事	-3457
:00	-3458
板的	-3459
西北	-3460
小心	-3461
激励	-3462
增多	-3463
微博	-3464
出台	-3465
一段时间	-3466
热量	-3467
线下	-3468
的变化	-3469
不知	-3470
这位	-3471
起重机	-3472
的患者	-3473
我们可以	-3474
丈夫	-3475
招标	-3476
达成	-3477
较大的	-3478
授予	-3479
对接	-3480
场地	-3481
乐观	-3482
多数	-3483
能在	-3484
内蒙古	-3485
来看看	-3486
马克思	-3487
业内	-3488
评为	-3489
的成绩	-3490
秘书长	-3491
厂房	-3492
ic	-3493
为企业	-3494
游泳	-3495
的过程	-3496
真诚	-3497
历程	-3498
真正的	-3499
反而	-3500
模块	-3501
场上	-3502
职称	-3503
生涯	-3504
▁白癜风	-3505
饰演	-3506
初步	-3507
焦虑	-3508
上海市	-3509
。」	-3510
分散	-3511
工件	-3512
提到过	-3513
对比	-3514
加拿大	-3515
型号	-3516
ing	-3517
还需要	-3518
▁据了解	-3519
场的	-3520
难题	-3521
排出	-3522
人力资源	-3523
合适的	-3524
局面	-3525
审视	-3526
技術	-3527
好评	-3528
溶剂	-3529
主演	-3530
茶叶	-3531
振动	-3532
相似	-3533
课题	-3534
遭遇	-3535
▁上	-3536
入选	-3537
不在	-3538
射门	-3539
:「	-3540
月的	-3541
斗争	-3542
歌曲	-3543
餐厅	-3544
▁虽然	-3545
了解到	-3546
高速公路	-3547
人和	-3548
内心	-3549
优秀的	-3550
女士	-3551
带到了	-3552
面前	-3553
一生	-3554
画面	-3555
乡村振兴	-3556
一方面	-3557
家族	-3558
新冠肺炎	-3559
依赖	-3560
黄色	-3561
长沙	-3562
防疫	-3563
硫酸	-3564
一带一路	-3565
积极开展	-3566
▁;	-3567
大脑	-3568
47	-3569
篮球	-3570
坚持以	-3571
等的	-3572
所以在	-3573
4)	-3574
是我们	-3575
。19	-3576
水平的	-3577
总额	-3578
内膜	-3579
快捷	-3580
超越	-3581
还没有	-3582
用人	-3583
身体的	-3584
);	-3585
卵管	-3586
曾经提到过	-3587
旨在	-3588
人民群众	-3589
答案	-3590
日上午	-3591
平安	-3592
启发	-3593
期限	-3594
出现在	-3595
稳定的	-3596
2006	-3597
高血压	-3598
我希望	-3599
常委	-3600
才会	-3601
广播	-3602
工会	-3603
适当的	-3604
实体	-3605
▁其实	-3606
癌症	-3607
机电	-3608
房子	-3609
龙江	-3610
某种	-3611
的可能	-3612
基本上	-3613
终端	-3614
院士	-3615
增大	-3616
法定	-3617
圆形	-3618
不孕	-3619
研讨	-3620
输卵管	-3621
病变	-3622
等多	-3623
用户的	-3624
越来越多	-3625
后果	-3626
学习贯彻	-3627
评审	-3628
整治	-3629
现在的	-3630
民营	-3631
紧急	-3632
购物	-3633
幼儿园	-3634
预示着	-3635
并发	-3636
的功效	-3637
外部	-3638
有点	-3639
充电	-3640
提取	-3641
零部件	-3642
增进	-3643
辅导	-3644
无限	-3645
阻燃	-3646
打破	-3647
如果是	-3648
传动	-3649
活動	-3650
,1	-3651
框架	-3652
就不	-3653
有多	-3654
招商	-3655
面上	-3656
研制	-3657
,5	-3658
外伤	-3659
监察	-3660
盲目	-3661
角球	-3662
旗下	-3663
磨损	-3664
个篮板	-3665
固体	-3666
服务的	-3667
器械	-3668
乳腺	-3669
手续	-3670
建筑面积	-3671
模拟	-3672
人心	-3673
高铁	-3674
投标	-3675
总局	-3676
物资	-3677
选举	-3678
对阵	-3679
月底	-3680
股权	-3681
年前	-3682
火箭	-3683
点击	-3684
还将	-3685
時候	-3686
溶解	-3687
尼斯	-3688
疑惑	-3689
正常的	-3690
习近平新时代中国特色社会主义思想	-3691
900	-3692
表现为	-3693
便宜	-3694
最为	-3695
不当	-3696
精细	-3697
白癜风医院	-3698
硬件	-3699
党的十九	-3700
阀门	-3701
巴萨	-3702
龙头	-3703
极大	-3704
的第一	-3705
升高	-3706
這個	-3707
鸡蛋	-3708
看见	-3709
实训	-3710
至上	-3711
就需要	-3712
泰国	-3713
进取	-3714
環境	-3715
聚集	-3716
的目标	-3717
这部	-3718
影響	-3719
最重要的	-3720
干扰	-3721
不吃	-3722
設計	-3723
维度去	-3724
▁可	-3725
如有	-3726
强劲	-3727
把我们带到了	-3728
蒸发	-3729
研究中心	-3730
暴露	-3731
车的	-3732
养成	-3733
缩短	-3734
雕塑	-3735
一个新的维度去	-3736
这句话把我们带到了	-3737
这句话把我们带到了一个新的维度去	-3738
粉末	-3739
评选	-3740
▁不过	-3741
这一点	-3742
今日	-3743
党和	-3744
友谊	-3745
成品	-3746
▁你	-3747
他说	-3748
坚实	-3749
需要的	-3750
登录	-3751
高度重视	-3752
工作者	-3753
公示	-3754
不多	-3755
受伤	-3756
不断提高	-3757
环境的	-3758
济南	-3759
能力和	-3760
ou	-3761
不断的	-3762
临时	-3763
好了	-3764
违反	-3765
奥运会	-3766
▁近年来	-3767
对待	-3768
的首	-3769
分配	-3770
式的	-3771
日下午	-3772
环氧	-3773
东部	-3774
编制	-3775
为中心	-3776
务实	-3777
刚刚	-3778
物业	-3779
78	-3780
汇报	-3781
市场需求	-3782
产能	-3783
四大	-3784
不应	-3785
证据	-3786
征程	-3787
要素	-3788
电子商务	-3789
销商	-3790
家中	-3791
全程	-3792
路上	-3793
的优势	-3794
▁8、	-3795
十一	-3796
缺陷	-3797
采集	-3798
▁最后	-3799
价值观	-3800
体重	-3801
旅客	-3802
化妆品	-3803
主角	-3804
水箱	-3805
发生了	-3806
抑郁	-3807
供应链	-3808
净水	-3809
党组	-3810
度和	-3811
课堂	-3812
厨房	-3813
票房	-3814
68	-3815
氯化	-3816
运转	-3817
com	-3818
从严	-3819
南方	-3820
样品	-3821
口碑	-3822
飞行	-3823
公民	-3824
阳市	-3825
中全会	-3826
相关部门	-3827
强烈	-3828
▁企业	-3829
玉米	-3830
公斤	-3831
大师	-3832
血糖	-3833
远程	-3834
理由	-3835
以往	-3836
离婚	-3837
延伸	-3838
1:	-3839
玻璃钢	-3840
的力量	-3841
类的	-3842
杂志	-3843
大概	-3844
看着	-3845
总裁	-3846
那样	-3847
事业单位	-3848
带头	-3849
间的	-3850
42	-3851
放置	-3852
人民法院	-3853
的现象	-3854
争取	-3855
的人生	-3856
会使	-3857
共赢	-3858
发放	-3859
都很	-3860
流通	-3861
运作	-3862
大批	-3863
封闭	-3864
爸爸	-3865
管理局	-3866
喷涂	-3867
配送	-3868
四川省	-3869
遗产	-3870
浙江省	-3871
科学院	-3872
注射	-3873
传达	-3874
美食	-3875
学习教育	-3876
克服	-3877
影响力	-3878
类型的	-3879
以便	-3880
步骤	-3881
信赖	-3882
期货	-3883
现状	-3884
清除	-3885
科学家	-3886
说过一句	-3887
加坡	-3888
性价	-3889
可根据	-3890
广阔	-3891
男女	-3892
批评	-3893
一行	-3894
无缝	-3895
爱好	-3896
电站	-3897
的花	-3898
光伏	-3899
活性炭	-3900
非常的	-3901
治疗的	-3902
厦门	-3903
美好的	-3904
是我	-3905
年轻人	-3906
学校的	-3907
较多	-3908
此同时	-3909
心中	-3910
中国人民	-3911
2005	-3912
文艺	-3913
结束后	-3914
集团公司	-3915
享有	-3916
辣椒	-3917
了很多	-3918
昆明	-3919
预算	-3920
ang	-3921
妊娠	-3922
占比	-3923
取消	-3924
▁第一	-3925
的情	-3926
福利	-3927
合作伙伴	-3928
违规	-3929
▁主要	-3930
克斯	-3931
辉煌	-3932
给人	-3933
治疗白癜风	-3934
集团有限公司	-3935
发电机	-3936
非洲	-3937
考虑到	-3938
哪个	-3939
巩固	-3940
社會	-3941
展会	-3942
耐用	-3943
究竟	-3944
有关部门	-3945
▁2021	-3946
cm	-3947
都市	-3948
无数	-3949
上市公司	-3950
理工	-3951
的形式	-3952
这也	-3953
卫星	-3954
56	-3955
柴油	-3956
到来	-3957
家电	-3958
用电	-3959
天然气	-3960
黑龙江	-3961
之所以	-3962
的全	-3963
反馈	-3964
最多	-3965
中超	-3966
供给	-3967
作物	-3968
的核心	-3969
变频	-3970
GB	-3971
es	-3972
频繁	-3973
合肥	-3974
补贴	-3975
东莞	-3976
携带	-3977
机组	-3978
说法	-3979
星期	-3980
中文	-3981
了我的	-3982
精子	-3983
节奏	-3984
我们将	-3985
组建	-3986
经意间	-3987
沉淀	-3988
发射	-3989
冲突	-3990
主队	-3991
兴奋	-3992
无线	-3993
杀菌	-3994
积分	-3995
重要讲话	-3996
五金	-3997
过了	-3998
同事	-3999
华为	-4000
的气	-4001
的高度	-4002
你可以	-4003
政协	-4004
排除	-4005
三种	-4006
当年	-4007
提供的	-4008
大连	-4009
象征	-4010
zh	-4011
APP	-4012
潜力	-4013
利率	-4014
紊乱	-4015
分别为	-4016
负荷	-4017
到位	-4018
氨酸	-4019
的规定	-4020
生产厂家	-4021
隧道	-4022
副作用	-4023
活动中	-4024
77	-4025
制造商	-4026
睡觉	-4027
本地	-4028
省市	-4029
温室	-4030
读书	-4031
赢得了	-4032
这似乎	-4033
波动	-4034
阵容	-4035
民警	-4036
不超过	-4037
固化	-4038
为止	-4039
十五	-4040
社会的	-4041
治疗方法	-4042
皮损	-4043
获奖	-4044
CO	-4045
入了	-4046
本届	-4047
,2	-4048
▁D	-4049
以下简称	-4050
一支	-4051
辛辣	-4052
身份证	-4053
件事	-4054
膨胀	-4055
饮用	-4056
以此	-4057
,4	-4058
全年	-4059
赔偿	-4060
口感	-4061
人员的	-4062
建设和	-4063
秩序	-4064
开设	-4065
一片	-4066
漂亮	-4067
审计	-4068
室外	-4069
个体	-4070
光滑	-4071
场合	-4072
我们就	-4073
地址	-4074
还可	-4075
原来	-4076
除此	-4077
各部门	-4078
北方	-4079
农药	-4080
那就是	-4081
了解一下	-4082
变革	-4083
▁2022	-4084
比上	-4085
鲜明	-4086
共建	-4087
客观	-4088
三是	-4089
▁这是	-4090
正规的	-4091
待遇	-4092
虚拟	-4093
2.5	-4094
出現	-4095
▁一般	-4096
灾害	-4097
随意	-4098
武器	-4099
较好	-4100
欧盟	-4101
起点	-4102
联合国	-4103
传媒	-4104
AA	-4105
比亚	-4106
有益	-4107
适宜	-4108
扩展	-4109
西方	-4110
95	-4111
很短	-4112
拿到	-4113
是比较	-4114
线的	-4115
进攻	-4116
定了	-4117
尽可能	-4118
当代	-4119
基础上	-4120
商家	-4121
ac	-4122
几天	-4123
小于	-4124
型材	-4125
剧情	-4126
达到了	-4127
牛皮癣的	-4128
处的	-4129
调理	-4130
能耗	-4131
性生活	-4132
在校	-4133
▁其中	-4134
直径	-4135
水性	-4136
付出	-4137
谨慎	-4138
债务	-4139
燃气	-4140
皇帝	-4141
多名	-4142
巴黎	-4143
台灣	-4144
单元	-4145
国防	-4146
较强的	-4147
进出口	-4148
国产	-4149
低碳	-4150
板块	-4151
来讲	-4152
常用的	-4153
足够的	-4154
各项工作	-4155
有利	-4156
发布的	-4157
声明	-4158
青睐	-4159
借助	-4160
收购	-4161
公司在	-4162
党的二十大精神	-4163
排查	-4164
体现了	-4165
麻烦	-4166
酒精	-4167
换热	-4168
尼亚	-4169
长春	-4170
强制	-4171
竞技	-4172
可分为	-4173
洁净	-4174
约为	-4175
生產	-4176
易于	-4177
薄膜	-4178
特殊的	-4179
体检	-4180
均可	-4181
骨干	-4182
贵的	-4183
人体的	-4184
不想	-4185
警察	-4186
测定	-4187
li	-4188
同時	-4189
带有	-4190
公务	-4191
子宫内膜	-4192
暖气	-4193
实习	-4194
早日	-4195
98	-4196
迎来	-4197
44	-4198
历史上	-4199
深圳市	-4200
▁其	-4201
這樣	-4202
对话	-4203
▁除了	-4204
人都	-4205
尚未	-4206
西藏	-4207
日报	-4208
仅有	-4209
再度	-4210
要求的	-4211
发生在	-4212
还包括	-4213
亲子	-4214
给你	-4215
牢固	-4216
港澳	-4217
第六	-4218
等症状	-4219
不忘初心	-4220
出租	-4221
處理	-4222
教材	-4223
地上	-4224
在不经意间	-4225
签署	-4226
影响到	-4227
这对	-4228
号线	-4229
定义	-4230
胚胎	-4231
▁关于	-4232
短期	-4233
添加剂	-4234
的关系	-4235
不起	-4236
听取	-4237
中含有	-4238
ro	-4239
每一位	-4240
北部	-4241
吉利	-4242
纳入	-4243
移植	-4244
污染物	-4245
▁T	-4246
性价比	-4247
全自动	-4248
指导下	-4249
转化为	-4250
PVC	-4251
解决问题	-4252
真理	-4253
特种	-4254
要把	-4255
不久	-4256
已經	-4257
部队	-4258
著作	-4259
远离	-4260
存在的	-4261
??	-4262
在大	-4263
占有	-4264
瘙痒	-4265
mg	-4266
顾问	-4267
NA	-4268
芯片	-4269
本站	-4270
齿轮	-4271
别的	-4272
并对	-4273
补偿	-4274
可以根据	-4275
中毒	-4276
审批	-4277
疗效	-4278
长度	-4279
宣讲	-4280
为主题	-4281
为本	-4282
机体	-4283
高峰	-4284
活跃	-4285
伴有	-4286
为一体的	-4287
吸烟	-4288
山区	-4289
开工	-4290
朋友们	-4291
成為	-4292
最早	-4293
这样说过	-4294
上去	-4295
PC	-4296
選擇	-4297
看出	-4298
欧元	-4299
am	-4300
依旧	-4301
昨天	-4302
专注于	-4303
新建	-4304
嫌疑	-4305
礼物	-4306
这两	-4307
灌装	-4308
堵塞	-4309
失调	-4310
科目	-4311
拼搏	-4312
開始	-4313
新加坡	-4314
科学技术	-4315
税收	-4316
廉政	-4317
精力	-4318
某某	-4319
哈尔	-4320
机动	-4321
耐心	-4322
实际情况	-4323
忠诚	-4324
的健康	-4325
导体	-4326
43	-4327
NBA	-4328
慎重的	-4329
任意球	-4330
ong	-4331
86	-4332
乃至	-4333
发扬	-4334
职能	-4335
这不禁	-4336
职务	-4337
出场	-4338
立方	-4339
次数	-4340
常态	-4341
缴纳	-4342
前期	-4343
移民	-4344
都没有	-4345
好像	-4346
首批	-4347
不懈	-4348
外科	-4349
在不经意间这样说过	-4350
的组织	-4351
资助	-4352
仅仅	-4353
水处理	-4354
占据	-4355
日期	-4356
得以	-4357
无机	-4358
发酵	-4359
医生的	-4360
为人	-4361
的人员	-4362
用心	-4363
裁判	-4364
表彰	-4365
认知	-4366
受到了	-4367
隔音	-4368
再行	-4369
后续	-4370
坚守	-4371
综合性	-4372
标签	-4373
照顾	-4374
冬天	-4375
▁-	-4376
一等奖	-4377
率先	-4378
解读	-4379
传统文化	-4380
清水	-4381
附加	-4382
更高的	-4383
在北京	-4384
发展和	-4385
II	-4386
的就是	-4387
):	-4388
面部	-4389
」。	-4390
档案	-4391
屏幕	-4392
子公司	-4393
▁要	-4394
PS	-4395
他们在	-4396
石墨	-4397
另一个	-4398
ji	-4399
装配	-4400
▁总	-4401
越南	-4402
决心	-4403
致的	-4404
.5	-4405
元件	-4406
时光	-4407
强国	-4408
分公司	-4409
國家	-4410
的信息	-4411
生意	-4412
宗教	-4413
为此	-4414
快的	-4415
已完成	-4416
2004	-4417
书画	-4418
模范	-4419
管控	-4420
那里	-4421
开心	-4422
除尘	-4423
接着	-4424
害怕	-4425
理财	-4426
友好	-4427
有毒	-4428
订单	-4429
也就是说	-4430
前沿	-4431
寒冷	-4432
船舶	-4433
▁经过	-4434
系統	-4435
不太	-4436
既然	-4437
时间内	-4438
当事	-4439
这样才能	-4440
发生的	-4441
快递	-4442
演唱	-4443
在国内	-4444
验收	-4445
时间的	-4446
全世界	-4447
都需要	-4448
年初	-4449
常委会	-4450
马上	-4451
几十	-4452
离心	-4453
怎么办	-4454
点球	-4455
一边	-4456
城市的	-4457
新能源汽车	-4458
图像	-4459
设计的	-4460
改革开放	-4461
這些	-4462
企业和	-4463
▁然而	-4464
特别是在	-4465
庆祝	-4466
必需	-4467
安全的	-4468
72	-4469
边缘	-4470
2003	-4471
时机	-4472
供水	-4473
在治疗	-4474
车型	-4475
如果不	-4476
均衡	-4477
标准的	-4478
承载	-4479
特定	-4480
留学	-4481
继承	-4482
为中国	-4483
副主席	-4484
可用于	-4485
▁学校	-4486
慈善	-4487
农产品	-4488
回归	-4489
家属	-4490
常用	-4491
率为	-4492
,6	-4493
阿尔	-4494
ai	-4495
中等	-4496
气的	-4497
探讨	-4498
客队	-4499
品牌的	-4500
仓储	-4501
仓库	-4502
洗涤	-4503
之处	-4504
组成员	-4505
除此之外	-4506
5、	-4507
患病	-4508
的出现	-4509
陆续	-4510
等工作	-4511
就医	-4512
契机	-4513
超市	-4514
硬化	-4515
作了	-4516
曝光	-4517
民众	-4518
聚乙烯	-4519
几种	-4520
近视	-4521
选购	-4522
能否	-4523
迎接	-4524
三十	-4525
马克思主义	-4526
什麼	-4527
梅西	-4528
雄厚	-4529
林业	-4530
完结	-4531
的学生	-4532
港口	-4533
器件	-4534
代替	-4535
劳务	-4536
防爆	-4537
好好地	-4538
南部	-4539
日晚	-4540
一部分	-4541
十四五	-4542
热水器	-4543
▁它	-4544
解决了	-4545
亮相	-4546
河北省	-4547
法人	-4548
我想	-4549
氨基	-4550
环境保护	-4551
越大	-4552
经销商	-4553
發現	-4554
中小企业	-4555
便秘	-4556
科普	-4557
我们还要	-4558
▁2020	-4559
明年	-4560
五个	-4561
耐火	-4562
现金	-4563
取决	-4564
内地	-4565
单一	-4566
接待	-4567
▁人	-4568
宁波	-4569
灭火	-4570
带给	-4571
两大	-4572
新材料	-4573
牛皮癣患者	-4574
珍惜	-4575
艰难	-4576
固醇	-4577
引入	-4578
头发	-4579
步伐	-4580
讲座	-4581
的不同	-4582
组成部分	-4583
圆满	-4584
领导班子	-4585
多了	-4586
不动	-4587
設備	-4588
对人体	-4589
技术创新	-4590
照射	-4591
的数据	-4592
附属	-4593
”;	-4594
我市	-4595
图案	-4596
外交	-4597
專業	-4598
挑选	-4599
网址	-4600
记得	-4601
效率高	-4602
本土	-4603
的结果	-4604
涉嫌	-4605
成年人	-4606
队在	-4607
相反	-4608
县委	-4609
落后	-4610
矿山	-4611
繁荣	-4612
的表现	-4613
不住	-4614
主营	-4615
景点	-4616
懂得	-4617
版本	-4618
具体的	-4619
承认	-4620
白癜风的治疗	-4621
开发区	-4622
取决于	-4623
设计师	-4624
已经成为	-4625
法律法规	-4626
纠纷	-4627
图书馆	-4628
上半年	-4629
支出	-4630
管理的	-4631
下一	-4632
转让	-4633
明天	-4634
企业在	-4635
回忆	-4636
份额	-4637
ol	-4638
批发	-4639
收缩	-4640
产值	-4641
越高	-4642
新华	-4643
经济效益	-4644
犯规	-4645
什么是	-4646
返回	-4647
本着	-4648
出售	-4649
石化	-4650
新一	-4651
德里	-4652
上班	-4653
致辞	-4654
湖北省	-4655
面试	-4656
电视台	-4657
赚钱	-4658
去了	-4659
跨境	-4660
相關	-4661
不容易	-4662
得分	-4663
打进	-4664
读者	-4665
,10	-4666
亮点	-4667
的学习	-4668
回报	-4669
出一	-4670
%、	-4671
失望	-4672
留在	-4673
的行为	-4674
恶性	-4675
核酸	-4676
总投资	-4677
显示屏	-4678
两位	-4679
乳房	-4680
伊朗	-4681
▁近日	-4682
壮大	-4683
52	-4684
很多的	-4685
--------	-4686
做事	-4687
认同	-4688
其中的	-4689
下跌	-4690
不变	-4691
女性的	-4692
高新技术企业	-4693
79	-4694
几率	-4695
青海	-4696
成功的	-4697
▁金	-4698
切削	-4699
指定	-4700
队以	-4701
钢材	-4702
可用	-4703
可靠性	-4704
有一些	-4705
是我国	-4706
优越	-4707
腹泻	-4708
导师	-4709
▁7.	-4710
中山	-4711
及以上	-4712
少吃	-4713
男孩	-4714
了中国	-4715
派出	-4716
电解	-4717
bo	-4718
▁天	-4719
激烈	-4720
▁.	-4721
一度	-4722
外出	-4723
胡萝卜	-4724
不可避免	-4725
证实	-4726
触摸	-4727
大家的	-4728
储备	-4729
底线	-4730
应注意	-4731
截止	-4732
启发了我	-4733
的态度	-4734
层面	-4735
引擎	-4736
恒大	-4737
百度	-4738
学家	-4739
繁殖	-4740
用量	-4741
最初	-4742
许可证	-4743
不错的	-4744
是为了	-4745
等相关	-4746
这启发了我	-4747
激情	-4748
电阻	-4749
观赏	-4750
导致的	-4751
英超	-4752
载体	-4753
加油	-4754
肝脏	-4755
热爱	-4756
冷凝	-4757
原始	-4758
校区	-4759
41	-4760
湖南省	-4761
等多个	-4762
重要的是	-4763
本质	-4764
实事	-4765
击败	-4766
视野	-4767
协商	-4768
0.5	-4769
再加上	-4770
复印	-4771
电信	-4772
压缩机	-4773
只需	-4774
发病率	-4775
打算	-4776
剧中	-4777
缓慢	-4778
导热	-4779
今年的	-4780
也不能	-4781
很强的	-4782
艰苦	-4783
优良的	-4784
的风险	-4785
这种情况	-4786
暂时	-4787
功夫	-4788
控制系统	-4789
聚丙烯	-4790
粉尘	-4791
这就	-4792
师资	-4793
相处	-4794
彰显	-4795
一直在	-4796
二等奖	-4797
这时	-4798
紧紧	-4799
阿里	-4800
扩张	-4801
饲料	-4802
离不开	-4803
练习	-4804
过滤器	-4805
寻求	-4806
降低了	-4807
严肃	-4808
境外	-4809
就算	-4810
持有	-4811
厂商	-4812
主人	-4813
剂的	-4814
▁当然	-4815
市长	-4816
头部	-4817
组织的	-4818
大道	-4819
性能好	-4820
参展	-4821
也能好好地	-4822
别墅	-4823
防御	-4824
创立	-4825
在一	-4826
也能好好地体会	-4827
让他	-4828
慰问	-4829
嘉宾	-4830
佛教	-4831
头痛	-4832
电网	-4833
门诊	-4834
关怀	-4835
首席	-4836
就诊	-4837
通過	-4838
全新的	-4839
坚强	-4840
受欢迎	-4841
的那	-4842
我院	-4843
这款	-4844
的状态	-4845
较小	-4846
产生了	-4847
让自己	-4848
将以	-4849
增值税	-4850
建筑物	-4851
▁「	-4852
的一些	-4853
地图	-4854
官员	-4855
又有	-4856
开展了	-4857
出色	-4858
境内	-4859
的老	-4860
一个月	-4861
0.0	-4862
kg	-4863
减少了	-4864
说话	-4865
,7	-4866
我们还要更加	-4867
带着这句话	-4868
女生	-4869
勇于	-4870
考验	-4871
re	-4872
可以帮助	-4873
和管理	-4874
最后一	-4875
的位置	-4876
小孩	-4877
源于	-4878
不断提升	-4879
转型升级	-4880
国家队	-4881
极大的	-4882
的风	-4883
次助攻	-4884
向上	-4885
和高	-4886
宇宙	-4887
江南	-4888
善于	-4889
缺少	-4890
为基础	-4891
合并	-4892
警告	-4893
复杂的	-4894
值得一	-4895
奋进	-4896
盈利	-4897
条件的	-4898
不含	-4899
2002	-4900
贫血	-4901
▁:	-4902
冷冻	-4903
转入	-4904
▁其次	-4905
扮演	-4906
与他人	-4907
命中	-4908
并将	-4909
调试	-4910
”,“	-4911
通过了	-4912
情节	-4913
的人才	-4914
忘记	-4915
库存	-4916
很高的	-4917
动脉	-4918
并未	-4919
并发症	-4920
浮想	-4921
期刊	-4922
财经	-4923
早上	-4924
样子	-4925
咳嗽	-4926
在外	-4927
与其他	-4928
这项	-4929
设备和	-4930
晋级	-4931
性疾病	-4932
黄河	-4933
解答了我的	-4934
电线	-4935
解答了我的疑惑	-4936
大學	-4937
联翩	-4938
教育的	-4939
师范大学	-4940
该公司	-4941
土工	-4942
是否有	-4943
69	-4944
浮想联翩	-4945
单独	-4946
科学的	-4947
细胞的	-4948
的重要性	-4949
过来	-4950
臭氧	-4951
野生	-4952
奶茶	-4953
可谓	-4954
首都	-4955
10.	-4956
可以用	-4957
入学	-4958
实质	-4959
服务中心	-4960
经济社会发展	-4961
意志	-4962
回来	-4963
有限责任	-4964
1,	-4965
2,	-4966
医疗器械	-4967
要以	-4968
潮湿	-4969
万亿元	-4970
物体	-4971
之际	-4972
背后	-4973
耐高温	-4974
全国各地	-4975
交通运输	-4976
窗口	-4977
肠胃	-4978
的材料	-4979
用人单位	-4980
欣赏	-4981
我们必须	-4982
投票	-4983
葡萄酒	-4984
降温	-4985
相当于	-4986
公积	-4987
瞬间	-4988
作战	-4989
▁(4)	-4990
从严治	-4991
有些人	-4992
希望能够	-4993
你会	-4994
不出	-4995
肌肤	-4996
的朋友	-4997
药物治疗	-4998
这似乎解答了我的疑惑	-4999
潜在	-5000
一项	-5001
道理	-5002
也能好好地体会这句话	-5003
党委副书记	-5004
感和	-5005
▁2019	-5006
螺旋	-5007
▁梦见	-5008
均为	-5009
接到	-5010
纳米	-5011
让他们	-5012
衰老	-5013
经济的	-5014
59	-5015
切尔	-5016
探测	-5017
清热	-5018
保安	-5019
▁今天	-5020
前来	-5021
站式	-5022
消费者的	-5023
▁是	-5024
等优点	-5025
还原	-5026
不大	-5027
味的	-5028
残疾	-5029
渐渐	-5030
界面	-5031
虽然很短	-5032
的合作	-5033
制的	-5034
会造成	-5035
但令我	-5036
經濟	-5037
捐赠	-5038
排卵	-5039
一人	-5040
审视这个问题	-5041
标识	-5042
慎重的审视这个问题	-5043
內容	-5044
姆斯	-5045
这句话语	-5046
之人	-5047
这句话语虽然很短	-5048
我们还要更加慎重的审视这个问题	-5049
但令我浮想联翩	-5050
中级	-5051
气管	-5052
就不会	-5053
全民	-5054
高层	-5055
淀粉	-5056
确立	-5057
前行	-5058
工程施工	-5059
未能	-5060
完整的	-5061
阿拉	-5062
脱贫攻坚	-5063
碳酸	-5064
成立以来	-5065
项目建设	-5066
军人	-5067
不管是	-5068
腾讯	-5069
64	-5070
噪声	-5071
佩戴	-5072
信仰	-5073
个性化	-5074
于一体的	-5075
快速发展	-5076
关爱	-5077
坐落	-5078
食欲	-5079
失业	-5080
治療	-5081
热点	-5082
肥胖	-5083
代码	-5084
家用	-5085
头的	-5086
CE	-5087
分的	-5088
倡导	-5089
玩具	-5090
又称	-5091
▁●	-5092
流水	-5093
饮水	-5094
平面	-5095
极为	-5096
铸造	-5097
的治疗方法	-5098
最具	-5099
▁白	-5100
贝尔	-5101
人与	-5102
机械设备	-5103
设定	-5104
公积金	-5105
科室	-5106
账户	-5107
传奇	-5108
有时候	-5109
主导	-5110
静脉	-5111
克兰	-5112
的比赛	-5113
分别是	-5114
大规模	-5115
▁会上	-5116
刺激性	-5117
实际行动	-5118
豆腐	-5119
行驶	-5120
形成的	-5121
让孩子	-5122
多彩	-5123
▁六	-5124
公正	-5125
会产生	-5126
不育	-5127
党史学习教育	-5128
全新	-5129
失眠	-5130
开创	-5131
钢筋	-5132
日常生活	-5133
素养	-5134
装箱	-5135
视力	-5136
1500	-5137
秘密	-5138
总理	-5139
受损	-5140
清华	-5141
管理人员	-5142
债券	-5143
的项目	-5144
越好	-5145
片的	-5146
57	-5147
五大	-5148
在内的	-5149
溃疡	-5150
造价	-5151
服务业	-5152
严谨	-5153
廉洁	-5154
光明	-5155
而出	-5156
信息技术	-5157
第一时间	-5158
游乐	-5159
0-	-5160
国际化	-5161
可持续发展	-5162
米的	-5163
副院长	-5164
连锁	-5165
月初	-5166
记载	-5167
纪检	-5168
程度的	-5169
成交	-5170
既有	-5171
歌手	-5172
报价	-5173
编剧	-5174
堪称	-5175
,8	-5176
几点	-5177
宪法	-5178
過程	-5179
铸铁	-5180
东京	-5181
有色	-5182
神秘	-5183
發生	-5184
级的	-5185
等方式	-5186
杂质	-5187
LC	-5188
矿物质	-5189
与会	-5190
67	-5191
一定会	-5192
为广大	-5193
舒服	-5194
企业家	-5195
困扰	-5196
的建设	-5197
一次性	-5198
确诊病例	-5199
乡镇	-5200
列入	-5201
进度	-5202
管的	-5203
不可能	-5204
立体	-5205
▁刘	-5206
尿道	-5207
家庄	-5208
走出	-5209
伟大复兴	-5210
名列	-5211
为用户	-5212
的社会	-5213
司机	-5214
食材	-5215
中和	-5216
交叉	-5217
每月	-5218
二氧化碳	-5219
助理	-5220
及其他	-5221
外形	-5222
术后	-5223
产业化	-5224
6-	-5225
军队	-5226
却是	-5227
▁12	-5228
有没有	-5229
食品安全	-5230
罗马	-5231
对症	-5232
感动	-5233
破碎	-5234
英文	-5235
之意	-5236
有一定	-5237
在上	-5238
牙齿	-5239
强烈的	-5240
的全部	-5241
附件	-5242
生产企业	-5243
分鐘	-5244
恶化	-5245
备案	-5246
灰尘	-5247
的多	-5248
螺杆	-5249
小程序	-5250
的营养	-5251
是怎么	-5252
润滑油	-5253
半导体	-5254
第三方	-5255
的理念	-5256
要及时	-5257
的三	-5258
博览	-5259
压机	-5260
跨越	-5261
能力的	-5262
侵权	-5263
产后	-5264
动员	-5265
不上	-5266
态势	-5267
花园	-5268
花生	-5269
有趣	-5270
呕吐	-5271
在新	-5272
了对	-5273
凌晨	-5274
气氛	-5275
酰胺	-5276
匹配	-5277
50%	-5278
分会	-5279
和工作	-5280
前后	-5281
情怀	-5282
人事	-5283
按摩	-5284
听到	-5285
管理工作	-5286
米兰	-5287
皮肤的	-5288
度假	-5289
哈尔滨	-5290
著名的	-5291
这场	-5292
芝麻	-5293
浸泡	-5294
工序	-5295
蜂蜜	-5296
▁9、	-5297
被评为	-5298
布置	-5299
延续	-5300
水量	-5301
吃饭	-5302
哲理	-5303
争议	-5304
是目前	-5305
▁这种	-5306
跟踪	-5307
太平	-5308
的天	-5309
压器	-5310
国家标准	-5311
呼吸道	-5312
发送	-5313
详情	-5314
生产和	-5315
商会	-5316
经常出现	-5317
的前提	-5318
采用了	-5319
育人	-5320
调味	-5321
的世界	-5322
力争	-5323
请求	-5324
密集	-5325
对应	-5326
洗净	-5327
爆发	-5328
说过这样	-5329
塑造	-5330
盆腔	-5331
荷兰	-5332
也不是	-5333
之事	-5334
网页	-5335
行业中	-5336
热门	-5337
我在	-5338
得知	-5339
▁H	-5340
冲洗	-5341
人員	-5342
领导干部	-5343
垂直	-5344
柔软	-5345
较少	-5346
的抗	-5347
有望	-5348
公寓	-5349
國際	-5350
病症	-5351
罚款	-5352
领会	-5353
不仅是	-5354
不利于	-5355
实践中	-5356
▁2018	-5357
”(	-5358
回顾	-5359
浏览	-5360
的手	-5361
腹部	-5362
国资	-5363
大局	-5364
自考	-5365
53	-5366
交易所	-5367
播出	-5368
可以选择	-5369
方可	-5370
演讲	-5371
膳食	-5372
注目	-5373
我省	-5374
茅台	-5375
使用寿命长	-5376
比重	-5377
门口	-5378
反射	-5379
钢丝	-5380
自律	-5381
個人	-5382
开通	-5383
联动	-5384
丧失	-5385
加以	-5386
不仅可以	-5387
养护	-5388
只需要	-5389
验证	-5390
万美元	-5391
久的	-5392
分和	-5393
供电	-5394
▁马	-5395
立法	-5396
环境中	-5397
聚合	-5398
医疗机构	-5399
IT	-5400
派遣	-5401
主管部门	-5402
倒数	-5403
也比较	-5404
▁上海	-5405
新发展	-5406
山市	-5407
法兰	-5408
▁陈	-5409
▁美国	-5410
背景下	-5411
脱水	-5412
也需要	-5413
绘画	-5414
又是	-5415
牛肉	-5416
强度高	-5417
上映	-5418
看到了	-5419
升降	-5420
ed	-5421
工地	-5422
生肖	-5423
老板	-5424
深的	-5425
纽约	-5426
少量	-5427
镜头	-5428
做出了	-5429
劳动者	-5430
脱落	-5431
角度来看	-5432
▁G	-5433
浪漫	-5434
家乡	-5435
里斯	-5436
残留	-5437
退役	-5438
不必	-5439
当今	-5440
現在	-5441
逻辑	-5442
预约	-5443
精益	-5444
值得一提	-5445
不敢	-5446
兰州	-5447
CP	-5448
次于	-5449
用手	-5450
层的	-5451
也被	-5452
数十	-5453
精确	-5454
假如	-5455
年以来	-5456
应该是	-5457
从小	-5458
过大	-5459
年以上	-5460
防潮	-5461
土耳	-5462
感恩	-5463
播放	-5464
資料	-5465
怎么样	-5466
下列	-5467
出演	-5468
等情况	-5469
饱和	-5470
别人的	-5471
▁此	-5472
大专	-5473
早在	-5474
人大常委会	-5475
解除	-5476
见证	-5477
的事实	-5478
影像	-5479
能力强	-5480
▁她	-5481
穿着	-5482
土耳其	-5483
诊治	-5484
人性	-5485
有限责任公司	-5486
先锋	-5487
受理	-5488
指南	-5489
点的	-5490
粘度	-5491
发起	-5492
重组	-5493
成本低	-5494
酸碱	-5495
只不过	-5496
远远	-5497
主力	-5498
总支	-5499
转速	-5500
总量	-5501
擅长	-5502
必须要	-5503
交往	-5504
岁月	-5505
这个时候	-5506
格兰	-5507
尽早	-5508
特別	-5509
充分利用	-5510
阻止	-5511
高科技	-5512
地坪	-5513
型企业	-5514
三级	-5515
灵魂	-5516
年在	-5517
立刻	-5518
限于	-5519
雖然	-5520
敬业	-5521
不安	-5522
取代	-5523
输掉	-5524
2001	-5525
主流	-5526
武装	-5527
一周	-5528
空中	-5529
传说	-5530
山水	-5531
本来	-5532
作家	-5533
▁R	-5534
员工的	-5535
玫瑰	-5536
就没有	-5537
重要作用	-5538
共识	-5539
专业化	-5540
啤酒	-5541
心灵	-5542
一同	-5543
会给	-5544
油漆	-5545
洗衣	-5546
管理和	-5547
▁由	-5548
颁发	-5549
寓意	-5550
从来	-5551
计量	-5552
▁用	-5553
弯曲	-5554
执业	-5555
造纸	-5556
两者	-5557
已被	-5558
广泛的	-5559
业界	-5560
集装箱	-5561
和生活	-5562
墙体	-5563
54	-5564
暴力	-5565
文献	-5566
曾在	-5567
品的	-5568
抵抗力	-5569
▁那	-5570
▁11	-5571
越来越多的	-5572
过长	-5573
型的	-5574
为何	-5575
熬夜	-5576
生产经营	-5577
63	-5578
尤为	-5579
视为	-5580
比較	-5581
62	-5582
戏剧	-5583
填料	-5584
客户提供	-5585
十足	-5586
海上	-5587
ui	-5588
效力	-5589
网络安全	-5590
电梯	-5591
稳步	-5592
题材	-5593
等因素	-5594
聪明	-5595
的国家	-5596
或其他	-5597
重庆市	-5598
发泡	-5599
球场	-5600
4000	-5601
与此同时	-5602
下滑	-5603
支架	-5604
▁月	-5605
询问	-5606
人为本	-5607
注册资本	-5608
新产品	-5609
帮扶	-5610
▁如	-5611
后卫	-5612
女足	-5613
用地	-5614
的介绍	-5615
美丽的	-5616
吸引了	-5617
51	-5618
许多人	-5619
见的	-5620
省政府	-5621
业主	-5622
组成的	-5623
伤口	-5624
审议	-5625
流感	-5626
决策部署	-5627
副总经理	-5628
将来	-5629
拒绝接受	-5630
灯光	-5631
器材	-5632
降解	-5633
市場	-5634
陪伴	-5635
▁这些	-5636
嫌疑人	-5637
纷纷表示	-5638
的一部分	-5639
心血管	-5640
即便	-5641
一张	-5642
恋爱	-5643
工委	-5644
无毒	-5645
福州	-5646
大桥	-5647
多达	-5648
目的是	-5649
地域	-5650
油脂	-5651
轨道交通	-5652
外资	-5653
社会主义现代化	-5654
甲状	-5655
资讯	-5656
搬运	-5657
预警	-5658
多元化	-5659
南北	-5660
货运	-5661
它可以	-5662
工程建设	-5663
品质的	-5664
不妨	-5665
假期	-5666
徒刑	-5667
精英	-5668
谋划	-5669
主要包括	-5670
接口	-5671
避孕	-5672
110	-5673
主帅	-5674
击中	-5675
提出的	-5676
位的	-5677
值得一提的是	-5678
解毒	-5679
退出	-5680
我就	-5681
告知	-5682
如果没有	-5683
威尼斯	-5684
石家庄	-5685
时代的	-5686
阴道炎	-5687
修订	-5688
接地	-5689
染色	-5690
单纯	-5691
▁使用	-5692
的标准	-5693
首先要	-5694
申请人	-5695
在选择	-5696
他是	-5697
轻质	-5698
京东	-5699
医护	-5700
上门	-5701
防守	-5702
过程中的	-5703
根據	-5704
将是	-5705
▁国家	-5706
全面从严治	-5707
日电	-5708
生日	-5709
扶持	-5710
大家都	-5711
冰箱	-5712
ip	-5713
力学	-5714
高水平	-5715
水管	-5716
当下	-5717
宣告	-5718
头球	-5719
87	-5720
谈判	-5721
遭到	-5722
酸性	-5723
的文化	-5724
我是	-5725
腐败	-5726
接收	-5727
取得的	-5728
原子	-5729
为主要	-5730
迹象	-5731
度高	-5732
会引起	-5733
的可能性	-5734
总数	-5735
及相关	-5736
一起来	-5737
口服	-5738
无锡	-5739
海鲜	-5740
的一年	-5741
石材	-5742
护士	-5743
过高	-5744
自由选择	-5745
光学	-5746
等人	-5747
,9	-5748
乘客	-5749
同行	-5750
关键词	-5751
基金会	-5752
金融机构	-5753
安徽省	-5754
国家和地区	-5755
公开发	-5756
日制	-5757
多少钱	-5758
配电	-5759
竟然	-5760
是没有	-5761
的了解	-5762
6、	-5763
不然	-5764
在家	-5765
叫做	-5766
货架	-5767
恶劣	-5768
始终坚持	-5769
MP	-5770
枢纽	-5771
激动	-5772
个角球	-5773
力求	-5774
门店	-5775
低压	-5776
饮酒	-5777
千瓦	-5778
乌克兰	-5779
来进行	-5780
狗狗	-5781
常识	-5782
ent	-5783
出生于	-5784
战绩	-5785
栽培	-5786
每周	-5787
采访时	-5788
不及	-5789
美國	-5790
才能够	-5791
為了	-5792
这些问题	-5793
注入	-5794
里程	-5795
蓝色	-5796
中华民族伟大复兴	-5797
陈代谢	-5798
各方	-5799
也为	-5800
蔓延	-5801
效果好	-5802
花费	-5803
也非常	-5804
再次发生	-5805
在一个	-5806
艺术家	-5807
南昌	-5808
受益	-5809
积极的	-5810
真是	-5811
暂停	-5812
▁记者	-5813
期徒刑	-5814
速度快	-5815
誉为	-5816
话题	-5817
出现的	-5818
当事人	-5819
质量和	-5820
社会责任	-5821
牺牲	-5822
若干	-5823
刀具	-5824
创始	-5825
250	-5826
▁[	-5827
不论	-5828
73	-5829
加深	-5830
塞尔	-5831
官方网站	-5832
后者	-5833
水电	-5834
不高	-5835
促使	-5836
发展战略	-5837
春天	-5838
拉伸	-5839
DP	-5840
承办	-5841
有力的	-5842
越多	-5843
金牌	-5844
侵犯	-5845
段时间	-5846
拉开	-5847
陷入	-5848
淋巴	-5849
的长	-5850
细致	-5851
配方	-5852
热烈	-5853
朝鲜	-5854
流失	-5855
余名	-5856
争夺	-5857
外的	-5858
is	-5859
走访	-5860
感兴趣	-5861
▁黄	-5862
在中	-5863
列车	-5864
向前	-5865
那种	-5866
两岸	-5867
加剧	-5868
能夠	-5869
甲状腺	-5870
、3	-5871
为例	-5872
也没	-5873
奖项	-5874
高等教育	-5875
一定要注意	-5876
:1	-5877
变更	-5878
跟着	-5879
被告人	-5880
书面	-5881
扫描	-5882
第十	-5883
赛后	-5884
有很大的	-5885
感应	-5886
CT	-5887
宁夏	-5888
名言	-5889
伟大的	-5890
愿景	-5891
会让	-5892
服务器	-5893
▁L	-5894
登陆	-5895
第七	-5896
科学研究	-5897
as	-5898
重量轻	-5899
吃的	-5900
哲学	-5901
最高的	-5902
号召	-5903
白带	-5904
自来	-5905
在了	-5906
住院	-5907
去医院	-5908
認為	-5909
地说	-5910
阿根	-5911
忽略	-5912
党建工作	-5913
下来的	-5914
结论	-5915
上线	-5916
差别	-5917
提升了	-5918
的具体	-5919
特朗	-5920
并与	-5921
▁现	-5922
征兆	-5923
渴望	-5924
毒素	-5925
酸盐	-5926
的支持	-5927
废物	-5928
阿根廷	-5929
中所	-5930
等到	-5931
送到	-5932
风雨	-5933
也是一	-5934
羊肉	-5935
的品牌	-5936
发票	-5937
雷锋	-5938
春季	-5939
是国家	-5940
暖气片	-5941
▁和	-5942
讲究	-5943
遭受	-5944
激烈的	-5945
曾经说过	-5946
邮件	-5947
▁E	-5948
出有	-5949
更进一步	-5950
系列产品	-5951
温馨	-5952
精神和	-5953
西医	-5954
教室	-5955
下面就	-5956
加强对	-5957
副校长	-5958
广泛用于	-5959
假日	-5960
回头	-5961
爱你	-5962
▁很多	-5963
社会各界	-5964
投放	-5965
的一次	-5966
89	-5967
前三	-5968
宿舍	-5969
严格的	-5970
自行车	-5971
口味	-5972
仅次于	-5973
很重要	-5974
汇聚	-5975
不断地	-5976
杰出	-5977
原创	-5978
平整	-5979
如果有	-5980
水和	-5981
依照	-5982
公主	-5983
校企	-5984
类别	-5985
公安局	-5986
存放	-5987
当你	-5988
血液循环	-5989
的温度	-5990
功能的	-5991
举报	-5992
湿地	-5993
草原	-5994
牵头	-5995
胆固醇	-5996
富有哲理	-5997
在本	-5998
页面	-5999
结合起来	-6000
遗址	-6001
参会	-6002
一般在	-6003
▁如何	-6004
补助	-6005
主持人	-6006
厕所	-6007
联合会	-6008
物浦	-6009
中方	-6010
安静	-6011
耐热	-6012
国的	-6013
是通过	-6014
比较好	-6015
负面	-6016
披露	-6017
会展	-6018
对我	-6019
眼镜	-6020
业的	-6021
身材	-6022
學生	-6023
,2019	-6024
在美国	-6025
我们应该	-6026
智力	-6027
焦点	-6028
,2018	-6029
阻碍	-6030
不停	-6031
一方	-6032
将成为	-6033
竣工	-6034
切尔西	-6035
的教育	-6036
富有哲理的话	-6037
乘坐	-6038
恐怖	-6039
等于	-6040
校友	-6041
老公	-6042
OS	-6043
湖人	-6044
1.2	-6045
▁20	-6046
应力	-6047
随之	-6048
说过一句富有哲理的话	-6049
区分	-6050
终身	-6051
运势	-6052
副会长	-6053
新征程	-6054
生产基地	-6055
走了	-6056
氧气	-6057
特朗普	-6058
研究员	-6059
的颜色	-6060
两个人	-6061
情的	-6062
是从	-6063
马来	-6064
斯科	-6065
塑胶	-6066
利物浦	-6067
宏观	-6068
率高	-6069
纳税人	-6070
该项目	-6071
优美	-6072
专业技术	-6073
的有	-6074
,「	-6075
哪家	-6076
执照	-6077
国安	-6078
初中	-6079
商场	-6080
要多	-6081
建筑工程	-6082
南宁	-6083
数据库	-6084
投诉	-6085
但如果	-6086
的大型	-6087
人人	-6088
增生	-6089
此梦	-6090
红斑	-6091
▁华	-6092
天地	-6093
创办	-6094
的孩子	-6095
▁c	-6096
给我	-6097
▁第四	-6098
介绍一下	-6099
一件	-6100
二手	-6101
但他	-6102
后再	-6103
应在	-6104
敢于	-6105
全县	-6106
医保	-6107
油烟	-6108
篇章	-6109
两侧	-6110
填充	-6111
诞生	-6112
劳动合同	-6113
抗氧化	-6114
严禁	-6115
等各种	-6116
脸上	-6117
韧性	-6118
标题	-6119
油墨	-6120
沿海	-6121
180	-6122
造成了	-6123
――	-6124
的大小	-6125
5)	-6126
队友	-6127
要坚持	-6128
国庆	-6129
赋予	-6130
职业技术	-6131
這種	-6132
10%	-6133
手工	-6134
身體	-6135
散热器	-6136
▁如今	-6137
领取	-6138
作為	-6139
机动车	-6140
思想政治	-6141
与中国	-6142
福建省	-6143
扳平	-6144
考古	-6145
节点	-6146
勇敢	-6147
坐在	-6148
的责任	-6149
位居	-6150
好转	-6151
平凡	-6152
门将	-6153
的政治	-6154
创新创业	-6155
留意	-6156
判决	-6157
不容	-6158
11.	-6159
伴随着	-6160
▁t	-6161
销售额	-6162
▁经	-6163
第二次	-6164
开花	-6165
在我国	-6166
的一切	-6167
社保	-6168
队长	-6169
引起了	-6170
战略合作	-6171
,2020	-6172
书写	-6173
管材	-6174
安全隐患	-6175
化和	-6176
相继	-6177
蓬勃	-6178
红外	-6179
化解	-6180
足协	-6181
重症	-6182
文化和	-6183
为你	-6184
结晶	-6185
▁水	-6186
一道	-6187
幸运	-6188
所需的	-6189
是用	-6190
液晶	-6191
学金	-6192
增添	-6193
叶片	-6194
各方面	-6195
3,	-6196
▁这个	-6197
一日	-6198
小儿	-6199
没有任何	-6200
▁N	-6201
东南亚	-6202
病毒感染	-6203
了解了	-6204
▁2017	-6205
比如说	-6206
的因素	-6207
有所不同	-6208
烦恼	-6209
及时治疗	-6210
悬浮	-6211
遗憾	-6212
是什么呢	-6213
变速	-6214
此类	-6215
突发	-6216
運動	-6217
看了	-6218
而已	-6219
的公司	-6220
均有	-6221
大方	-6222
备受	-6223
好运	-6224
更快	-6225
氨基酸	-6226
的女性	-6227
经费	-6228
频道	-6229
当地时间	-6230
欧美	-6231
泄漏	-6232
生活习惯	-6233
饮食习惯	-6234
升本	-6235
清单	-6236
座谈会	-6237
是由于	-6238
什么样的	-6239
非常重要的	-6240
之地	-6241
的危害	-6242
亲自	-6243
多为	-6244
没想到	-6245
代表大会	-6246
CA	-6247
▁F	-6248
下半场	-6249
房产	-6250
概率	-6251
不好的	-6252
不會	-6253
党风	-6254
吉祥	-6255
白天	-6256
事物	-6257
的心态	-6258
演技	-6259
百万	-6260
還是	-6261
大自然	-6262
以其	-6263
其余	-6264
秋季	-6265
辛苦	-6266
注意力	-6267
特色的	-6268
省份	-6269
多有	-6270
机等	-6271
极其	-6272
立方米	-6273
不存在	-6274
本公司	-6275
抵达	-6276
色泽	-6277
遍布	-6278
净利润	-6279
和治疗	-6280
积极参与	-6281
发售	-6282
抛光	-6283
抗震	-6284
出席会议	-6285
能够在	-6286
管理系统	-6287
颁奖	-6288
20%	-6289
低的	-6290
表面的	-6291
74	-6292
海拔	-6293
选拔	-6294
复苏	-6295
摆脱	-6296
诈骗	-6297
年限	-6298
出版社	-6299
市级	-6300
环境下	-6301
花卉	-6302
90%	-6303
填写	-6304
存款	-6305
平方公里	-6306
形容	-6307
尼奥	-6308
而来	-6309
开幕式	-6310
前列腺炎	-6311
工作室	-6312
一站式	-6313
==	-6314
处处	-6315
支球队	-6316
周末	-6317
禁忌	-6318
文化遗产	-6319
位列	-6320
冠状	-6321
小康	-6322
80%	-6323
的速度	-6324
上来	-6325
勇气	-6326
陕西省	-6327
08	-6328
路径	-6329
成立了	-6330
一套	-6331
黑色素细胞	-6332
的经营理念	-6333
决议	-6334
书籍	-6335
溶于	-6336
个小时	-6337
找到了	-6338
尤文	-6339
在这种	-6340
步行	-6341
简便	-6342
开水	-6343
雕刻	-6344
万辆	-6345
必不可	-6346
展示了	-6347
四季	-6348
眼前	-6349
得很	-6350
航班	-6351
光泽	-6352
有害物质	-6353
创伤	-6354
桃花	-6355
西兰	-6356
记住	-6357
服务平台	-6358
一期	-6359
过硬	-6360
的重大	-6361
构件	-6362
的一项	-6363
烘干机	-6364
硫化	-6365
严峻	-6366
路面	-6367
连胜	-6368
经济学	-6369
热的	-6370
阴茎	-6371
精湛	-6372
令人深思	-6373
理想的	-6374
公元	-6375
乐趣	-6376
大战	-6377
30%	-6378
至关	-6379
的优点	-6380
年级	-6381
针对性	-6382
爱人	-6383
直流	-6384
所得税	-6385
马尔	-6386
体温	-6387
重金属	-6388
公安机关	-6389
守护	-6390
目前的	-6391
历经	-6392
去世	-6393
和大	-6394
放射	-6395
全日制	-6396
香味	-6397
及时的	-6398
检察院	-6399
少女	-6400
巡视	-6401
梳理	-6402
现已	-6403
彩色	-6404
严格按照	-6405
征求	-6406
皮炎	-6407
碰撞	-6408
高兴	-6409
冬奥	-6410
与其	-6411
幅度	-6412
烈士	-6413
境界	-6414
可以让	-6415
此后	-6416
流域	-6417
陌生	-6418
和中国	-6419
对照	-6420
故意	-6421
绩效	-6422
我会	-6423
个人的	-6424
湾区	-6425
废弃	-6426
展现了	-6427
和水	-6428
量大	-6429
年开始	-6430
煤矿	-6431
写作	-6432
交付	-6433
成功率	-6434
喝酒	-6435
店铺	-6436
创造了	-6437
仅供	-6438
之日起	-6439
我们需要	-6440
子里	-6441
总计	-6442
指引	-6443
xi	-6444
恐惧	-6445
用车	-6446
千年	-6447
规范化	-6448
对中国	-6449
所谓的	-6450
这不禁令人深思	-6451
为核心的	-6452
出手	-6453
线条	-6454
严重影响	-6455
研究人员	-6456
这是一个	-6457
伦敦	-6458
61	-6459
减排	-6460
海报	-6461
高职	-6462
级别	-6463
斯基	-6464
的最	-6465
勇士	-6466
得多	-6467
过后	-6468
产业的	-6469
科院	-6470
锦赛	-6471
承接	-6472
链接	-6473
瑞士	-6474
偏方	-6475
可使	-6476
洗手	-6477
产物	-6478
黄牌	-6479
节能环保	-6480
主张	-6481
私人	-6482
主机	-6483
环比	-6484
古典	-6485
三等奖	-6486
海关	-6487
政策的	-6488
新中国	-6489
夺得	-6490
估计	-6491
潮流	-6492
目录	-6493
保证了	-6494
太大	-6495
两队	-6496
泰山	-6497
双手	-6498
者和	-6499
公务员	-6500
ok	-6501
不佳	-6502
可怕	-6503
教育教学	-6504
开局	-6505
普通的	-6506
也不要	-6507
试剂	-6508
展开了	-6509
高分子	-6510
回事	-6511
有个	-6512
报导	-6513
空压机	-6514
的良好	-6515
一定程度上	-6516
发布了	-6517
对抗	-6518
六中全会	-6519
参加会议	-6520
经历了	-6521
面料	-6522
领导下	-6523
到医院	-6524
拉斯	-6525
住宿	-6526
全体党员	-6527
雨水	-6528
到大家	-6529
时间为	-6530
患儿	-6531
不怕	-6532
发改	-6533
中外	-6534
月至	-6535
▁多	-6536
印发	-6537
长大	-6538
一层	-6539
不移	-6540
客戶	-6541
排行	-6542
食堂	-6543
灵芝	-6544
全面的	-6545
希腊	-6546
志愿服务	-6547
微笑	-6548
生产工艺	-6549
他表示	-6550
互联	-6551
先天	-6552
按时	-6553
,2021	-6554
经贸	-6555
江西省	-6556
热处理	-6557
un	-6558
非常重要	-6559
优雅	-6560
各種	-6561
合伙	-6562
和使用	-6563
被人	-6564
卫视	-6565
日内	-6566
组长	-6567
应及时	-6568
制备	-6569
十字	-6570
的空间	-6571
的部分	-6572
生态文明	-6573
那就	-6574
技术服务	-6575
不少于	-6576
兼任	-6577
担忧	-6578
喜欢的	-6579
长安	-6580
一对	-6581
动漫	-6582
聊天	-6583
在全球	-6584
所致	-6585
96	-6586
杆菌	-6587
选择了	-6588
中国人	-6589
83	-6590
克力	-6591
周岁	-6592
一样的	-6593
學習	-6594
平常	-6595
手动	-6596
如何发展	-6597
辖区	-6598
顶级	-6599
长城	-6600
6000	-6601
放大	-6602
的城市	-6603
援助	-6604
首个	-6605
10-	-6606
对自己	-6607
目前已	-6608
▁199	-6609
▁图	-6610
▁北京时间	-6611
水泵	-6612
一部	-6613
夜间	-6614
的一致	-6615
账号	-6616
在我	-6617
小组赛	-6618
工程机械	-6619
行业发展	-6620
为导向	-6621
进行的	-6622
完美的	-6623
仿佛	-6624
十三五	-6625
大棚	-6626
涨幅	-6627
气质	-6628
0.1	-6629
世界的	-6630
有一天	-6631
有期徒刑	-6632
7-	-6633
因其	-6634
学费	-6635
长远	-6636
语文	-6637
复印件	-6638
做大	-6639
慎重	-6640
12.	-6641
墙面	-6642
演绎	-6643
央视	-6644
永久	-6645
▁8.	-6646
在前	-6647
通行	-6648
粉碎	-6649
维奇	-6650
挤压	-6651
碳化	-6652
本书	-6653
头脑	-6654
人民的	-6655
和中	-6656
光源	-6657
腐蚀性	-6658
倾向	-6659
关系的	-6660
合力	-6661
其他的	-6662
股价	-6663
版权	-6664
一般的	-6665
码头	-6666
血脂	-6667
不断扩大	-6668
发布会	-6669
在职	-6670
皇家	-6671
碱性	-6672
荣誉称号	-6673
追究	-6674
腹痛	-6675
螺栓	-6676
尔斯	-6677
过去的	-6678
医用	-6679
前提	-6680
旺盛	-6681
警惕	-6682
史上	-6683
时间长	-6684
情形	-6685
▁全	-6686
高潮	-6687
设计和	-6688
饱满	-6689
道的	-6690
第二个	-6691
地处	-6692
进去	-6693
对你	-6694
为国家	-6695
告诉记者	-6696
门的	-6697
为契机	-6698
呈现出	-6699
中共中央	-6700
风水	-6701
减速机	-6702
主题教育	-6703
全面从严治党	-6704
高档	-6705
定点	-6706
回复	-6707
体内的	-6708
马来西亚	-6709
种种	-6710
IC	-6711
一座	-6712
展出	-6713
礼品	-6714
现代化的	-6715
将为	-6716
必須	-6717
早泄	-6718
原油	-6719
西甲	-6720
党总支	-6721
▁周	-6722
直观	-6723
剂量	-6724
熟练	-6725
但由于	-6726
家企业	-6727
百年奋斗	-6728
中国队	-6729
在生活中	-6730
部部长	-6731
灵敏	-6732
脾胃	-6733
地區	-6734
了自己的	-6735
毕业于	-6736
每个人都	-6737
一只	-6738
修养	-6739
的人群	-6740
首位	-6741
专升本	-6742
治疗效果	-6743
原因是	-6744
牢记使命	-6745
倒入	-6746
电镀	-6747
主要的	-6748
中最	-6749
人们对	-6750
善良	-6751
接头	-6752
▁一个	-6753
风扇	-6754
单位的	-6755
空气中	-6756
党的十九届	-6757
ay	-6758
做强	-6759
欢乐	-6760
eng	-6761
给我们	-6762
各种各	-6763
大学的	-6764
小米	-6765
)》	-6766
分辨	-6767
漫画	-6768
先行	-6769
又能	-6770
墙板	-6771
年内	-6772
民用	-6773
总监	-6774
靠近	-6775
▁前	-6776
合法权益	-6777
民事	-6778
结构的	-6779
信息的	-6780
域名	-6781
变成了	-6782
建设项目	-6783
下游	-6784
放电	-6785
相同的	-6786
默默	-6787
打包	-6788
推行	-6789
求精	-6790
病理	-6791
轻轻	-6792
外表	-6793
姓名	-6794
电能	-6795
不合格	-6796
关联	-6797
风湿	-6798
人民医院	-6799
十六	-6800
不见	-6801
新颖	-6802
高强度	-6803
征收	-6804
之内	-6805
工程项目	-6806
限度	-6807
你要	-6808
呼吁	-6809
手中	-6810
详细介绍	-6811
价值的	-6812
阐述	-6813
知名度	-6814
可爱	-6815
全区	-6816
细腻	-6817
ID	-6818
怀疑	-6819
掌控	-6820
清新	-6821
▁将	-6822
大使	-6823
秉持	-6824
党风廉政	-6825
搬家	-6826
管理办法	-6827
若是	-6828
老百姓	-6829
羽毛	-6830
但是在	-6831
服务于	-6832
71	-6833
畸形	-6834
▁就	-6835
富裕	-6836
情況	-6837
学子	-6838
国足	-6839
合作的	-6840
头晕	-6841
病原	-6842
换热器	-6843
采暖	-6844
無法	-6845
石灰	-6846
据悉	-6847
云南省	-6848
收取	-6849
的时代	-6850
平等	-6851
高品质	-6852
截至目前	-6853
是大	-6854
异性	-6855
1.0	-6856
环境污染	-6857
he	-6858
玩法	-6859
市区	-6860
昨日	-6861
AC	-6862
中午	-6863
气血	-6864
充分的	-6865
疑问	-6866
坚信	-6867
未來	-6868
发电机组	-6869
胃肠	-6870
:30	-6871
枸杞	-6872
在进行	-6873
的需要	-6874
男篮	-6875
外壳	-6876
管理体系认证	-6877
排气	-6878
资源的	-6879
标志着	-6880
我和	-6881
的两	-6882
轻易	-6883
等功能	-6884
出水	-6885
破裂	-6886
救治	-6887
GDP	-6888
冷水	-6889
组装	-6890
阳性	-6891
高效的	-6892
客服	-6893
第八	-6894
有机物	-6895
认识到	-6896
国有企业	-6897
入境	-6898
需求的	-6899
需要在	-6900
▁随后	-6901
疤痕	-6902
色谱	-6903
督导	-6904
营业执照	-6905
涂装	-6906
溫度	-6907
区委	-6908
▁10、	-6909
粗糙	-6910
大事	-6911
广州市	-6912
比上年	-6913
表现出	-6914
冲压	-6915
暴雨	-6916
金钱	-6917
毫无	-6918
新年	-6919
▁——	-6920
可能导致	-6921
事业发展	-6922
三次	-6923
教职工	-6924
坚定不移	-6925
起着	-6926
黏膜	-6927
奠定了	-6928
接下来如何发展	-6929
84	-6930
▁日	-6931
有关规定	-6932
石英	-6933
产业园	-6934
企业管理	-6935
祝贺	-6936
这启发了我接下来如何发展	-6937
好友	-6938
700	-6939
摄像	-6940
屋顶	-6941
行业协会	-6942
一半	-6943
如同	-6944
恶心	-6945
粘膜	-6946
万人次	-6947
主演的	-6948
体现在	-6949
划分	-6950
周知	-6951
审美	-6952
简洁	-6953
领导小组	-6954
把它	-6955
你是	-6956
洽谈	-6957
从未	-6958
监会	-6959
边的	-6960
制剂	-6961
面板	-6962
云计算	-6963
以人为本	-6964
给自己	-6965
中部	-6966
紧凑	-6967
▁近	-6968
宠物	-6969
是一些	-6970
全过程	-6971
但我	-6972
时间和	-6973
广泛应用	-6974
畅通	-6975
管理部门	-6976
红木	-6977
四肢	-6978
月中	-6979
讨厌	-6980
▁大家	-6981
副局长	-6982
结算	-6983
全场	-6984
硅胶	-6985
竞争力的	-6986
为期	-6987
珠海	-6988
外语	-6989
平板	-6990
民营企业	-6991
修建	-6992
将近	-6993
内在	-6994
血管瘤	-6995
温柔	-6996
共同努力	-6997
他还	-6998
打入	-6999
为目标	-7000
的设备	-7001
病人的	-7002
风貌	-7003
▁原	-7004
事务所	-7005
坐落于	-7006
督促	-7007
客厅	-7008
的時候	-7009
但不	-7010
华南	-7011
深深	-7012
因此在	-7013
入党	-7014
助推	-7015
年至	-7016
让大家	-7017
os	-7018
宾馆	-7019
保護	-7020
7、	-7021
异味	-7022
同年	-7023
外贸	-7024
联邦	-7025
报道称	-7026
党组书记	-7027
猪肉	-7028
德甲	-7029
建筑业	-7030
要加强	-7031
丽的	-7032
既往	-7033
乳腺癌	-7034
科学与	-7035
并且在	-7036
所周知	-7037
▁2016	-7038
幕墙	-7039
乒乓	-7040
开学	-7041
成套	-7042
充足的	-7043
1999	-7044
用了	-7045
奋力	-7046
可以使用	-7047
自主研发	-7048
买球	-7049
看法	-7050
的重	-7051
喝水	-7052
准则	-7053
制成的	-7054
工作会议	-7055
保温材料	-7056
倡议	-7057
博会	-7058
睾丸	-7059
糜烂	-7060
国企	-7061
班级	-7062
得出	-7063
这份	-7064
半决赛	-7065
提起	-7066
肌瘤	-7067
核酸检测	-7068
代价	-7069
粘合	-7070
营商	-7071
所属	-7072
和企业	-7073
互利	-7074
创始人	-7075
操作简单	-7076
曲线	-7077
文旅	-7078
会被	-7079
鼓舞	-7080
时要	-7081
目光	-7082
行業	-7083
尤其是在	-7084
的心情	-7085
科技成果	-7086
期内	-7087
流体	-7088
疏松	-7089
区块	-7090
马拉	-7091
学习的	-7092
對於	-7093
脱发	-7094
给孩子	-7095
il	-7096
器和	-7097
外墙	-7098
轮胎	-7099
透气	-7100
▁我国	-7101
总承包	-7102
應該	-7103
尔特	-7104
还具有	-7105
从中	-7106
中小学	-7107
癫痫发作	-7108
化学品	-7109
AR	-7110
客运	-7111
减缓	-7112
銹鋼	-7113
即使是	-7114
成语	-7115
并通过	-7116
台阶	-7117
微波	-7118
试图	-7119
吃了	-7120
塔尔	-7121
工作效率	-7122
师傅	-7123
谈到	-7124
一起来看看	-7125
护肤	-7126
调控	-7127
一开始	-7128
精神的	-7129
极端	-7130
描写	-7131
不一	-7132
合约	-7133
见到	-7134
之心	-7135
致使	-7136
吸入	-7137
水肿	-7138
牢牢	-7139
藝術	-7140
政府的	-7141
处在	-7142
有许多	-7143
深刻的	-7144
花的	-7145
国资委	-7146
骨骼	-7147
生命的	-7148
消防安全	-7149
一块	-7150
外阴	-7151
起來	-7152
一辈	-7153
纪检监察	-7154
以内	-7155
阳台	-7156
非常好	-7157
无效	-7158
我希望各位	-7159
▁海	-7160
引人	-7161
一句名言	-7162
1-2	-7163
自来水	-7164
我希望各位也能好好地体会这句话	-7165
許多	-7166
一般是	-7167
去做	-7168
姐姐	-7169
工程的	-7170
新陈代谢	-7171
使人	-7172
长久	-7173
失去了	-7174
后面	-7175
语音	-7176
ab	-7177
是国内	-7178
医务	-7179
不明	-7180
及早	-7181
拿下	-7182
机能	-7183
獲得	-7184
发改委	-7185
这是一	-7186
尽量避免	-7187
你就	-7188
ag	-7189
萎缩	-7190
92	-7191
意的	-7192
97	-7193
乳化	-7194
转向	-7195
命令	-7196
信用卡	-7197
脑血管	-7198
说过这样一句名言	-7199
锂电池	-7200
从此	-7201
結構	-7202
的经济	-7203
相关负责人	-7204
家园	-7205
的热情	-7206
上级	-7207
年后	-7208
水库	-7209
美洲	-7210
被誉为	-7211
等一系列	-7212
做得	-7213
来临	-7214
質量	-7215
与发展	-7216
防锈	-7217
讲述了	-7218
行走	-7219
属性	-7220
如果您	-7221
所以说	-7222
顺序	-7223
上半场	-7224
约定	-7225
合作关系	-7226
工作报告	-7227
权力	-7228
電影	-7229
分工	-7230
我不	-7231
中秋	-7232
为我们	-7233
可靠的	-7234
82	-7235
佛山	-7236
三维	-7237
建議	-7238
天天	-7239
水源	-7240
变压器	-7241
多功能	-7242
看待	-7243
门槛	-7244
新一代	-7245
反攻	-7246
亲切	-7247
医学院	-7248
仍在	-7249
较差	-7250
抗生素	-7251
女排	-7252
公司拥有	-7253
湿疹	-7254
瓷砖	-7255
进一步加强	-7256
喜歡	-7257
较强	-7258
净化器	-7259
",	-7260
卧室	-7261
坚固	-7262
政务	-7263
在其	-7264
人气	-7265
以防	-7266
心理学	-7267
真菌	-7268
的消息	-7269
;(	-7270
的整体	-7271
同类	-7272
導致	-7273
洗澡	-7274
阻力	-7275
工程技术	-7276
有一种	-7277
规章	-7278
和个人	-7279
的作品	-7280
营业收入	-7281
局限	-7282
知识和	-7283
无缝钢管	-7284
柠檬	-7285
热带	-7286
肾脏	-7287
中专	-7288
科技进步	-7289
天津市	-7290
的活动	-7291
不断发展	-7292
青山	-7293
饮用水	-7294
”)	-7295
急救	-7296
职业生涯	-7297
我要	-7298
生化	-7299
短信	-7300
▁西	-7301
租车	-7302
达标	-7303
毫升	-7304
结局	-7305
了一种	-7306
还不	-7307
分管	-7308
之後	-7309
的生长	-7310
要保持	-7311
实木	-7312
3%,	-7313
领先的	-7314
ad	-7315
之旅	-7316
参演	-7317
体力	-7318
你在	-7319
的方向	-7320
转子	-7321
分钟后	-7322
元的	-7323
料的	-7324
留言	-7325
智能制造	-7326
贯穿	-7327
一款	-7328
内科	-7329
咱们	-7330
以确保	-7331
希望能够帮助	-7332
斯卡	-7333
毒性	-7334
还没	-7335
高原	-7336
充分肯定	-7337
的有效	-7338
救助	-7339
未成年人	-7340
县级	-7341
步入	-7342
生活中的	-7343
安置	-7344
手法	-7345
的各种	-7346
淘宝	-7347
砂浆	-7348
关节炎	-7349
气味	-7350
us	-7351
愉快	-7352
光电	-7353
站位	-7354
的决定	-7355
依次	-7356
两天	-7357
南通	-7358
ri	-7359
投資	-7360
任职	-7361
商店	-7362
经纪	-7363
功能障碍	-7364
人次	-7365
可行	-7366
将对	-7367
詹姆斯	-7368
天空	-7369
全面建设	-7370
我也	-7371
众所周知	-7372
醫院	-7373
,2017	-7374
企事业单位	-7375
机构的	-7376
正处于	-7377
超过了	-7378
▁无	-7379
前锋	-7380
▁活动	-7381
愿望	-7382
和支持	-7383
病情的	-7384
的女	-7385
重返	-7386
认为是	-7387
大队	-7388
才可以	-7389
所能	-7390
理想信念	-7391
我司	-7392
约束	-7393
见面	-7394
的性能	-7395
生产能力	-7396
我觉得	-7397
星座	-7398
火车	-7399
降雨	-7400
为其	-7401
悠久	-7402
轻微	-7403
企业发展	-7404
重建	-7405
警示	-7406
检修	-7407
酸钠	-7408
长达	-7409
分泌物	-7410
困境	-7411
自豪	-7412
决定了	-7413
互通	-7414
整洁	-7415
源头	-7416
创新发展	-7417
党组成员	-7418
ml	-7419
注意的是	-7420
质地	-7421
精益求精	-7422
发光	-7423
删除	-7424
人生的	-7425
切成	-7426
13.	-7427
经营范围	-7428
住了	-7429
出色的	-7430
增强了	-7431
民俗	-7432
运会	-7433
的压力	-7434
聚合物	-7435
密码	-7436
中心的	-7437
伺服	-7438
太极	-7439
新老	-7440
星级	-7441
牡丹	-7442
立场	-7443
队伍建设	-7444
二人	-7445
光荣	-7446
担保	-7447
每位	-7448
榜样	-7449
构造	-7450
病菌	-7451
不适合	-7452
流传	-7453
爷爷	-7454
间接	-7455
鳞屑	-7456
健康发展	-7457
该剧	-7458
在工作	-7459
然后再	-7460
市场竞争	-7461
履职	-7462
科技大学	-7463
一如	-7464
供热	-7465
典礼	-7466
之上	-7467
學校	-7468
本文	-7469
破门	-7470
线索	-7471
体积小	-7472
不清	-7473
晶体	-7474
支援	-7475
古老	-7476
产品和	-7477
年起	-7478
首届	-7479
常态化	-7480
经验的	-7481
打败	-7482
真人	-7483
稍微	-7484
的重点	-7485
党政	-7486
甲基	-7487
在生产	-7488
受害	-7489
大国	-7490
这是因为	-7491
尴尬	-7492
无力	-7493
董事会	-7494
开了	-7495
70%	-7496
產生	-7497
太原	-7498
职位	-7499
豪华	-7500
:《	-7501
身高	-7502
对身体	-7503
年间	-7504
服药	-7505
首要	-7506
精致	-7507
直至	-7508
公布的	-7509
排名第	-7510
剧院	-7511
纸箱	-7512
毕业后	-7513
模糊	-7514
风光	-7515
就被	-7516
领军	-7517
、2	-7518
相连	-7519
透過	-7520
底部	-7521
这家	-7522
正当	-7523
发言人	-7524
余额	-7525
▁按照	-7526
网站的	-7527
通过对	-7528
1200	-7529
▁·	-7530
射手	-7531
资深	-7532
主教练	-7533
油的	-7534
件的	-7535
正规医院	-7536
人均	-7537
的一面	-7538
等产品	-7539
台北	-7540
面貌	-7541
160	-7542
不過	-7543
博览会	-7544
综艺	-7545
事宜	-7546
喜剧	-7547
的名	-7548
上看	-7549
体外	-7550
双向	-7551
正如	-7552
眼科	-7553
没有什么	-7554
号码	-7555
商贸	-7556
其實	-7557
务必	-7558
十余	-7559
多多	-7560
有必要	-7561
对外开放	-7562
现任	-7563
随便	-7564
1998	-7565
我们会	-7566
冷藏	-7567
减退	-7568
为民	-7569
大厦	-7570
发现了	-7571
葡萄牙	-7572
十几	-7573
▁W	-7574
希望大家	-7575
海军	-7576
也让	-7577
过量	-7578
分娩	-7579
条款	-7580
▁而且	-7581
美联	-7582
并于	-7583
明了	-7584
常年	-7585
惊喜	-7586
脂肪酸	-7587
ot	-7588
夺冠	-7589
宝贵	-7590
是使	-7591
控制器	-7592
感的	-7593
虚假	-7594
大面积	-7595
未经	-7596
民政	-7597
供暖	-7598
姿态	-7599
更能	-7600
这两个	-7601
________	-7602
,”	-7603
的表	-7604
還有	-7605
治好	-7606
肉类	-7607
学生们	-7608
人间	-7609
发生器	-7610
人造	-7611
很小	-7612
水资源	-7613
作出了	-7614
从业人员	-7615
穿越	-7616
走到	-7617
10000	-7618
改编	-7619
起步	-7620
的前提下	-7621
执着	-7622
献血	-7623
算是	-7624
风电	-7625
做什么	-7626
领导人	-7627
改性	-7628
东盟	-7629
一大	-7630
候选	-7631
副部长	-7632
。2018	-7633
导航	-7634
将有	-7635
等部门	-7636
加固	-7637
将军	-7638
可有	-7639
建筑材料	-7640
当选	-7641
自主创新	-7642
违法行为	-7643
中场	-7644
冒险	-7645
孤独	-7646
亏损	-7647
持久	-7648
130	-7649
各单位	-7650
与他人间	-7651
精彩的	-7652
新冠肺炎疫情	-7653
个别	-7654
不会有	-7655
建党	-7656
肚子	-7657
趣味	-7658
党的十九大	-7659
总会	-7660
shi	-7661
今天的	-7662
诠释	-7663
孵化	-7664
发明专利	-7665
极具	-7666
矿业	-7667
黑暗	-7668
了一系列	-7669
切除	-7670
工業	-7671
拉克	-7672
▁尽管	-7673
可通过	-7674
两个维护	-7675
姑娘	-7676
经济增长	-7677
明亮	-7678
球的	-7679
借鉴	-7680
各行	-7681
进食	-7682
合计	-7683
提倡	-7684
毛泽	-7685
網站	-7686
处理的	-7687
系统和	-7688
,000	-7689
新人	-7690
項目	-7691
纤维素	-7692
稀释	-7693
低下	-7694
利用率	-7695
整形	-7696
含义	-7697
,12	-7698
产品有	-7699
道路上	-7700
杜绝	-7701
核桃	-7702
就是要	-7703
排列	-7704
具有一定的	-7705
布朗	-7706
审理	-7707
用力	-7708
变为	-7709
摩托	-7710
矿物	-7711
武术	-7712
医护人员	-7713
红军	-7714
舆论	-7715
曼城	-7716
多久	-7717
:0	-7718
8000	-7719
利的	-7720
也可能	-7721
抗体	-7722
这些都是	-7723
烹饪	-7724
场馆	-7725
无害	-7726
身心健康	-7727
代会	-7728
的艺术	-7729
进一步提高	-7730
合唱	-7731
学期	-7732
教研	-7733
两名	-7734
皮球	-7735
就开始	-7736
意识到	-7737
的其他	-7738
详细的	-7739
看似	-7740
由中国	-7741
这种疾病	-7742
实干	-7743
抗疫	-7744
意义的	-7745
化学物质	-7746
占到	-7747
这条	-7748
減少	-7749
筛选	-7750
陪同	-7751
可以说是	-7752
足联	-7753
举行的	-7754
当日	-7755
理事长	-7756
安心	-7757
清淡	-7758
抖音	-7759
在上海	-7760
听力	-7761
怎样的	-7762
一看	-7763
▁七	-7764
直属	-7765
打标	-7766
样本	-7767
给他	-7768
洛阳	-7769
感觉到	-7770
最多的	-7771
全校	-7772
监理	-7773
小镇	-7774
神奇	-7775
说到	-7776
银屑病的	-7777
是将	-7778
包容	-7779
大胆	-7780
摆放	-7781
理工大学	-7782
敌人	-7783
据了解	-7784
毛泽东	-7785
可以直接	-7786
合影	-7787
势头	-7788
沿线	-7789
要比	-7790
八字	-7791
出资	-7792
模板	-7793
希望能够帮助到大家	-7794
乐园	-7795
工程专业	-7796
保暖	-7797
手架	-7798
老师的	-7799
学习宣传	-7800
哥哥	-7801
业内人士	-7802
另有	-7803
同样的	-7804
的比例	-7805
8-	-7806
所述	-7807
实效	-7808
建于	-7809
服务和	-7810
手指	-7811
不仅仅是	-7812
身为	-7813
大楼	-7814
这样可以	-7815
调解	-7816
冷静	-7817
理性	-7818
一般为	-7819
营商环境	-7820
长期的	-7821
崛起	-7822
说是	-7823
山西省	-7824
央行	-7825
柔性	-7826
毫不	-7827
视角	-7828
仍有	-7829
导弹	-7830
ow	-7831
四年	-7832
活血	-7833
算法	-7834
易燃	-7835
起诉	-7836
大地	-7837
太空	-7838
气泡	-7839
灌溉	-7840
业态	-7841
系统中	-7842
授课	-7843
衔接	-7844
诚实	-7845
肥料	-7846
防晒	-7847
丝绸	-7848
的总	-7849
年中国	-7850
▁请	-7851
超過	-7852
从这个	-7853
人身	-7854
监护	-7855
迄今	-7856
比较高	-7857
房价	-7858
负责同志	-7859
標準	-7860
想起	-7861
展厅	-7862
在与	-7863
塑性	-7864
颈部	-7865
1%,	-7866
有的人	-7867
里面的	-7868
为实现	-7869
偶像	-7870
树木	-7871
▁康	-7872
商城	-7873
雌激素	-7874
立德	-7875
行程	-7876
都被	-7877
临床上	-7878
获悉	-7879
相对于	-7880
党委委员	-7881
集群	-7882
如果在	-7883
游戏中	-7884
子和	-7885
要点	-7886
绿色环保	-7887
从而使	-7888
美国的	-7889
去年同期	-7890
海水	-7891
劳动力	-7892
还是要	-7893
,11	-7894
就必须	-7895
没有人	-7896
使用时	-7897
公共卫生	-7898
草案	-7899
行星	-7900
清华大学	-7901
的确	-7902
og	-7903
2-3	-7904
一颗	-7905
整齐	-7906
专业从事	-7907
膀胱	-7908
和国家	-7909
的所有	-7910
喷雾	-7911
寻常	-7912
的上	-7913
規定	-7914
区政府	-7915
主持会议	-7916
TV	-7917
完毕	-7918
培训班	-7919
希望能	-7920
OC	-7921
分手	-7922
在国际	-7923
自贸	-7924
适度	-7925
次的	-7926
汽油	-7927
和不	-7928
龟头	-7929
▁可以	-7930
不僅	-7931
」、	-7932
仅为	-7933
民眾	-7934
管理制度	-7935
烟台	-7936
热泵	-7937
很好地	-7938
是一款	-7939
催化剂	-7940
防静电	-7941
居家	-7942
持續	-7943
申請	-7944
骨质	-7945
农业农村	-7946
龙头企业	-7947
比数	-7948
学的	-7949
双重	-7950
不可以	-7951
核心竞争力	-7952
安装在	-7953
之美	-7954
幫助	-7955
党和国家	-7956
3%	-7957
抗菌	-7958
不一样的	-7959
出门	-7960
的意思	-7961
率领	-7962
隐藏	-7963
侵害	-7964
女友	-7965
一流的	-7966
损耗	-7967
全体员工	-7968
不止	-7969
挂牌	-7970
过渡	-7971
金刚	-7972
合资	-7973
磷酸	-7974
误差	-7975
织物	-7976
千万不要	-7977
比较大	-7978
南海	-7979
金山	-7980
4%,	-7981
工伤	-7982
黑素	-7983
是一件	-7984
行情	-7985
以来的	-7986
做一个	-7987
美味	-7988
晚期	-7989
工作和	-7990
的大力	-7991
正面	-7992
学习了	-7993
饰演的	-7994
勤奋	-7995
平米	-7996
果实	-7997
生活会	-7998
一直以来	-7999
例子	-8000
集聚	-8001
▁他们	-8002
典型的	-8003
足以	-8004
客人	-8005
▁项目	-8006
夫妇	-8007
▁本文	-8008
不符合	-8009
一台	-8010
特斯	-8011
导电	-8012
为指导	-8013
的重要组成部分	-8014
多么	-8015
意甲	-8016
掌声	-8017
负载	-8018
上赛季	-8019
回落	-8020
制作的	-8021
大理	-8022
一把	-8023
是需要	-8024
思想和	-8025
动能	-8026
干预	-8027
疯狂	-8028
邮政	-8029
成都市	-8030
中美	-8031
稳健	-8032
三个月	-8033
旗帜	-8034
是为	-8035
什么时候	-8036
ei	-8037
产学	-8038
涂抹	-8039
这段	-8040
集中在	-8041
职业技能	-8042
堆积	-8043
外汇	-8044
救护	-8045
脆弱	-8046
皮带	-8047
▁杨	-8048
各行各	-8049
的国际	-8050
三天	-8051
差不多	-8052
存在着	-8053
短时间内	-8054
业有限公司	-8055
UV	-8056
批量	-8057
在接受	-8058
党支部书记	-8059
恒温	-8060
其中包括	-8061
弟弟	-8062
的日子	-8063
传球	-8064
进了	-8065
笔记	-8066
发展规划	-8067
8、	-8068
战术	-8069
为您提供	-8070
机和	-8071
分之一	-8072
年纪	-8073
拆除	-8074
的新型	-8075
0.2	-8076
的全部内容	-8077
失误	-8078
重型	-8079
有过	-8080
不等	-8081
IM	-8082
冷库	-8083
單位	-8084
万余	-8085
的结构	-8086
国王	-8087
点评	-8088
受精	-8089
回合	-8090
機會	-8091
扭矩	-8092
中原	-8093
分成	-8094
断裂	-8095
骨折	-8096
公开发表	-8097
起到了	-8098
观光	-8099
诗人	-8100
14.	-8101
了一些	-8102
债权	-8103
乃是	-8104
痛经	-8105
要是	-8106
免疫功能	-8107
一百	-8108
要做好	-8109
这时候	-8110
联手	-8111
100%	-8112
原有	-8113
月饼	-8114
气息	-8115
温和	-8116
环境和	-8117
哪怕	-8118
中甲	-8119
流畅	-8120
的研发	-8121
备用	-8122
风采	-8123
一共	-8124
安防	-8125
短短	-8126
停车场	-8127
就已经	-8128
电动车	-8129
杀死	-8130
质疑	-8131
习近平同志	-8132
比较多	-8133
流动性	-8134
、5	-8135
眼光	-8136
同等	-8137
礼仪	-8138
竭诚	-8139
区块链	-8140
而成的	-8141
因子	-8142
外援	-8143
约翰	-8144
來說	-8145
打出	-8146
教育局	-8147
只会	-8148
电极	-8149
统战	-8150
贵州省	-8151
和对	-8152
金沙	-8153
的综合	-8154
直接影响	-8155
思政	-8156
生气	-8157
缩小	-8158
组件	-8159
酪氨酸	-8160
的含量	-8161
沃尔	-8162
應用	-8163
边界	-8164
AS	-8165
ion	-8166
另一种	-8167
救灾	-8168
世界各地	-8169
门票	-8170
。2019	-8171
而且在	-8172
传中	-8173
同比下降	-8174
民航	-8175
华北	-8176
分开	-8177
2.0	-8178
列为	-8179
完备	-8180
空气中的	-8181
发力	-8182
家协会	-8183
届全国	-8184
干部职工	-8185
不负	-8186
之間	-8187
宽度	-8188
奇迹	-8189
签证	-8190
市的	-8191
与管理	-8192
3.5	-8193
因为它	-8194
监督管理	-8195
▁V	-8196
的表面	-8197
反击	-8198
在水	-8199
结核	-8200
▁采用	-8201
的好处	-8202
不低于	-8203
十八大	-8204
办事处	-8205
或缺	-8206
冷却塔	-8207
调动	-8208
充满了	-8209
明确了	-8210
墨西	-8211
褐色	-8212
他指出	-8213
奇怪	-8214
榜单	-8215
总决赛	-8216
出具	-8217
逾期	-8218
英格兰	-8219
加班	-8220
交互	-8221
几次	-8222
院所	-8223
县城	-8224
隐私	-8225
古城	-8226
排在	-8227
主要由	-8228
脚手架	-8229
病情加重	-8230
为一体	-8231
骑士	-8232
▁专家	-8233
▁b	-8234
展望	-8235
深远	-8236
对自己的	-8237
头皮	-8238
▁查看	-8239
就是在	-8240
每个人的	-8241
没能	-8242
造就	-8243
从而导致	-8244
共产党员	-8245
的增长	-8246
要知道	-8247
US	-8248
uo	-8249
来源于	-8250
变频器	-8251
真的是	-8252
积累了	-8253
高新区	-8254
大致	-8255
战士	-8256
架构	-8257
顽固	-8258
6%,	-8259
积极性	-8260
灭菌	-8261
适用范围	-8262
一个人的	-8263
心理健康	-8264
总面积	-8265
的正常	-8266
内障	-8267
合一	-8268
修正	-8269
我国的	-8270
作息	-8271
成熟的	-8272
CC	-8273
财政部	-8274
奋发	-8275
墨西哥	-8276
男生	-8277
进入了	-8278
保持良好的	-8279
华夏	-8280
才有	-8281
面包	-8282
无痛	-8283
铺设	-8284
小时内	-8285
为准	-8286
分支	-8287
难免	-8288
紧紧围绕	-8289
胶囊	-8290
達到	-8291
、《	-8292
经期	-8293
住房公积金	-8294
格式	-8295
亚军	-8296
入驻	-8297
左侧	-8298
饭店	-8299
木耳	-8300
致富	-8301
大湾区	-8302
进行检查	-8303
。3	-8304
新城	-8305
珍珠	-8306
互补	-8307
她在	-8308
菲律	-8309
剧烈	-8310
挤出	-8311
干细胞	-8312
知的	-8313
赛的	-8314
自己在	-8315
7%,	-8316
领悟	-8317
凤凰	-8318
求职	-8319
促进了	-8320
全局	-8321
共创	-8322
转动	-8323
光谱	-8324
拍卖	-8325
高标准	-8326
借款	-8327
无关	-8328
我们都	-8329
之情	-8330
般的	-8331
温州	-8332
甚至是	-8333
高性能	-8334
它们的	-8335
意愿	-8336
打印机	-8337
笑容	-8338
爱好者	-8339
白癜风治疗	-8340
派出所	-8341
作为一种	-8342
金属材料	-8343
就越	-8344
之征兆	-8345
的费用	-8346
▁m	-8347
不斷	-8348
也都	-8349
剂和	-8350
月经不	-8351
长三角	-8352
光线	-8353
水平和	-8354
可供	-8355
赛场	-8356
错过	-8357
联轴	-8358
东风	-8359
保密	-8360
香气	-8361
的最佳	-8362
数百	-8363
论述	-8364
带领下	-8365
、1	-8366
回升	-8367
的行业	-8368
精度高	-8369
走在	-8370
在日常生活中	-8371
晚会	-8372
跟随	-8373
香蕉	-8374
介入	-8375
床上	-8376
▁针对	-8377
处分	-8378
年被	-8379
沙发	-8380
专访	-8381
势力	-8382
实惠	-8383
荧光	-8384
途中	-8385
处理设备	-8386
空气质量	-8387
营收	-8388
投产	-8389
调度	-8390
工期	-8391
查处	-8392
關係	-8393
优于	-8394
大米	-8395
出厂	-8396
出国	-8397
脱硫	-8398
奶奶	-8399
就會	-8400
60%	-8401
的投资	-8402
科大学	-8403
注册资金	-8404
河流	-8405
京津	-8406
相助	-8407
注塑	-8408
示范区	-8409
溶性	-8410
这座	-8411
一身	-8412
女性朋友	-8413
传染病	-8414
叉车	-8415
上演	-8416
北美	-8417
上网	-8418
十七	-8419
本品	-8420
配有	-8421
推展	-8422
编程	-8423
参观了	-8424
正能量	-8425
城乡建设	-8426
各有	-8427
行业内	-8428
就可以了	-8429
霉菌	-8430
打造出	-8431
弹簧	-8432
困难的	-8433
微企业	-8434
▁)	-8435
聚丙烯酰胺	-8436
耐磨性	-8437
大门	-8438
心肌	-8439
投篮	-8440
万亩	-8441
开门	-8442
更重要的是	-8443
不可避免的	-8444
某个	-8445
合规	-8446
学习和	-8447
不愿	-8448
标杆	-8449
已在	-8450
量身	-8451
和小	-8452
法学	-8453
的战略	-8454
油炸	-8455
性能和	-8456
控制在	-8457
原来的	-8458
2025	-8459
除外	-8460
手术治疗	-8461
▁2015	-8462
复制	-8463
投身	-8464
制约	-8465
专科医院	-8466
癫痫的	-8467
上场	-8468
生锈	-8469
工信	-8470
无私	-8471
正义	-8472
要认真	-8473
绝大多数	-8474
狮子	-8475
吸水	-8476
短板	-8477
AI	-8478
在地	-8479
自强	-8480
雷斯	-8481
菩萨	-8482
红柿	-8483
是一位	-8484
全长	-8485
接入	-8486
繼續	-8487
红旗	-8488
。2020	-8489
路灯	-8490
冰雪	-8491
取出	-8492
将被	-8493
液位	-8494
终止	-8495
数码	-8496
的来说	-8497
仅供参考	-8498
早就	-8499
并购	-8500
在哪里	-8501
筹备	-8502
网民	-8503
逆转	-8504
浓郁	-8505
年产	-8506
不对	-8507
烟气	-8508
教育厅	-8509
特点是	-8510
右脚	-8511
向往	-8512
小時	-8513
一直是	-8514
不稳定	-8515
为代表	-8516
本场比赛	-8517
▁I	-8518
沙特	-8519
81	-8520
在我们	-8521
首发	-8522
以下的	-8523
和生产	-8524
得益	-8525
大幅度	-8526
高精度	-8527
剩余	-8528
菊花	-8529
纪念馆	-8530
再到	-8531
准确的	-8532
,2022	-8533
大奖	-8534
大火	-8535
他也	-8536
建立起	-8537
更加的	-8538
右侧	-8539
良性	-8540
绿茶	-8541
后勤	-8542
服务体系	-8543
所长	-8544
更佳	-8545
技术与	-8546
明确提出	-8547
2》	-8548
▁安	-8549
空白	-8550
既是	-8551
锅中	-8552
注意到	-8553
丰富多彩	-8554
入手	-8555
氧化物	-8556
不銹鋼	-8557
固定资产	-8558
巡察	-8559
工程学院	-8560
沙漠	-8561
产妇	-8562
学前	-8563
该产品	-8564
15.	-8565
偶尔	-8566
奖金	-8567
消退	-8568
沥青	-8569
凸显	-8570
一如既往	-8571
有很好的	-8572
保质	-8573
番茄	-8574
比赛的	-8575
技术研发	-8576
研究表明	-8577
外用	-8578
片区	-8579
观测	-8580
它在	-8581
开辟	-8582
胎记	-8583
世锦赛	-8584
卵子	-8585
所含	-8586
阳痿	-8587
組織	-8588
车主	-8589
强势	-8590
赛中	-8591
政法	-8592
得不到	-8593
▁为什么	-8594
弥补	-8595
op	-8596
石膏	-8597
团委	-8598
近年	-8599
客户需求	-8600
的人们	-8601
排行榜	-8602
建设工程	-8603
影响力的	-8604
并能	-8605
款式	-8606
產業	-8607
零食	-8608
作为一个	-8609
修理	-8610
护航	-8611
综合征	-8612
神经系统	-8613
避免了	-8614
郑州市	-8615
残疾人	-8616
▁学院	-8617
百强	-8618
追溯	-8619
已经在	-8620
百分之	-8621
的地	-8622
沉积	-8623
自然的	-8624
公映	-8625
辽宁省	-8626
犯罪嫌疑人	-8627
不必要的	-8628
好看	-8629
瑞典	-8630
脚步	-8631
uan	-8632
性别	-8633
例外	-8634
加密	-8635
很可能	-8636
大豆	-8637
脱颖	-8638
一般情况下	-8639
检测仪	-8640
分裂	-8641
本身的	-8642
发展趋势	-8643
市场监管	-8644
旋律	-8645
癌的	-8646
全社会	-8647
泉水	-8648
网点	-8649
矫正	-8650
▁具有	-8651
电动机	-8652
塞罗	-8653
是谁	-8654
服饰	-8655
打磨	-8656
预制	-8657
图形	-8658
红茶	-8659
感染者	-8660
阿森	-8661
做起	-8662
转会	-8663
珠宝	-8664
耐候	-8665
可以使	-8666
过多的	-8667
以赴	-8668
夯实	-8669
毫克	-8670
台风	-8671
届时	-8672
对我们	-8673
毛囊	-8674
益生	-8675
唯一的	-8676
丢失	-8677
灯具	-8678
宣传部	-8679
班主任	-8680
▁(5)	-8681
技艺	-8682
而且还	-8683
的教学	-8684
一一	-8685
托盘	-8686
耳朵	-8687
指的是	-8688
亚太	-8689
情人	-8690
生病	-8691
研磨	-8692
身影	-8693
的声音	-8694
必须在	-8695
擁有	-8696
鲜艳	-8697
▁每	-8698
找出	-8699
粘结	-8700
AB	-8701
改为	-8702
本领	-8703
清醒	-8704
这对于	-8705
絮凝	-8706
等离子	-8707
同心	-8708
考研	-8709
间隙	-8710
一句话	-8711
深入学习贯彻	-8712
的人物	-8713
事迹	-8714
兴起	-8715
亲子鉴定	-8716
孔子	-8717
汲取	-8718
仲裁	-8719
▁下面	-8720
产学研	-8721
擦拭	-8722
有關	-8723
气动	-8724
▁全国	-8725
左右的	-8726
的思想	-8727
都非常	-8728
重要的作用	-8729
鼻炎	-8730
活泼	-8731
锦标	-8732
是一名	-8733
硬质	-8734
要么	-8735
深厚	-8736
数据的	-8737
一杯	-8738
第九	-8739
了一场	-8740
华人	-8741
在他	-8742
反弹	-8743
看上去	-8744
▁這	-8745
比利	-8746
细分	-8747
虚弱	-8748
量为	-8749
光照	-8750
器等	-8751
少许	-8752
色列	-8753
马斯	-8754
光纤	-8755
双眼	-8756
進入	-8757
全力以赴	-8758
历史文化	-8759
适合自己的	-8760
较长	-8761
人家	-8762
乒乓球	-8763
幸福的	-8764
重要意义	-8765
比起	-8766
油腻	-8767
实的	-8768
穩定	-8769
六个	-8770
北京大学	-8771
草莓	-8772
乙醇	-8773
新生儿	-8774
业务的	-8775
目的地	-8776
出于	-8777
间隔	-8778
1.8	-8779
习俗	-8780
哺乳	-8781
场比赛中	-8782
安全可靠	-8783
将进一步	-8784
梦到	-8785
▁成都	-8786
短暂	-8787
企业文化	-8788
新冠病毒	-8789
做成	-8790
和新	-8791
并为	-8792
下半年	-8793
层层	-8794
子上	-8795
针对性的	-8796
▁摄	-8797
否认	-8798
真相	-8799
出众	-8800
的特	-8801
矿石	-8802
可以达到	-8803
黑色素的	-8804
燃油	-8805
结石	-8806
农户	-8807
一分	-8808
剂等	-8809
误区	-8810
了自己	-8811
共同体	-8812
之以	-8813
哪种	-8814
法的	-8815
▁南	-8816
可以将	-8817
被动	-8818
电竞	-8819
运营商	-8820
多位	-8821
重温	-8822
重要讲话精神	-8823
度过	-8824
一心	-8825
不可或缺	-8826
▁如果你	-8827
直线	-8828
比特	-8829
几个月	-8830
生活在	-8831
突出的	-8832
变动	-8833
威尔	-8834
张家	-8835
毛细	-8836
各族	-8837
白内障	-8838
工程设计	-8839
94	-8840
EM	-8841
欲望	-8842
谢谢	-8843
职业学校	-8844
之时	-8845
尽责	-8846
落户	-8847
长期以来	-8848
征集	-8849
招收	-8850
红枣	-8851
▁林	-8852
脱离	-8853
不仅能	-8854
值班	-8855
」、「	-8856
举办的	-8857
发展成为	-8858
高质量的	-8859
走势	-8860
卡塔尔	-8861
成人高考	-8862
▁一般来说	-8863
去的	-8864
石头	-8865
清明	-8866
等方面的	-8867
节假日	-8868
钢琴	-8869
文化旅游	-8870
全面建设社会主义现代化	-8871
之年	-8872
并以	-8873
并有	-8874
缺失	-8875
衡量	-8876
要根据	-8877
严格执行	-8878
美化	-8879
DNA	-8880
为公司	-8881
理事会	-8882
遇见	-8883
靠谱	-8884
届中国	-8885
也是非常	-8886
开裂	-8887
发炎	-8888
华东	-8889
工匠	-8890
。2017	-8891
较多的	-8892
不良反应	-8893
治疗牛皮癣	-8894
烟草	-8895
四氟	-8896
开业	-8897
没什么	-8898
硕士学位	-8899
但却	-8900
甲方	-8901
解析	-8902
PM	-8903
包裹	-8904
筛查	-8905
超标	-8906
预告	-8907
高清	-8908
高空	-8909
ian	-8910
有色金属	-8911
91	-8912
但这	-8913
减弱	-8914
市值	-8915
最後	-8916
覺得	-8917
:1、	-8918
博士后	-8919
消炎	-8920
的可	-8921
电动汽车	-8922
中型	-8923
1400	-8924
▁"	-8925
电工	-8926
又会	-8927
开场	-8928
注销	-8929
浓缩	-8930
联络	-8931
改革的	-8932
>>	-8933
愉悦	-8934
建筑的	-8935
写字	-8936
国土	-8937
发展到	-8938
的传统	-8939
▁O	-8940
是你	-8941
生姜	-8942
部分地区	-8943
出汗	-8944
在未来	-8945
而又	-8946
參與	-8947
定时	-8948
数额	-8949
白云	-8950
物质的	-8951
▁事实上	-8952
囊肿	-8953
抗日	-8954
焚烧	-8955
不幸	-8956
高频	-8957
搜索引擎	-8958
生活方式	-8959
差的	-8960
支柱	-8961
无穷	-8962
法官	-8963
药剂	-8964
国家重点	-8965
汉语	-8966
作文	-8967
法庭	-8968
多样化	-8969
不断创新	-8970
麻疹	-8971
脉冲	-8972
二维	-8973
初级	-8974
朝阳	-8975
人才的	-8976
经营者	-8977
缴费	-8978
贡献力量	-8979
人对	-8980
原件	-8981
学士	-8982
集團	-8983
布鲁	-8984
建构	-8985
面临的	-8986
研究和	-8987
癫痫患者	-8988
改革发展	-8989
解梦	-8990
歌声	-8991
像是	-8992
意向	-8993
赞誉	-8994
总值	-8995
影响的	-8996
早餐	-8997
真心	-8998
乏力	-8999
笔者	-9000
,20	-9001
多媒体	-9002
应有	-9003
合作社	-9004
工业生产	-9005
是一家集	-9006
问题的关键	-9007
农历	-9008
期間	-9009
职业技术学院	-9010
印花	-9011
显微	-9012
我认为	-9013
其在	-9014
减小	-9015
选择的	-9016
关注的	-9017
城市建设	-9018
缺席	-9019
脾气	-9020
可以看到	-9021
国民经济	-9022
日后	-9023
看得	-9024
还款	-9025
了一批	-9026
这意味着	-9027
增高	-9028
并向	-9029
16.	-9030
我们也	-9031
规矩	-9032
增幅	-9033
顯示	-9034
保健品	-9035
▁亚	-9036
美女	-9037
衣物	-9038
数控机床	-9039
液的	-9040
长征	-9041
对患者	-9042
士兵	-9043
的海	-9044
立柱	-9045
参与了	-9046
发挥了	-9047
的宗旨	-9048
共同发展	-9049
额定	-9050
航空航天	-9051
之道	-9052
余项	-9053
发布会上	-9054
挥发	-9055
无比	-9056
历史的	-9057
沿着	-9058
获得的	-9059
山的	-9060
打了	-9061
耽误	-9062
跑步	-9063
▁还有	-9064
制动	-9065
新高	-9066
演艺	-9067
也不同	-9068
拿着	-9069
更具	-9070
。2、	-9071
▁2014	-9072
不予	-9073
贵阳	-9074
of	-9075
做到了	-9076
发烧	-9077
可惜	-9078
无人机	-9079
西红柿	-9080
來的	-9081
诱因	-9082
▁这一	-9083
抑郁症	-9084
推出了	-9085
白斑的	-9086
拆卸	-9087
空氣	-9088
安全和	-9089
行业的发展	-9090
滴滴	-9091
话说	-9092
菲律宾	-9093
不一定	-9094
试验机	-9095
保持在	-9096
产地	-9097
演练	-9098
省内	-9099
容积	-9100
拓宽	-9101
激活	-9102
完成后	-9103
▁据介绍	-9104
▁市	-9105
专辑	-9106
一个个	-9107
实施方案	-9108
員工	-9109
简历	-9110
放下	-9111
機械	-9112
澳洲	-9113
烟花	-9114
适量的	-9115
刚开始	-9116
工业化	-9117
普顿	-9118
用在	-9119
9%,	-9120
元器件	-9121
部门的	-9122
更要	-9123
都将	-9124
小麦	-9125
组的	-9126
姐妹	-9127
抗压	-9128
应用领域	-9129
做人	-9130
纠正	-9131
而上	-9132
表皮	-9133
攻关	-9134
毛发	-9135
治安	-9136
博士学位	-9137
中国经济	-9138
切断	-9139
干事	-9140
是一项	-9141
生产效率	-9142
曾多次	-9143
正常工作	-9144
止痛	-9145
犹豫	-9146
负债	-9147
口的	-9148
毛巾	-9149
指甲	-9150
专业委员会	-9151
很是	-9152
不仅要	-9153
该如何	-9154
北京时间	-9155
拿出	-9156
优异的	-9157
外商	-9158
活塞	-9159
装卸	-9160
正好	-9161
太多的	-9162
资格证书	-9163
劳累	-9164
电厂	-9165
逐年	-9166
粤港澳	-9167
▁再	-9168
婚礼	-9169
巴巴	-9170
一樣	-9171
感知	-9172
最新的	-9173
主体责任	-9174
石油化工	-9175
的内	-9176
不已	-9177
胶带	-9178
把自己	-9179
交所	-9180
耐久	-9181
环氧树脂	-9182
93	-9183
必将	-9184
它具有	-9185
权的	-9186
建設	-9187
通车	-9188
自然资源	-9189
▁K	-9190
支持和	-9191
铝型材	-9192
量子	-9193
节能减排	-9194
银屑病患者	-9195
、4	-9196
会议室	-9197
下属	-9198
不便	-9199
二期	-9200
保卫	-9201
的爱	-9202
直辖	-9203
为社会	-9204
离开了	-9205
提名	-9206
木质	-9207
制定了	-9208
促销	-9209
四是	-9210
結果	-9211
▁9.	-9212
大力发展	-9213
多特	-9214
教育和	-9215
生产设备	-9216
乙方	-9217
来自于	-9218
统治	-9219
执导	-9220
机房	-9221
环卫	-9222
草坪	-9223
以下几点	-9224
地理位置	-9225
用工	-9226
-20	-9227
和你	-9228
▁爱	-9229
经验和	-9230
电子产品	-9231
三国	-9232
很强	-9233
专职	-9234
感悟	-9235
有无	-9236
极限	-9237
菠菜	-9238
顺应	-9239
预案	-9240
傳統	-9241
印染	-9242
骄傲	-9243
球队的	-9244
病患者	-9245
这里的	-9246
高等学校	-9247
值得注意的是	-9248
压迫	-9249
付款	-9250
们在	-9251
时应	-9252
看好	-9253
經過	-9254
空間	-9255
散发	-9256
新春	-9257
居然	-9258
章程	-9259
以满足	-9260
从而达到	-9261
的主题	-9262
驾驶员	-9263
近几年	-9264
养老保险	-9265
可能会导致	-9266
部级	-9267
出轨	-9268
的心理	-9269
受到影响	-9270
千米	-9271
难点	-9272
开始了	-9273
不断完善	-9274
为用户提供	-9275
但也	-9276
脱颖而出	-9277
三星	-9278
350	-9279
并讲话	-9280
健脾	-9281
年期	-9282
珍贵	-9283
1.6	-9284
致癌	-9285
除湿	-9286
2%,	-9287
等内容	-9288
的名字	-9289
孕期	-9290
也越来越	-9291
▁/	-9292
赠送	-9293
颜值	-9294
月经不调	-9295
判处	-9296
▁截至	-9297
农民工	-9298
血清	-9299
透过	-9300
有机会	-9301
四个意识	-9302
他对	-9303
到处	-9304
的皮肤	-9305
保鲜	-9306
名牌	-9307
报记者	-9308
家政	-9309
无奈	-9310
婴幼儿	-9311
可实现	-9312
容易出现	-9313
摄氏	-9314
ER	-9315
淬火	-9316
绿豆	-9317
踏实	-9318
风味	-9319
美联储	-9320
正规的医院	-9321
在今年	-9322
生物质	-9323
入侵	-9324
撰写	-9325
万欧元	-9326
党代会	-9327
留下了	-9328
西瓜	-9329
集训	-9330
代表团	-9331
改变了	-9332
全面推进	-9333
加快推进	-9334
口岸	-9335
能使	-9336
:(	-9337
分局	-9338
监事	-9339
聆听	-9340
软化	-9341
倾斜	-9342
股市	-9343
链条	-9344
为自己	-9345
举行了	-9346
交通事故	-9347
收录	-9348
作用的	-9349
全面提升	-9350
补肾	-9351
基础设施建设	-9352
得的	-9353
悬挂	-9354
是如何	-9355
独资	-9356
积分榜	-9357
界的	-9358
落到	-9359
40%	-9360
吸取	-9361
开采	-9362
格外	-9363
不说	-9364
留学生	-9365
管网	-9366
SC	-9367
第二天	-9368
水准	-9369
核心技术	-9370
生效	-9371
中空	-9372
满满	-9373
形式的	-9374
的角度	-9375
身体状况	-9376
-2	-9377
无缘	-9378
葫芦	-9379
新华社	-9380
阿拉伯	-9381
交警	-9382
会增加	-9383
....	-9384
電子	-9385
资本市场	-9386
委員	-9387
金融服务	-9388
不同于	-9389
定向	-9390
短视频	-9391
,199	-9392
老婆	-9393
组委会	-9394
养成良好的	-9395
桂林	-9396
产业结构	-9397
应该注意	-9398
校企合作	-9399
,2016	-9400
自愿	-9401
梦境	-9402
和建议	-9403
反复发作	-9404
推迟	-9405
艺人	-9406
明确的	-9407
会计师	-9408
所有人	-9409
声誉	-9410
起来的	-9411
面临着	-9412
工业和	-9413
的处理	-9414
ue	-9415
替补	-9416
发达国家	-9417
咨询服务	-9418
优质的产品	-9419
混乱	-9420
感激	-9421
ter	-9422
发展中	-9423
春秋	-9424
畜牧	-9425
路段	-9426
化学反应	-9427
处女	-9428
放到	-9429
运动会	-9430
是非常重要的	-9431
科创	-9432
包皮过长	-9433
出院	-9434
平静	-9435
等服务	-9436
对该	-9437
痤疮	-9438
苏宁	-9439
好事	-9440
将要	-9441
忙碌	-9442
传导	-9443
山楂	-9444
角膜	-9445
140	-9446
小小的	-9447
最后的	-9448
医疗卫生	-9449
大便	-9450
粒子	-9451
非常好的	-9452
一号	-9453
挽回	-9454
是企业	-9455
涌现	-9456
最大限度	-9457
代表着	-9458
TO	-9459
底蕴	-9460
斯的	-9461
三分球	-9462
邮箱	-9463
不应该	-9464
责任感	-9465
大家在	-9466
家庭的	-9467
价格上涨	-9468
多吃一些	-9469
要用	-9470
评分	-9471
。2	-9472
庆典	-9473
的味道	-9474
媒体报道	-9475
回国	-9476
1-0	-9477
,198	-9478
螺丝	-9479
反映了	-9480
禁区内	-9481
说了	-9482
跨境电商	-9483
北大	-9484
四周	-9485
外包	-9486
立德树	-9487
也會	-9488
印尼	-9489
画家	-9490
之后的	-9491
仪式上	-9492
白癜风患者的	-9493
夜晚	-9494
FC	-9495
带上	-9496
发生变化	-9497
中介	-9498
审判	-9499
航线	-9500
有两	-9501
聚酯	-9502
管理中心	-9503
核心价值观	-9504
栏目	-9505
简约	-9506
有所帮助	-9507
1%	-9508
SE	-9509
代表了	-9510
可以从	-9511
蓄电池	-9512
不满	-9513
太平洋	-9514
说明书	-9515
时隔	-9516
完了	-9517
迫切	-9518
醫療	-9519
ace	-9520
自卑	-9521
使用了	-9522
所在地	-9523
同时也是	-9524
编写	-9525
8%,	-9526
PLC	-9527
特别的	-9528
▁阿	-9529
妥善	-9530
最有	-9531
ont	-9532
支气管	-9533
展区	-9534
颜料	-9535
时期的	-9536
過程中	-9537
掉了	-9538
不要吃	-9539
解放军	-9540
就好	-9541
可以提高	-9542
国家安全	-9543
凭证	-9544
江湖	-9545
除去	-9546
很长	-9547
益生菌	-9548
被迫	-9549
土豆	-9550
场面	-9551
推介	-9552
无形	-9553
温泉	-9554
符号	-9555
评定	-9556
沉浸	-9557
▁我们的	-9558
哈哈	-9559
大厅	-9560
店的	-9561
建有	-9562
战役	-9563
给予了	-9564
之初	-9565
贵人	-9566
抢救	-9567
富含维生素	-9568
买卖	-9569
名人	-9570
异议	-9571
等诸多	-9572
可以看出	-9573
使之	-9574
部和	-9575
上周	-9576
入围	-9577
端午	-9578
能不能	-9579
名义	-9580
同时还	-9581
就能够	-9582
的存在	-9583
PA	-9584
业余	-9585
必定	-9586
▁比如	-9587
主治	-9588
之一的	-9589
医科大学	-9590
流入	-9591
分析仪	-9592
党的十九届六中全会	-9593
为核心的党中央	-9594
外面	-9595
赋能	-9596
以色列	-9597
涉及到	-9598
高质量发展的	-9599
挫折	-9600
既能	-9601
火花	-9602
防汛	-9603
又一	-9604
利息	-9605
培训机构	-9606
是我们的	-9607
经营理念	-9608
登场	-9609
这将	-9610
切换	-9611
半岛	-9612
配料	-9613
制订	-9614
深感	-9615
平台的	-9616
在内	-9617
有很大	-9618
局势	-9619
得上	-9620
螺纹	-9621
角落	-9622
余家	-9623
肝炎	-9624
▁相关	-9625
群众的	-9626
专业知识	-9627
也是一种	-9628
一来	-9629
会儿	-9630
出局	-9631
下一个	-9632
吸引力	-9633
征求意见	-9634
农家	-9635
学业	-9636
获批	-9637
手的	-9638
搬迁	-9639
起伏	-9640
的通知	-9641
球菌	-9642
变的	-9643
每人	-9644
评委	-9645
醫師	-9646
存在的问题	-9647
三位	-9648
之前的	-9649
百科	-9650
新一轮	-9651
更名为	-9652
激光切割	-9653
违约	-9654
经营管理	-9655
最重要的是	-9656
海岸	-9657
两会	-9658
多样性	-9659
当时的	-9660
线圈	-9661
顶尖	-9662
变得更加	-9663
上面的	-9664
万名	-9665
不是很	-9666
等疾病	-9667
法律责任	-9668
"。	-9669
上游	-9670
剧本	-9671
违纪	-9672
为宗旨	-9673
黄瓜	-9674
辅导员	-9675
iv	-9676
俗称	-9677
质量的	-9678
将与	-9679
奖学金	-9680
的情绪	-9681
em	-9682
ur	-9683
砥砺	-9684
观音	-9685
营养价值	-9686
图纸	-9687
中央空调	-9688
拘留	-9689
得此梦	-9690
超出	-9691
很有可能	-9692
叶轮	-9693
不确定	-9694
媒体的	-9695
是世界	-9696
咽喉	-9697
衰竭	-9698
净水器	-9699
的价值	-9700
而生	-9701
我们来	-9702
参照	-9703
较快	-9704
构筑	-9705
装机	-9706
记账	-9707
參加	-9708
領域	-9709
与合作	-9710
水中的	-9711
向上的	-9712
出战	-9713
高新	-9714
不喜欢	-9715
万多	-9716
很低	-9717
有大	-9718
震撼	-9719
17.	-9720
心中的	-9721
热能	-9722
不懂	-9723
的创新	-9724
水产	-9725
甘肃省	-9726
▁老	-9727
显现	-9728
人大代表	-9729
复合材料	-9730
不得不面对	-9731
新风	-9732
细化	-9733
深度融合	-9734
04	-9735
朝着	-9736
卫生间	-9737
的成功	-9738
变速箱	-9739
亲属	-9740
出线	-9741
手机版	-9742
现阶段	-9743
都不能	-9744
必不可少的	-9745
学习宣传贯彻	-9746
袭击	-9747
采摘	-9748
理论和	-9749
还有很多	-9750
中之	-9751
各行各业	-9752
火星	-9753
抗击	-9754
豐富	-9755
赛前	-9756
副教授	-9757
万达	-9758
。1	-9759
山药	-9760
資源	-9761
跑道	-9762
积极配合	-9763
当地的	-9764
篇文章	-9765
全党	-9766
以保证	-9767
尔多	-9768
首选	-9769
为人民	-9770
海内外	-9771
党的建设	-9772
某一	-9773
檢查	-9774
边境	-9775
韭菜	-9776
鲜花	-9777
中西医	-9778
容易导致	-9779
创新的	-9780
应有的	-9781
全心	-9782
发货	-9783
梅州	-9784
衰退	-9785
宣传片	-9786
主编	-9787
职场	-9788
性皮炎	-9789
延缓	-9790
这两种	-9791
福德	-9792
▁山东	-9793
六大	-9794
方形	-9795
色调	-9796
帷幕	-9797
精美	-9798
免疫系统	-9799
习近平总书记在	-9800
PH	-9801
学问	-9802
路的	-9803
万个	-9804
开车	-9805
阻塞	-9806
的家庭	-9807
含有丰富的	-9808
男科	-9809
电子信息	-9810
最少	-9811
上帝	-9812
热血	-9813
簡單	-9814
▁总之	-9815
不影响	-9816
之大	-9817
光的	-9818
um	-9819
中年	-9820
太子	-9821
播种	-9822
月中旬	-9823
水温	-9824
新西兰	-9825
前面	-9826
服务商	-9827
伴侣	-9828
的物质	-9829
领导和	-9830
不断增强	-9831
刑法	-9832
、10	-9833
产品研发	-9834
组织开展	-9835
发掘	-9836
9001	-9837
更强	-9838
生机	-9839
为主的	-9840
很多人都	-9841
土木	-9842
防线	-9843
元宵	-9844
汉族	-9845
酱油	-9846
小吃	-9847
让她	-9848
▁此前	-9849
开朗	-9850
主要从事	-9851
侵蚀	-9852
战略性	-9853
上课	-9854
屏障	-9855
悲伤	-9856
求财	-9857
相遇	-9858
,2015	-9859
表情	-9860
采用的	-9861
日凌晨	-9862
这样一个	-9863
瘦肉	-9864
端的	-9865
条规定	-9866
知名品牌	-9867
性能稳定	-9868
大蒜	-9869
就是一个	-9870
▁红	-9871
湿润	-9872
率的	-9873
统计局	-9874
模仿	-9875
医疗服务	-9876
。2021	-9877
十二五	-9878
颁发的	-9879
气流	-9880
窗户	-9881
个国家	-9882
而导致	-9883
萬元	-9884
随机	-9885
一时	-9886
各省	-9887
的后	-9888
肿胀	-9889
过分	-9890
办公厅	-9891
改良	-9892
畅销	-9893
门前	-9894
游戏的	-9895
著作权	-9896
創新	-9897
價格	-9898
泌尿	-9899
贯通	-9900
影响了	-9901
所未	-9902
皮质	-9903
污染防治	-9904
MA	-9905
▁属	-9906
。,	-9907
皮革	-9908
那一	-9909
这样做	-9910
废水处理	-9911
中表示	-9912
开发的	-9913
意识和	-9914
当初	-9915
每一次	-9916
住在	-9917
拍照	-9918
相當	-9919
蒸气	-9920
并不能	-9921
子宫肌瘤	-9922
细心	-9923
这个世界	-9924
年均	-9925
药用	-9926
市场化	-9927
。199	-9928
班子成员	-9929
生产制造	-9930
着眼	-9931
获胜	-9932
蛋糕	-9933
那是	-9934
生物学	-9935
客家	-9936
糟糕	-9937
等专业	-9938
等形式	-9939
五行	-9940
该校	-9941
▁面对	-9942
第一位	-9943
面粉	-9944
也是一个	-9945
尔德	-9946
立案	-9947
解決	-9948
氯乙烯	-9949
隔断	-9950
▁工作	-9951
保温管	-9952
长寿	-9953
是一次	-9954
QQ	-9955
價值	-9956
的做法	-9957
对患者的	-9958
正式成立	-9959
副总裁	-9960
迎来了	-9961
优质的服务	-9962
房地产开发	-9963
描绘	-9964
18.	-9965
▁p	-9966
当作	-9967
斯塔	-9968
骨架	-9969
自成立以来	-9970
當時	-9971
贮存	-9972
隐形	-9973
可直接	-9974
折叠	-9975
也能够	-9976
同胞	-9977
率和	-9978
的原	-9979
吉林省	-9980
的生命	-9981
千里	-9982
教训	-9983
胸部	-9984
误解	-9985
6)	-9986
地方政府	-9987
研究发现	-9988
永恒	-9989
风情	-9990
的疾病	-9991
中期	-9992
尼龙	-9993
毒品	-9994
火焰	-9995
积水	-9996
分析师	-9997
餐具	-9998
葡萄糖	-9999
比较好的	-10000
高品质的	-10001
團隊	-10002
甜蜜	-10003
相机	-10004
的建筑	-10005
实践活动	-10006
姿势	-10007
直辖市	-10008
经验丰富的	-10009
估值	-10010
峰会	-10011
可引起	-10012
污水处理厂	-10013
到场	-10014
犹如	-10015
附着	-10016
整车	-10017
优惠政策	-10018
事后	-10019
有不	-10020
电热	-10021
称作	-10022
非凡	-10023
因为在	-10024
的平台	-10025
创新能力	-10026
检测设备	-10027
壓力	-10028
增加值	-10029
中东	-10030
调速	-10031
im	-10032
中断	-10033
承重	-10034
档次	-10035
风力	-10036
▁八	-10037
烧烤	-10038
给患者	-10039
出道	-10040
完工	-10041
十九届	-10042
的一大	-10043
亚冠	-10044
國內	-10045
不去	-10046
常温	-10047
的白	-10048
营养成分	-10049
te	-10050
機構	-10051
研究会	-10052
能让	-10053
的成本	-10054
将球	-10055
时报	-10056
唯有	-10057
植入	-10058
治国	-10059
海绵	-10060
其主要	-10061
非常有	-10062
治疗白癜风的	-10063
▁看	-10064
不息	-10065
保罗	-10066
歧视	-10067
滑雪	-10068
证件	-10069
满意度	-10070
批次	-10071
保护区	-10072
信息安全	-10073
接下来的	-10074
ig	-10075
兼职	-10076
守法	-10077
颇多	-10078
叶子	-10079
出自	-10080
苗木	-10081
玻璃纤维	-10082
概要	-10083
脚踏	-10084
▁专业	-10085
创业者	-10086
毫无疑	-10087
或不	-10088
物質	-10089
这首	-10090
与时	-10091
无可	-10092
需要进行	-10093
三点	-10094
于人类	-10095
武汉市	-10096
勘察	-10097
▁广州	-10098
烧结	-10099
租金	-10100
人来说	-10101
小朋友	-10102
药物的	-10103
素质的	-10104
输送带	-10105
冠状病毒	-10106
党课	-10107
垃圾桶	-10108
▁例如	-10109
举办了	-10110
生长发育	-10111
夫人	-10112
户籍	-10113
月亮	-10114
腹腔	-10115
锁定	-10116
按规定	-10117
热闹	-10118
以习近平同志	-10119
独具	-10120
化管理	-10121
由于其	-10122
能有效	-10123
毫无疑问	-10124
绿色发展	-10125
ES	-10126
对他	-10127
党内	-10128
繁多	-10129
四个自信	-10130
技师	-10131
粘连	-10132
办实事	-10133
特定的	-10134
心理压力	-10135
与人	-10136
好奇	-10137
到现在	-10138
气体的	-10139
进一步提升	-10140
生于	-10141
五十	-10142
代的	-10143
鉴于	-10144
了一份	-10145
对环境	-10146
附近的	-10147
应用范围	-10148
伊斯	-10149
背部	-10150
早晨	-10151
灾难	-10152
大大提高	-10153
副市长	-10154
+”	-10155
之家	-10156
起的	-10157
癫痫病的	-10158
万物	-10159
深耕	-10160
购房	-10161
麻醉	-10162
▁有些	-10163
为消费者	-10164
右路	-10165
特有的	-10166
现有的	-10167
联轴器	-10168
各种各样的	-10169
演奏	-10170
經營	-10171
宁静	-10172
安裝	-10173
幽默	-10174
擅自	-10175
病程	-10176
紧固	-10177
荣耀	-10178
路口	-10179
亿元人民币	-10180
谱写	-10181
同仁	-10182
天堂	-10183
异地	-10184
浩特	-10185
管制	-10186
反渗透	-10187
多样的	-10188
报表	-10189
监委	-10190
阴阳	-10191
领跑	-10192
作用下	-10193
3.0	-10194
忽然	-10195
设计与	-10196
。2016	-10197
代理商	-10198
立项	-10199
远销	-10200
長期	-10201
施工现场	-10202
会场	-10203
反應	-10204
按钮	-10205
类专业	-10206
王子	-10207
痉挛	-10208
内容的	-10209
染色体	-10210
著名的话	-10211
售价	-10212
矿产	-10213
▁女性	-10214
分行	-10215
伤势	-10216
全國	-10217
标记	-10218
找不到	-10219
科研院所	-10220
在你	-10221
狭窄	-10222
个工作	-10223
扎根	-10224
最美	-10225
祝愿	-10226
爱国主义	-10227
这是一种	-10228
定价	-10229
▁2013	-10230
吊装	-10231
极易	-10232
眼球	-10233
辛勤	-10234
基本的	-10235
▁我公司	-10236
制裁	-10237
可视	-10238
核实	-10239
错误的	-10240
全面建成	-10241
聘请	-10242
儿童的	-10243
定量	-10244
涵盖了	-10245
对企业	-10246
都不会	-10247
规程	-10248
满意的	-10249
努力奋斗	-10250
古人	-10251
360	-10252
兩個	-10253
不行	-10254
儿女	-10255
提及	-10256
诗歌	-10257
原有的	-10258
规模化	-10259
占用	-10260
问候	-10261
走上	-10262
预报	-10263
说过一句著名的话	-10264
波兰	-10265
为先	-10266
公用	-10267
妹妹	-10268
内分泌失调	-10269
捐款	-10270
身的	-10271
3%。	-10272
集成电路	-10273
的加工	-10274
▁牛皮癣	-10275
主营业务	-10276
ap	-10277
立足于	-10278
本周	-10279
破损	-10280
营养物质	-10281
在学校	-10282
的游戏	-10283
简化	-10284
基督	-10285
野生动物	-10286
安市	-10287
幻想	-10288
战场	-10289
茁壮	-10290
丘疹	-10291
打好	-10292
海口	-10293
环球	-10294
身上的	-10295
扁桃	-10296
吸尘	-10297
在该	-10298
墙壁	-10299
全会精神	-10300
严厉	-10301
扩建	-10302
研讨会	-10303
综上	-10304
適合	-10305
以后的	-10306
化石	-10307
感覺	-10308
水上	-10309
督查	-10310
集团的	-10311
多余	-10312
金屬	-10313
和安全	-10314
的热量	-10315
可以有效	-10316
气候变化	-10317
id	-10318
战平	-10319
放假	-10320
不时	-10321
汇集	-10322
应聘	-10323
心病	-10324
投影	-10325
节的	-10326
率低	-10327
着手	-10328
和维护	-10329
是一個	-10330
锦标赛	-10331
很多患者	-10332
柔和	-10333
简直	-10334
效能	-10335
格栅	-10336
要做	-10337
羽毛球	-10338
政治站位	-10339
排尿	-10340
加之	-10341
要从	-10342
内心的	-10343
自然科学	-10344
不下	-10345
赶紧	-10346
还有一些	-10347
症的	-10348
出现问题	-10349
深入开展	-10350
山县	-10351
并可	-10352
排便	-10353
▁最近	-10354
km	-10355
长期使用	-10356
容易引起	-10357
至关重要	-10358
灰色	-10359
特的	-10360
五一	-10361
艾滋	-10362
TF	-10363
管委会	-10364
新兴产业	-10365
化肥	-10366
歷史	-10367
材料和	-10368
博士生	-10369
是全球	-10370
前者	-10371
感慨	-10372
用到	-10373
谈话	-10374
单板	-10375
论证	-10376
都會	-10377
隨著	-10378
的特性	-10379
亮度	-10380
以致	-10381
決定	-10382
等活动	-10383
遗传因素	-10384
楼梯	-10385
局局长	-10386
▁您	-10387
药材	-10388
遇到了	-10389
宽松	-10390
是全国	-10391
碳纤维	-10392
特别注意	-10393
。"	-10394
必备	-10395
学院的	-10396
▁双	-10397
垄断	-10398
明的	-10399
景色	-10400
板式	-10401
生死	-10402
车道	-10403
防尘	-10404
露出	-10405
可能性	-10406
减震	-10407
肩负	-10408
▁赵	-10409
他就	-10410
土工膜	-10411
到大	-10412
区间	-10413
透水	-10414
公司将	-10415
防渗	-10416
无污染	-10417
加重病情	-10418
抱着	-10419
我很	-10420
所说的	-10421
质量管理	-10422
市场中	-10423
2500	-10424
个省	-10425
吃苦	-10426
周到	-10427
心脏病	-10428
长时间的	-10429
合格的	-10430
果汁	-10431
三人	-10432
不全	-10433
滥用	-10434
眼神	-10435
阿森纳	-10436
▁2)	-10437
科學	-10438
精华	-10439
非物质	-10440
具有很强的	-10441
私募	-10442
的条件	-10443
试验区	-10444
国际贸易	-10445
不孕不育	-10446
满了	-10447
冬奥会	-10448
▁九	-10449
患处	-10450
业务范围	-10451
工作站	-10452
停机	-10453
本职	-10454
内置	-10455
現場	-10456
百合	-10457
动手	-10458
开会	-10459
具体情况	-10460
事例	-10461
国脚	-10462
巧妙	-10463
▁正	-10464
平行	-10465
文本	-10466
温差	-10467
女神	-10468
淋漓	-10469
童年	-10470
风机的	-10471
骨质疏松	-10472
yi	-10473
为之	-10474
宝马	-10475
排队	-10476
-10	-10477
她说	-10478
油气	-10479
日常的	-10480
皮膚	-10481
薄弱	-10482
事业的	-10483
发现的	-10484
归属于	-10485
提问	-10486
自闭	-10487
有一点	-10488
仪器仪表	-10489
几个方面	-10490
有限的	-10491
国际机场	-10492
党性	-10493
名片	-10494
那麼	-10495
先进单位	-10496
游玩	-10497
榜首	-10498
领衔	-10499
和完善	-10500
未来发展	-10501
习近平总书记关于	-10502
一面	-10503
储罐	-10504
在对	-10505
致病	-10506
了许多	-10507
蓝天	-10508
下旬	-10509
防盗	-10510
疑似	-10511
你知道	-10512
的制作	-10513
万家	-10514
。5	-10515
俱进	-10516
命名	-10517
纸张	-10518
投入到	-10519
厉害	-10520
屋面	-10521
岩石	-10522
亲人	-10523
报酬	-10524
纲要	-10525
感受到了	-10526
为己	-10527
实战	-10528
核算	-10529
水位	-10530
粘接	-10531
摩托车	-10532
到期	-10533
很久	-10534
选择合适的	-10535
》)	-10536
外卖	-10537
报废	-10538
石墨烯	-10539
装配式	-10540
基层党组织	-10541
的使用寿命	-10542
染料	-10543
自从	-10544
质感	-10545
轿车	-10546
硕士研究生	-10547
▁因	-10548
伴随	-10549
典范	-10550
场均	-10551
施行	-10552
公布了	-10553
体系建设	-10554
法制	-10555
相差	-10556
只有在	-10557
少数民族	-10558
暗示	-10559
片中	-10560
平原	-10561
摘要	-10562
▁第五	-10563
一处	-10564
回去	-10565
調查	-10566
铸件	-10567
站点	-10568
除非	-10569
专业技术人员	-10570
他和	-10571
网易	-10572
。4	-10573
恋情	-10574
秋天	-10575
蒙德	-10576
产品在	-10577
保持着	-10578
网站建设	-10579
真理的力量	-10580
推向	-10581
缓冲	-10582
落在	-10583
京津冀	-10584
与之	-10585
仿真	-10586
员的	-10587
是不能	-10588
人民检察院	-10589
IN	-10590
下注	-10591
配偶	-10592
民法	-10593
英镑	-10594
民主生活会	-10595
作的	-10596
客车	-10597
间距	-10598
领导的	-10599
破解	-10600
隆重	-10601
半小时	-10602
就应该	-10603
一般都是	-10604
南非	-10605
钢丝绳	-10606
剩下	-10607
密的	-10608
恐怕	-10609
登上	-10610
躺在	-10611
世界上最	-10612
核电	-10613
碳水	-10614
饮品	-10615
与服务	-10616
的意义	-10617
盆腔炎	-10618
问题是	-10619
法定代表	-10620
党的十八大	-10621
尖锐	-10622
保守	-10623
密闭	-10624
可再生	-10625
市场份额	-10626
剖析	-10627
神话	-10628
编织	-10629
推出的	-10630
----------------	-10631
’,	-10632
深情	-10633
节水	-10634
交替	-10635
充实	-10636
可控	-10637
年末	-10638
长效	-10639
抱怨	-10640
檢測	-10641
洛杉	-10642
了不少	-10643
的水果	-10644
公共场所	-10645
联通	-10646
19.	-10647
还有一个	-10648
不绝	-10649
威廉	-10650
蠕动	-10651
1.4	-10652
氧化铝	-10653
粪便	-10654
霉素	-10655
分析和	-10656
有不同的	-10657
商户	-10658
▁11、	-10659
抓紧	-10660
累积	-10661
自杀	-10662
公共服务	-10663
污水处理设备	-10664
不振	-10665
疑难	-10666
非遗	-10667
▁服务	-10668
将不会	-10669
工作经验	-10670
自有	-10671
忍受	-10672
病房	-10673
会发生	-10674
强度和	-10675
打电话	-10676
▁开	-10677
传送	-10678
水晶	-10679
的运动	-10680
公立	-10681
退役军人	-10682
停留	-10683
时空	-10684
表現	-10685
▁工业	-10686
内有	-10687
經驗	-10688
商务部	-10689
抗冲击	-10690
巨头	-10691
滋生	-10692
凡事	-10693
淘汰赛	-10694
稳固	-10695
低收入	-10696
在网上	-10697
相信大家	-10698
哮喘	-10699
黑龙江省	-10700
增收	-10701
小龙	-10702
最大的礼物	-10703
他人的	-10704
真实的	-10705
是使人类	-10706
赐于人类	-10707
以及其他	-10708
不胜	-10709
條件	-10710
4.5	-10711
是使人类相信	-10712
是使人类相信真理的力量	-10713
可燃	-10714
科学赐于人类	-10715
最大的礼物是什么呢	-10716
科学赐于人类最大的礼物是什么呢	-10717
一辆	-10718
口径	-10719
核准	-10720
中标	-10721
人格	-10722
升温	-10723
南瓜	-10724
埃及	-10725
凝聚力	-10726
實現	-10727
这件事	-10728
亿吨	-10729
摄取	-10730
聚苯	-10731
开拓创新	-10732
银河	-10733
降至	-10734
日报道	-10735
中国科学院	-10736
疗程	-10737
闻名	-10738
与国际	-10739
占有率	-10740
很简单	-10741
是一種	-10742
作为一名	-10743
力量雄厚	-10744
复工	-10745
。3、	-10746
信托	-10747
化學	-10748
左路	-10749
会议上	-10750
特斯拉	-10751
尿酸	-10752
是集	-10753
完成的	-10754
比賽	-10755
▁二是	-10756
恶性肿瘤	-10757
CN	-10758
规章制度	-10759
共青	-10760
可得	-10761
和精神	-10762
会见	-10763
筹划	-10764
胶粘	-10765
决赛中	-10766
平台上	-10767
地形	-10768
手感	-10769
冷凝器	-10770
上学	-10771
低廉	-10772
又一次	-10773
安全管理	-10774
县政府	-10775
医疗保险	-10776
卫生健康	-10777
一无	-10778
传热	-10779
资产管理	-10780
2%	-10781
学生在	-10782
联赛中	-10783
日夜	-10784
编码	-10785
诗词	-10786
辨别	-10787
增效	-10788
辩论	-10789
从一个	-10790
每年的	-10791
社会科学	-10792
抓手	-10793
研究的	-10794
中枢	-10795
之力	-10796
几何	-10797
送上	-10798
患者要	-10799
的操作	-10800
不敌	-10801
橄榄	-10802
有良好的	-10803
实物	-10804
求是	-10805
和质量	-10806
有不少	-10807
环绕	-10808
是十分	-10809
pH	-10810
关税	-10811
成像	-10812
强力	-10813
微创	-10814
的样子	-10815
农机	-10816
空间的	-10817
表达了	-10818
成份	-10819
消泡	-10820
维斯	-10821
那时	-10822
克斯坦	-10823
去看	-10824
直升	-10825
养老金	-10826
助听	-10827
公交车	-10828
在一些	-10829
万亿	-10830
党校	-10831
在高	-10832
一经	-10833
信贷	-10834
的第	-10835
不堪	-10836
有小	-10837
独自	-10838
而被	-10839
从这个角度来看	-10840
不俗	-10841
保险公司	-10842
▁▲	-10843
庄严	-10844
党章	-10845
排泄	-10846
熊猫	-10847
衍生	-10848
重大的	-10849
中药材	-10850
预示着你	-10851
一季度	-10852
极致	-10853
計劃	-10854
创造性	-10855
旁边	-10856
積極	-10857
2。	-10858
时事	-10859
新社	-10860
男友	-10861
自助	-10862
防滑	-10863
餐桌	-10864
和国际	-10865
品格	-10866
奠定	-10867
座的	-10868
海域	-10869
▁若	-10870
上传	-10871
不被	-10872
乌鲁	-10873
汇率	-10874
风口	-10875
严格落实	-10876
下方	-10877
只要有	-10878
为重点	-10879
的主要原因	-10880
军工	-10881
强迫	-10882
得好	-10883
对称	-10884
但其	-10885
帝国	-10886
責任	-10887
工业企业	-10888
之称	-10889
以提高	-10890
客户端	-10891
目標	-10892
不像	-10893
埔寨	-10894
终点	-10895
经过了	-10896
工业大学	-10897
受孕	-10898
波纹	-10899
社团	-10900
根本上	-10901
观众的	-10902
全员	-10903
在设计	-10904
建成后	-10905
▁按	-10906
射线	-10907
拥抱	-10908
运送	-10909
副秘书长	-10910
众多的	-10911
体育场	-10912
如果我们	-10913
胃炎	-10914
行车	-10915
等多项	-10916
▁儿童	-10917
则会	-10918
高出	-10919
热电	-10920
维亚	-10921
责令	-10922
于是以	-10923
冷空气	-10924
将持续	-10925
柬埔寨	-10926
软管	-10927
采样	-10928
顶部	-10929
220	-10930
之迹象	-10931
开阔	-10932
疲惫	-10933
豆类	-10934
不注意	-10935
和睦	-10936
廣泛	-10937
抚养	-10938
的年	-10939
研发中心	-10940
▁巴	-10941
裂缝	-10942
告别	-10943
自由基	-10944
眼的	-10945
阵地	-10946
向着	-10947
手游	-10948
秒时	-10949
改革创新	-10950
助学	-10951
后悔	-10952
范畴	-10953
建造师	-10954
眼里	-10955
信息公开	-10956
加水	-10957
死了	-10958
融合发展	-10959
典雅	-10960
历时	-10961
小姐	-10962
饲养	-10963
流水线	-10964
输送机	-10965
专业生产	-10966
磁场	-10967
介紹	-10968
村庄	-10969
汉字	-10970
希望通过	-10971
▁日本	-10972
等重点	-10973
環保	-10974
暴晒	-10975
的药物	-10976
瓶颈	-10977
的品质	-10978
关系到	-10979
实力的	-10980
1800	-10981
就读	-10982
污垢	-10983
走路	-10984
拉动	-10985
造福	-10986
▁一是	-10987
机械加工	-10988
变质	-10989
如期	-10990
抵押	-10991
不愿意	-10992
等技术	-10993
09	-10994
入住	-10995
以客户	-10996
看到的	-10997
年的发展	-10998
;“	-10999
的努力	-11000
全文	-11001
对决	-11002
赛区	-11003
不允许	-11004
在国家	-11005
官兵	-11006
此事	-11007
发病原因	-11008
操作人员	-11009
电量	-11010
白菜	-11011
and	-11012
白色的	-11013
的习惯	-11014
品質	-11015
肢体	-11016
碳化硅	-11017
马德里	-11018
对症治疗	-11019
生猪	-11020
的销售	-11021
电影节	-11022
样板	-11023
纺布	-11024
都没	-11025
农作物	-11026
工作时	-11027
获得者	-11028
人脸	-11029
刹车	-11030
友情	-11031
坚硬	-11032
视网	-11033
首家	-11034
支付宝	-11035
万里	-11036
中性	-11037
翻炒	-11038
▁通常	-11039
冷链	-11040
时节	-11041
相传	-11042
着重	-11043
▁深圳	-11044
以习近平同志为核心的党中央	-11045
它能	-11046
约占	-11047
非物质文化遗产	-11048
薪酬	-11049
告诉你	-11050
线上线下	-11051
信访	-11052
施肥	-11053
▁未来	-11054
于一体	-11055
情况的	-11056
机械制造	-11057
包裝	-11058
两个月	-11059
是根据	-11060
与时俱进	-11061
个人信息	-11062
劳务派遣	-11063
结构简单	-11064
报纸	-11065
胡椒	-11066
通胀	-11067
胡萝卜素	-11068
艰辛	-11069
穆里	-11070
行人	-11071
以防止	-11072
文化艺术	-11073
迈进	-11074
学前教育	-11075
嚴重	-11076
多方	-11077
插入	-11078
窗帘	-11079
自動	-11080
阶段的	-11081
用自己的	-11082
行為	-11083
首轮	-11084
木齐	-11085
经验丰富	-11086
全面建设社会主义现代化国家	-11087
置于	-11088
这一切	-11089
寄生	-11090
母乳	-11091
可观	-11092
听说	-11093
结构性	-11094
太高	-11095
为原料	-11096
第一批	-11097
信息系统	-11098
火爆	-11099
鼻子	-11100
接受治疗	-11101
交谈	-11102
家长们	-11103
消费品	-11104
又要	-11105
性交	-11106
或有	-11107
雷达	-11108
和应用	-11109
并提供	-11110
個月	-11111
小事	-11112
轻度	-11113
有哪些呢	-11114
公顷	-11115
拜登	-11116
往往会	-11117
装备制造	-11118
复习	-11119
比喻	-11120
汗水	-11121
浓厚	-11122
税率	-11123
青光	-11124
部位的	-11125
表面处理	-11126
。2015	-11127
金银	-11128
交流合作	-11129
球星	-11130
跨国	-11131
新冠疫情	-11132
06	-11133
名额	-11134
当我们	-11135
存活	-11136
期为	-11137
洗车	-11138
短路	-11139
风的	-11140
以质量	-11141
岗位上	-11142
乌鲁木齐	-11143
再用	-11144
瞄准	-11145
质检	-11146
▁去年	-11147
如意	-11148
含有的	-11149
需要注意的是	-11150
、6	-11151
细则	-11152
激光打标	-11153
独立的	-11154
工信部	-11155
应该如何	-11156
不尽	-11157
充血	-11158
台上	-11159
量化	-11160
的食品	-11161
人是	-11162
鉴别	-11163
想不到	-11164
▁答	-11165
准入	-11166
日照	-11167
先进技术	-11168
清洁能源	-11169
局的	-11170
TC	-11171
龙门	-11172
市场上的	-11173
元旦	-11174
压实	-11175
症狀	-11176
螃蟹	-11177
车身	-11178
网红	-11179
谈及	-11180
▁选择	-11181
吃什么	-11182
急剧	-11183
地带	-11184
据说	-11185
恢复正常	-11186
SA	-11187
华侨	-11188
工商联	-11189
冲动	-11190
实名	-11191
痕迹	-11192
皇后	-11193
▁很多人	-11194
广播电视	-11195
由此可见	-11196
!。	-11197
的数量	-11198
可以分为	-11199
电容	-11200
min	-11201
多层	-11202
应届	-11203
深厚的	-11204
的一致好评	-11205
急需	-11206
景象	-11207
购置	-11208
酸奶	-11209
宫颈糜烂	-11210
排污	-11211
检疫	-11212
管路	-11213
的身体	-11214
交通安全	-11215
党风廉政建设	-11216
帮忙	-11217
省长	-11218
进军	-11219
已经有	-11220
實際	-11221
参予	-11222
品味	-11223
滚动	-11224
候选人	-11225
一口	-11226
查找	-11227
肺癌	-11228
旅游业	-11229
产品和服务	-11230
兰特	-11231
埃尔	-11232
▁康普顿	-11233
BO	-11234
奶粉	-11235
结构和	-11236
量和	-11237
风吹	-11238
可行性	-11239
触摸屏	-11240
专家学者	-11241
降低成本	-11242
勃起	-11243
新媒体	-11244
商业银行	-11245
因为他们	-11246
航空公司	-11247
书中	-11248
多见	-11249
打工	-11250
2:	-11251
作好	-11252
品类	-11253
填补	-11254
手套	-11255
走廊	-11256
做一些	-11257
字母	-11258
就来	-11259
还应	-11260
省部级	-11261
小康社会	-11262
▁最	-11263
四十	-11264
精良	-11265
这种方法	-11266
以实际行动	-11267
巅峰	-11268
水体	-11269
風險	-11270
-30	-11271
成立的	-11272
耐腐蚀性	-11273
很大程度上	-11274
分割	-11275
着的	-11276
言论	-11277
继续教育	-11278
旗舰	-11279
基斯坦	-11280
始建于	-11281
交通大学	-11282
目前为止	-11283
区和	-11284
牵引	-11285
废弃物	-11286
的政策	-11287
的工作人员	-11288
丰收	-11289
人社	-11290
戏曲	-11291
烟雾	-11292
深入学习	-11293
人际	-11294
息肉	-11295
▁重庆	-11296
就会出现	-11297
▁会议强调	-11298
天使	-11299
改變	-11300
疱疹	-11301
只要你	-11302
市场营销	-11303
式起重机	-11304
由於	-11305
鲁能	-11306
的刺激	-11307
sp	-11308
仍是	-11309
回转	-11310
地亚	-11311
孕育	-11312
诸位	-11313
无症状	-11314
MV	-11315
刻苦	-11316
年会	-11317
型人才	-11318
优质服务	-11319
这名	-11320
▁30	-11321
分布在	-11322
总结了	-11323
品牌形象	-11324
据报	-11325
等国家	-11326
就会导致	-11327
压制	-11328
乌龙	-11329
常州	-11330
滋补	-11331
领袖	-11332
实业	-11333
的球队	-11334
专人	-11335
服从	-11336
直肠	-11337
品尝	-11338
节气	-11339
帽子	-11340
已经是	-11341
的保护	-11342
彩票	-11343
系统等	-11344
妇幼	-11345
要对	-11346
的环境中	-11347
喜悦	-11348
查明	-11349
脱失	-11350
過去	-11351
农场	-11352
周转	-11353
打通	-11354
跨度	-11355
张力	-11356
智库	-11357
横向	-11358
酿造	-11359
卡拉	-11360
手持	-11361
科协	-11362
过年	-11363
已经被	-11364
行业标准	-11365
果蔬	-11366
四氟乙烯	-11367
互助	-11368
膜炎	-11369
科学知识	-11370
冶炼	-11371
华盛	-11372
物业管理	-11373
不定	-11374
想着	-11375
是多少	-11376
中海	-11377
光辉	-11378
单身	-11379
消极	-11380
有关的	-11381
的危险	-11382
主轴	-11383
往来	-11384
就不能	-11385
格里	-11386
和创新	-11387
具有较强的	-11388
喜好	-11389
前所未	-11390
今年以来	-11391
营养不良	-11392
ce	-11393
接线	-11394
白的	-11395
个月的	-11396
而这些	-11397
智能手机	-11398
高尚	-11399
▁有人	-11400
商用	-11401
离合	-11402
是利用	-11403
而言之	-11404
人选	-11405
司马	-11406
颈椎	-11407
会不会	-11408
的爱情	-11409
还能够	-11410
▁J	-11411
胶原	-11412
▁作者	-11413
一番	-11414
娱乐圈	-11415
突出贡献	-11416
综合实力	-11417
二甲	-11418
者在	-11419
的空气	-11420
保驾	-11421
男性的	-11422
都是在	-11423
较慢	-11424
流浪	-11425
芳香	-11426
的吸收	-11427
指令	-11428
的家	-11429
隔膜	-11430
▁具体	-11431
研究成果	-11432
江市	-11433
经久	-11434
投入使用	-11435
去找	-11436
本场	-11437
轻型	-11438
7%。	-11439
使用方便	-11440
-1	-11441
宫腔	-11442
鱼类	-11443
要看	-11444
货车	-11445
是一部	-11446
四种	-11447
改建	-11448
甲级	-11449
称赞	-11450
远的	-11451
政府部门	-11452
弟子	-11453
持股	-11454
穿过	-11455
人类的	-11456
大部	-11457
门户	-11458
有两个	-11459
科研成果	-11460
根据自己的	-11461
进出	-11462
吃一些	-11463
减免	-11464
微型	-11465
摄氏度	-11466
技工	-11467
的最大	-11468
修补	-11469
呼和	-11470
族自治	-11471
行政处罚	-11472
感器	-11473
泄露	-11474
海南省	-11475
点燃	-11476
網友	-11477
实处	-11478
机油	-11479
雄安	-11480
整体的	-11481
热火	-11482
高素质	-11483
专家组	-11484
的角色	-11485
社交媒体	-11486
低价	-11487
情报	-11488
游览	-11489
20.	-11490
膳食纤维	-11491
测评	-11492
花板	-11493
塑料袋	-11494
洛杉矶	-11495
在使用过程中	-11496
▁各	-11497
芹菜	-11498
的区别	-11499
社会保险	-11500
社科	-11501
深入推进	-11502
之乡	-11503
可将	-11504
▁日前	-11505
都会有	-11506
医务人员	-11507
不顺	-11508
放进	-11509
皮疹	-11510
老鼠	-11511
在高温	-11512
我知道	-11513
设备等	-11514
优异成绩	-11515
地表	-11516
短缺	-11517
配音	-11518
异位	-11519
带头人	-11520
总建筑面积	-11521
01	-11522
孢子	-11523
中式	-11524
朋友圈	-11525
职业学院	-11526
这场比赛	-11527
洪水	-11528
液化	-11529
类似于	-11530
现代农业	-11531
生产成本	-11532
积极响应	-11533
365	-11534
共青团	-11535
保驾护航	-11536
阿里巴巴	-11537
和他	-11538
英寸	-11539
這是	-11540
香型	-11541
TA	-11542
诉求	-11543
全心全	-11544
一群	-11545
切勿	-11546
励志	-11547
田径	-11548
高低	-11549
优势和	-11550
拼接	-11551
搭载	-11552
普查	-11553
▁本届	-11554
人性化	-11555
父母的	-11556
不仅如此	-11557
消化不良	-11558
实用性	-11559
立德树人	-11560
庭院	-11561
扣除	-11562
清热解毒	-11563
专属	-11564
君子	-11565
日光	-11566
电线电缆	-11567
▁可是	-11568
将达到	-11569
荨麻疹	-11570
技术中心	-11571
▁万	-11572
储能	-11573
潍坊	-11574
丝绸之路	-11575
个篮板和	-11576
th	-11577
提早	-11578
油田	-11579
非常高	-11580
▁国	-11581
。9	-11582
守信	-11583
更长	-11584
气势	-11585
3-5	-11586
两地	-11587
一定是	-11588
一年的	-11589
▁吴	-11590
得益于	-11591
ww	-11592
提供商	-11593
极大地	-11594
塞罗那	-11595
上报	-11596
整机	-11597
一种是	-11598
先进集体	-11599
可以实现	-11600
委员会委员	-11601
▁徐	-11602
定做	-11603
智慧城市	-11604
缺氧	-11605
额度	-11606
要避免	-11607
导热系数	-11608
分级	-11609
主要以	-11610
这一次	-11611
但它	-11612
技术支持	-11613
教育培训	-11614
柏林	-11615
我们对	-11616
认定为	-11617
社会保障	-11618
伤亡	-11619
白糖	-11620
立式	-11621
诊所	-11622
▁新华	-11623
全面发展	-11624
听取了	-11625
满足了	-11626
的山	-11627
贴近	-11628
状态下	-11629
基建	-11630
此次活动	-11631
力强	-11632
有用	-11633
碰到	-11634
不舒服	-11635
作出的	-11636
高效率	-11637
事業	-11638
村里	-11639
温水	-11640
世界一流	-11641
OH	-11642
想去	-11643
▁X	-11644
选项	-11645
实用新型	-11646
▁报告	-11647
的话题	-11648
该怎么	-11649
普洱	-11650
遏制	-11651
火车站	-11652
广泛关注	-11653
一球	-11654
除臭	-11655
准确性	-11656
的自然	-11657
布拉	-11658
忘了	-11659
撞击	-11660
撤销	-11661
老龄	-11662
的理想	-11663
等现象	-11664
越来越大	-11665
侦查	-11666
才华	-11667
清晨	-11668
私家	-11669
散步	-11670
内脏	-11671
日开始	-11672
水土	-11673
核查	-11674
民办	-11675
交给	-11676
乳头	-11677
兼容	-11678
遍及	-11679
偏食	-11680
味甘	-11681
安慰	-11682
豆制品	-11683
會議	-11684
▁欢迎	-11685
体育锻炼	-11686
▁花	-11687
抵御	-11688
导致了	-11689
具有重要意义	-11690
05	-11691
倾听	-11692
的美好	-11693
老师们	-11694
公认	-11695
字号	-11696
时段	-11697
1/4	-11698
个项目	-11699
数字经济	-11700
格林	-11701
线城市	-11702
兼顾	-11703
总之	-11704
行政部门	-11705
就把	-11706
一贯	-11707
逮捕	-11708
容易被	-11709
▁治疗	-11710
材质的	-11711
行为的	-11712
过敏性	-11713
食用油	-11714
所示	-11715
清扫	-11716
间断	-11717
灵活性	-11718
中职	-11719
城镇化	-11720
了一下	-11721
领导班子成员	-11722
一个是	-11723
和文化	-11724
形势下	-11725
往往是	-11726
雄厚的	-11727
可以减少	-11728
,2014	-11729
粤港澳大湾区	-11730
时有	-11731
杂物	-11732
金奖	-11733
用户提供	-11734
▁|	-11735
运气	-11736
接受了	-11737
又名	-11738
走出去	-11739
··	-11740
克的	-11741
基礎	-11742
奥林	-11743
报销	-11744
破产	-11745
绿城	-11746
让您	-11747
。198	-11748
顽强	-11749
题目	-11750
养分	-11751
陈列	-11752
销售收入	-11753
先天性	-11754
实体经济	-11755
血症	-11756
7.5	-11757
并进行	-11758
一声	-11759
中信	-11760
古装	-11761
建立健全	-11762
资格考试	-11763
感叹	-11764
胰岛	-11765
資訊	-11766
手术后	-11767
od	-11768
大肠	-11769
推崇	-11770
载荷	-11771
对方的	-11772
磁性	-11773
的大力支持	-11774
。7	-11775
接纳	-11776
方法和	-11777
本科生	-11778
克尔	-11779
品德	-11780
推特	-11781
灿烂	-11782
特长	-11783
等候	-11784
服务质量	-11785
比特币	-11786
设备及	-11787
不同程度的	-11788
▁国际	-11789
以达到	-11790
▁主	-11791
表态	-11792
人们在	-11793
同一个	-11794
智能家居	-11795
ke	-11796
出品	-11797
根源	-11798
狀態	-11799
中指出	-11800
nm	-11801
废旧	-11802
0.8	-11803
对口	-11804
知名的	-11805
表示感谢	-11806
新车	-11807
自学考试	-11808
寿命长	-11809
胃肠道	-11810
▁康普顿曾经提到过	-11811
或多	-11812
0.3	-11813
服务社会	-11814
掀起	-11815
运河	-11816
灌装机	-11817
高层次	-11818
(1	-11819
危及	-11820
對于	-11821
1%。	-11822
奥斯卡	-11823
,,	-11824
革命先	-11825
横梁	-11826
素的	-11827
音樂	-11828
叙利亚	-11829
呼和浩特	-11830
▁白癜风的	-11831
上也	-11832
办公楼	-11833
的概念	-11834
监督管理局	-11835
给出	-11836
不具备	-11837
意味著	-11838
▁分	-11839
德斯	-11840
通俗	-11841
面對	-11842
幸福感	-11843
-3	-11844
更改	-11845
签字	-11846
负压	-11847
鸡肉	-11848
。10	-11849
松动	-11850
见效	-11851
▁来自	-11852
洗衣机	-11853
性阴道炎	-11854
校外	-11855
便携	-11856
妇产	-11857
始于	-11858
纽带	-11859
起草	-11860
都是一	-11861
数据中心	-11862
诸如	-11863
铝板	-11864
广泛的应用	-11865
既要	-11866
纯水	-11867
裂纹	-11868
6%。	-11869
概要描述	-11870
尽力	-11871
仍然是	-11872
市面上	-11873
的认识	-11874
心脑血管	-11875
名师	-11876
聚四氟乙烯	-11877
集合	-11878
销售的	-11879
分析了	-11880
里程碑	-11881
白癜风疾病	-11882
CD	-11883
两家	-11884
王朝	-11885
透光	-11886
▁1)	-11887
个城市	-11888
无纺布	-11889
一律	-11890
叶酸	-11891
名录	-11892
在实际	-11893
健康管理	-11894
盐水	-11895
有帮助	-11896
等单位	-11897
竞争对手	-11898
供需	-11899
情景	-11900
消費	-11901
标本	-11902
河道	-11903
规模的	-11904
严格遵守	-11905
重工	-11906
涉案	-11907
虫害	-11908
不清楚	-11909
操作方便	-11910
味精	-11911
服的	-11912
汇总	-11913
洋溢	-11914
的一点	-11915
令我深思	-11916
利尿	-11917
厂区	-11918
等各类	-11919
日元	-11920
百家	-11921
脓疱	-11922
越来越高	-11923
火山	-11924
缅怀	-11925
装载	-11926
共产党的	-11927
成为中国	-11928
假冒	-11929
昆虫	-11930
▁本公司	-11931
VR	-11932
位移	-11933
工况	-11934
細胞	-11935
能为	-11936
赛程	-11937
取胜	-11938
大全	-11939
規劃	-11940
还需	-11941
专门的	-11942
所以我们	-11943
正常运行	-11944
意见和建议	-11945
扬州	-11946
折扣	-11947
是非	-11948
还是比较	-11949
全天	-11950
过往	-11951
保修	-11952
宝石	-11953
紧迫	-11954
要选择	-11955
協助	-11956
非常大	-11957
中考	-11958
非常适合	-11959
人們	-11960
强强	-11961
缅甸	-11962
宝宝的	-11963
我相信	-11964
求生存	-11965
达不到	-11966
将从	-11967
和环境	-11968
扁桃体	-11969
重点项目	-11970
变色	-11971
女方	-11972
农田	-11973
室温	-11974
深处	-11975
新模式	-11976
侵入	-11977
冲泡	-11978
只好	-11979
查阅	-11980
视察	-11981
遊戲	-11982
额外	-11983
设立了	-11984
了吧	-11985
攻门	-11986
精髓	-11987
速率	-11988
亚洲杯	-11989
在香港	-11990
背后的	-11991
规划设计	-11992
项目管理	-11993
物种	-11994
通常是	-11995
和历史	-11996
也对	-11997
了吗	-11998
子等	-11999
尊敬	-12000
师德	-12001
走过	-12002
ob	-12003
各式	-12004
时效	-12005
政治任务	-12006
户口	-12007
水稻	-12008
电图	-12009
新闻网	-12010
全心全意	-12011
巴基斯坦	-12012
。8	-12013
民宿	-12014
管线	-12015
▁许多	-12016
的代表	-12017
看不到	-12018
伤病	-12019
执政	-12020
皮脂	-12021
花钱	-12022
先生的	-12023
第三次	-12024
下设	-12025
不动产	-12026
也无法	-12027
普通人	-12028
反思	-12029
成形	-12030
较上	-12031
的新闻	-12032
一类	-12033
中铁	-12034
二者	-12035
克拉	-12036
异的	-12037
日趋	-12038
发现自己	-12039
客户的需求	-12040
是什么原因	-12041
亮的	-12042
开支	-12043
诱导	-12044
1.3	-12045
一对一	-12046
会议精神	-12047
克罗	-12048
协力	-12049
猜测	-12050
华中	-12051
海峡	-12052
猕猴	-12053
享受到	-12054
批准后	-12055
尤为重要	-12056
建筑设计	-12057
结构体系	-12058
绽放	-12059
锻造	-12060
季后	-12061
不吉利	-12062
为己任	-12063
统一的	-12064
的时间内	-12065
卫健	-12066
宣读	-12067
本市	-12068
▁to	-12069
科学发展	-12070
认真学习	-12071
律师事务所	-12072
指控	-12073
益气	-12074
香料	-12075
实地考察	-12076
最快	-12077
主观	-12078
冻结	-12079
分別	-12080
处方	-12081
带队	-12082
证监会	-12083
▁与此同时	-12084
任教	-12085
爱尔	-12086
紫色	-12087
蓝图	-12088
前瞻	-12089
公司和	-12090
住建	-12091
供货	-12092
引资	-12093
知識	-12094
在过去	-12095
意义重大	-12096
整套	-12097
社區	-12098
而后	-12099
应根据	-12100
▁说	-12101
交货	-12102
便民	-12103
丙烯酸	-12104
资料显示	-12105
富汗	-12106
加大对	-12107
配套设施	-12108
属于自己的	-12109
漏水	-12110
二维码	-12111
牢固树立	-12112
文化和旅游	-12113
▁省	-12114
村的	-12115
锐意	-12116
万户	-12117
丹麦	-12118
延迟	-12119
盛宴	-12120
绍兴	-12121
追踪	-12122
的种类	-12123
▁当前	-12124
出席了	-12125
挥发性	-12126
智慧和	-12127
莫斯科	-12128
生活垃圾	-12129
滨海	-12130
盛会	-12131
香菇	-12132
告诉他	-12133
控制的	-12134
综合素质	-12135
ir	-12136
▁做	-12137
保定	-12138
拉力	-12139
排毒	-12140
有权	-12141
滋味	-12142
田园	-12143
颁布	-12144
口号	-12145
空军	-12146
等都	-12147
下一代	-12148
热镀锌	-12149
7000	-12150
职业院校	-12151
本月	-12152
美德	-12153
轻工	-12154
一辈子	-12155
功能性	-12156
1。	-12157
规模以上	-12158
三峡	-12159
街头	-12160
十年代	-12161
在这一	-12162
是他	-12163
为了让	-12164
切实把	-12165
,0	-12166
数值	-12167
特别强调	-12168
思念	-12169
纹理	-12170
万元的	-12171
容易造成	-12172
中国有限公司	-12173
美景	-12174
过去了	-12175
创新驱动	-12176
就行	-12177
进修	-12178
闸蟹	-12179
本科专业	-12180
ct	-12181
人参	-12182
天后	-12183
期盼	-12184
蘑菇	-12185
体系和	-12186
屏蔽	-12187
非金属	-12188
的优秀	-12189
准备工作	-12190
Al	-12191
争吵	-12192
燕窝	-12193
超强	-12194
4%。	-12195
为推动	-12196
某种程度	-12197
基材	-12198
眼中	-12199
比利时	-12200
真空泵	-12201
▁文	-12202
元左右	-12203
▁被	-12204
血栓	-12205
密切相关	-12206
上新	-12207
反之	-12208
多加	-12209
月球	-12210
安全感	-12211
资源共享	-12212
▁到	-12213
线性	-12214
4.0	-12215
巴塞罗那	-12216
乙肝	-12217
代言	-12218
的女人	-12219
刚性	-12220
前途	-12221
聚力	-12222
本网站	-12223
也曾	-12224
再现	-12225
褪色	-12226
皮肤上	-12227
、、	-12228
之战	-12229
保證	-12230
漏洞	-12231
出生的	-12232
华盛顿	-12233
对公司	-12234
然后在	-12235
所需要的	-12236
中路	-12237
央企	-12238
營養	-12239
課程	-12240
唱歌	-12241
运维	-12242
也是很	-12243
都比较	-12244
在意	-12245
青光眼	-12246
▁黑	-12247
德尔	-12248
约有	-12249
中国梦	-12250
制冷剂	-12251
深加工	-12252
给他们	-12253
较低的	-12254
洋葱	-12255
結合	-12256
赶到	-12257
院的	-12258
难道	-12259
庞大的	-12260
盖帽	-12261
及时发现	-12262
发展改革	-12263
两条	-12264
太过	-12265
汽車	-12266
可以为	-12267
有多少	-12268
技术水平	-12269
都能够	-12270
延安	-12271
▁注意	-12272
不小心	-12273
经营活动	-12274
坦言	-12275
變化	-12276
管理模式	-12277
全线	-12278
体制改革	-12279
大大降低	-12280
偶然	-12281
夏草	-12282
梅花	-12283
地块	-12284
常有	-12285
广电	-12286
准备好	-12287
碳水化合物	-12288
冬虫	-12289
和我	-12290
打下	-12291
至此	-12292
的人来说	-12293
就可	-12294
繁华	-12295
的业务	-12296
▁值得一提的是	-12297
和社会保障	-12298
受众	-12299
对策	-12300
用以	-12301
而非	-12302
得更	-12303
越位	-12304
纪委书记	-12305
而定	-12306
还未	-12307
在这些	-12308
执教	-12309
歡迎	-12310
爆料	-12311
的金	-12312
美人	-12313
补血	-12314
可以满足	-12315
移动互联网	-12316
教科	-12317
地进行	-12318
废气处理	-12319
不分	-12320
促進	-12321
也应该	-12322
流量计	-12323
证券交易所	-12324
滚筒	-12325
适应性	-12326
苏联	-12327
衛生	-12328
初心使命	-12329
这不禁令我深思	-12330
之余	-12331
花纹	-12332
与企业	-12333
大类	-12334
点和	-12335
CEO	-12336
年全国	-12337
中西医结合	-12338
比的	-12339
罕见	-12340
蒸馏	-12341
正是因为	-12342
前场	-12343
县长	-12344
文体	-12345
臺灣	-12346
降水	-12347
也十分	-12348
全产业链	-12349
几百	-12350
-19	-12351
的一个重要	-12352
为宜	-12353
了他	-12354
斗志	-12355
技能人才	-12356
还要注意	-12357
内衣	-12358
开口	-12359
愈合	-12360
通畅	-12361
主要为	-12362
学史	-12363
宏伟	-12364
得起	-12365
签下	-12366
▁没有	-12367
的球员	-12368
国际合作	-12369
DA	-12370
现行	-12371
的形成	-12372
应用的	-12373
机构和	-12374
成为一个	-12375
再加	-12376
这与	-12377
道歉	-12378
阳光下	-12379
▁10.	-12380
春节期间	-12381
事先	-12382
嵌入	-12383
绿水	-12384
全球化	-12385
目标任务	-12386
言语	-12387
▁集团	-12388
代表队	-12389
在世界	-12390
春晚	-12391
推動	-12392
舒适的	-12393
唐代	-12394
尿液	-12395
艰苦奋斗	-12396
小火	-12397
花开	-12398
one	-12399
患者在治疗	-12400
一丝	-12401
剪切	-12402
建国	-12403
手臂	-12404
斑块	-12405
的国	-12406
朋友的	-12407
生物医药	-12408
人民代表大会	-12409
▁下	-12410
或在	-12411
火炬	-12412
向社会	-12413
用户体验	-12414
振奋	-12415
負責	-12416
95%	-12417
他们会	-12418
你需要	-12419
出租车	-12420
万台	-12421
大胜	-12422
消灭	-12423
具有较高的	-12424
修剪	-12425
的说法	-12426
乳液	-12427
任命	-12428
分化	-12429
滑动	-12430
可与	-12431
木门	-12432
丝网	-12433
天生	-12434
中国企业	-12435
克森	-12436
不少人	-12437
体系认证	-12438
在一定程度上	-12439
本轮	-12440
沉着	-12441
饺子	-12442
严重时	-12443
如今的	-12444
结束了	-12445
记忆力	-12446
共振	-12447
蕴含	-12448
加入了	-12449
的一系列	-12450
综上所述	-12451
从不	-12452
惩罚	-12453
运动的	-12454
大人	-12455
就连	-12456
财税	-12457
大海	-12458
自古	-12459
为学生	-12460
救护车	-12461
怎麼	-12462
处理后	-12463
全资	-12464
重点工作	-12465
券商	-12466
聚会	-12467
加盖	-12468
昂扬	-12469
近代	-12470
预备	-12471
节省了	-12472
你能	-12473
压抑	-12474
喷漆	-12475
延误	-12476
恋人	-12477
是中	-12478
停药	-12479
容纳	-12480
库里	-12481
是无	-12482
棋牌	-12483
点点	-12484
2-0	-12485
被害	-12486
饭后	-12487
大理石	-12488
巧克力	-12489
表现在	-12490
,(	-12491
克强	-12492
银行卡	-12493
冬虫夏草	-12494
世间	-12495
可口	-12496
困惑	-12497
愤怒	-12498
▁2023	-12499
奋战	-12500
当局	-12501
我对	-12502
病史	-12503
可以进行	-12504
标的	-12505
独家	-12506
的红	-12507
数量的	-12508
来实现	-12509
头条	-12510
歌唱	-12511
在整个	-12512
方法是	-12513
程度高	-12514
节目中	-12515
▁12、	-12516
应付	-12517
建築	-12518
空腹	-12519
代孕	-12520
大风	-12521
顺畅	-12522
▁2012	-12523
制片	-12524
女主	-12525
王某	-12526
绿地	-12527
达尔	-12528
为他们	-12529
保护和	-12530
强有力的	-12531
。6	-12532
乐器	-12533
▁做法	-12534
媒介	-12535
曾任	-12536
▁比赛	-12537
项目部	-12538
起源	-12539
,30	-12540
了一次	-12541
介绍说	-12542
的未来	-12543
近距离	-12544
风景区	-12545
多地	-12546
食盐	-12547
也开始	-12548
环境温度	-12549
PU	-12550
烦躁	-12551
行使	-12552
上世纪	-12553
必要时	-12554
的部位	-12555
全院	-12556
张某	-12557
不合理	-12558
是不可	-12559
全面落实	-12560
▁这样	-12561
发生后	-12562
XX	-12563
延期	-12564
归属	-12565
民国	-12566
花椒	-12567
食疗	-12568
助听器	-12569
我个人	-12570
4%	-12571
一根	-12572
爱上	-12573
情况和	-12574
组织和	-12575
伸缩	-12576
手册	-12577
港元	-12578
阿富汗	-12579
在日本	-12580
产品设计	-12581
尔夫	-12582
永不	-12583
工程院	-12584
新鲜的	-12585
▁罗	-12586
交锋	-12587
名将	-12588
外在	-12589
数千	-12590
物价	-12591
蜘蛛	-12592
小人	-12593
抽搐	-12594
水务	-12595
草药	-12596
2%。	-12597
这么多	-12598
ov	-12599
▁除	-12600
大街	-12601
星星	-12602
不相同	-12603
耐火材料	-12604
恶意	-12605
的路	-12606
古镇	-12607
心动	-12608
并不会	-12609
等各个	-12610
革新	-12611
一所	-12612
富贵	-12613
端正	-12614
逐一	-12615
当场	-12616
業務	-12617
尼克	-12618
深化改革	-12619
处长	-12620
心理咨询	-12621
坚实的基础	-12622
热刺	-12623
的不断	-12624
教育基地	-12625
紧密结合	-12626
6%	-12627
泉州	-12628
行列	-12629
灾区	-12630
經常	-12631
同时在	-12632
农业大学	-12633
現代	-12634
▁•	-12635
支配	-12636
高管	-12637
杭州市	-12638
意图	-12639
时常	-12640
道具	-12641
恶臭	-12642
固定的	-12643
高等院校	-12644
3/	-12645
二年	-12646
取暖	-12647
抽烟	-12648
少了	-12649
花了	-12650
轨迹	-12651
App	-12652
与我们	-12653
来到了	-12654
买家	-12655
歌舞	-12656
VOC	-12657
以避免	-12658
可以是	-12659
发文	-12660
影院	-12661
▁3)	-12662
其他人	-12663
各族人民	-12664
文化建设	-12665
保级	-12666
偏差	-12667
小平	-12668
替换	-12669
碎片	-12670
起名	-12671
做出的	-12672
存在于	-12673
的产生	-12674
SO	-12675
无偿	-12676
170	-12677
女人的	-12678
的身份	-12679
也好	-12680
厅长	-12681
打动	-12682
▁好	-12683
大有	-12684
帶來	-12685
中国家	-12686
春风	-12687
水流	-12688
避开	-12689
他认为	-12690
消化道	-12691
风云	-12692
不完全	-12693
控制和	-12694
有意	-12695
约合	-12696
学科建设	-12697
揭牌	-12698
事业部	-12699
》;	-12700
所用	-12701
试用	-12702
遗症	-12703
女主角	-12704
ng	-12705
报送	-12706
毕业证书	-12707
ul	-12708
喂养	-12709
版的	-12710
祭祀	-12711
膜的	-12712
评级	-12713
体现出	-12714
使命感	-12715
▁什么是	-12716
契合	-12717
打赢	-12718
写字楼	-12719
机械化	-12720
市场经济	-12721
3:	-12722
抗战	-12723
不规则	-12724
免税	-12725
阳县	-12726
只想	-12727
名家	-12728
岁时	-12729
晋升	-12730
编号	-12731
药业	-12732
以及对	-12733
让更多	-12734
但要	-12735
眼部	-12736
糯米	-12737
维尔	-12738
6.5	-12739
9%。	-12740
最好是	-12741
抗拉	-12742
藥物	-12743
但他们	-12744
几年来	-12745
se	-12746
放缓	-12747
谷歌	-12748
专心	-12749
亲密	-12750
名誉	-12751
品位	-12752
国内的	-12753
▁除此之外	-12754
▁德	-12755
煤气	-12756
打造成	-12757
不得超过	-12758
单车	-12759
等进行	-12760
导轨	-12761
橡塑	-12762
过热	-12763
教融合	-12764
患者的病情	-12765
看的	-12766
真的很	-12767
可为	-12768
店面	-12769
从根本上	-12770
相关专业	-12771
繁琐	-12772
送达	-12773
应避免	-12774
行政区	-12775
护理工作	-12776
明珠	-12777
任何人	-12778
宝贵的	-12779
執行	-12780
天文	-12781
急诊	-12782
李某	-12783
概括	-12784
的形象	-12785
等信息	-12786
▁同	-12787
浦东	-12788
鼓风机	-12789
整天	-12790
凯尔特	-12791
可导致	-12792
聚氯乙烯	-12793
出新	-12794
最小	-12795
玩耍	-12796
空心	-12797
红的	-12798
一直致力于	-12799
录音	-12800
美军	-12801
住房和	-12802
放射性	-12803
数据分析	-12804
自主知识产权	-12805
恰当	-12806
操控	-12807
内部的	-12808
8%	-12809
行李	-12810
会议由	-12811
并根据	-12812
热烈的	-12813
设置了	-12814
津贴	-12815
关键是	-12816
很多时候	-12817
婚外	-12818
油菜	-12819
车床	-12820
还是在	-12821
刷新	-12822
想想	-12823
的他	-12824
蝴蝶	-12825
适合于	-12826
随时随	-12827
安全事故	-12828
临沂	-12829
双赢	-12830
末端	-12831
樱桃	-12832
▁然后	-12833
但我们	-12834
等项目	-12835
违法犯罪	-12836
。2014	-12837
写道	-12838
悟空	-12839
音频	-12840
▁对此	-12841
了一条	-12842
尤文图	-12843
确定的	-12844
疫情防控工作	-12845
ia	-12846
中也	-12847
安保	-12848
年是	-12849
抗癌	-12850
全面贯彻	-12851
旅游景区	-12852
安德	-12853
液态	-12854
等众多	-12855
加工设备	-12856
狠抓	-12857
诱惑	-12858
重重	-12859
冰糖	-12860
团员	-12861
极高	-12862
茶的	-12863
更年期	-12864
的关注	-12865
▁特	-12866
大宗	-12867
百货	-12868
在平时	-12869
头上	-12870
平和	-12871
惊讶	-12872
普惠	-12873
老虎	-12874
和要求	-12875
除尘器	-12876
风格的	-12877
可能会出现	-12878
得手	-12879
植株	-12880
淄博	-12881
结节	-12882
三个方面	-12883
目前在	-12884
秸秆	-12885
和经济	-12886
始终保持	-12887
悲观	-12888
机在	-12889
澳門	-12890
▁医院	-12891
短期内	-12892
社会主义核心价值观	-12893
备战	-12894
托管	-12895
针灸	-12896
加快建设	-12897
一股	-12898
批示	-12899
武磊	-12900
迎战	-12901
電視	-12902
▁以上是	-12903
白癜风医院的	-12904
分期	-12905
瀑布	-12906
筑牢	-12907
肥皂	-12908
旗下的	-12909
是一场	-12910
来选择	-12911
眼泪	-12912
致命	-12913
专线	-12914
接力	-12915
注定	-12916
精选	-12917
监督检查	-12918
默契	-12919
爱护	-12920
要将	-12921
青铜	-12922
介质的	-12923
转移到	-12924
招商引资	-12925
治疗方案	-12926
图文	-12927
波长	-12928
氯化铝	-12929
而对于	-12930
淡淡	-12931
野外	-12932
推动了	-12933
的根本	-12934
▁会	-12935
泵站	-12936
着急	-12937
加工的	-12938
收益率	-12939
监控系统	-12940
做为	-12941
TM	-12942
受访	-12943
展位	-12944
記者	-12945
通知书	-12946
刑事责任	-12947
医疗设备	-12948
光度	-12949
接连	-12950
考慮	-12951
自闭症	-12952
指导意见	-12953
患上白癜风	-12954
一點	-12955
坚果	-12956
爆竹	-12957
冠心病	-12958
和专业	-12959
只是一个	-12960
ie	-12961
参保	-12962
睡前	-12963
阻挡	-12964
高手	-12965
科学历	-12966
脚踏实地	-12967
显着	-12968
止血	-12969
盐酸	-12970
难忘	-12971
实事求是	-12972
阴性	-12973
非标	-12974
流行的	-12975
可再生能源	-12976
光大	-12977
天赋	-12978
降到	-12979
以下是	-12980
工艺品	-12981
文化产业	-12982
积极探索	-12983
7%	-12984
油价	-12985
水解	-12986
起床	-12987
▁所谓	-12988
换人	-12989
提质	-12990
错了	-12991
不做	-12992
异物	-12993
相待	-12994
的趋势	-12995
杀人	-12996
石榴	-12997
脸部	-12998
可爱的	-12999
的增加	-13000
新发展理念	-13001
ontent	-13002
三亚	-13003
哈登	-13004
批复	-13005
克里斯	-13006
全覆盖	-13007
国立	-13008
坚韧	-13009
湖泊	-13010
早治疗	-13011
的感情	-13012
室内空气	-13013
建筑装饰	-13014
肝肾	-13015
和产品	-13016
发展方向	-13017
治疗银屑病	-13018
一本	-13019
功耗	-13020
的几率	-13021
一个好的	-13022
已是	-13023
监狱	-13024
的想法	-13025
以上学历	-13026
之忧	-13027
卡通	-13028
失效	-13029
降幅	-13030
时间里	-13031
胃酸	-13032
音响	-13033
▁了解	-13034
浇水	-13035
15%	-13036
指纹	-13037
申花	-13038
管件	-13039
快速的	-13040
1997	-13041
创建于	-13042
可采用	-13043
物料的	-13044
====	-13045
岩棉	-13046
监局	-13047
加州	-13048
北斗	-13049
已于	-13050
诸葛	-13051
区域的	-13052
家人的	-13053
积极推进	-13054
上火	-13055
适时	-13056
氢氧化	-13057
让学生	-13058
上千	-13059
射精	-13060
简易	-13061
收费标准	-13062
相对来说	-13063
oc	-13064
周一	-13065
件事情	-13066
就这样	-13067
展览会	-13068
具有很好的	-13069
重度	-13070
公司以	-13071
工业园区	-13072
Ch	-13073
军团	-13074
单项	-13075
德育	-13076
遮阳	-13077
红色的	-13078
广大客户	-13079
猕猴桃	-13080
的好评	-13081
第一名	-13082
体汇	-13083
太大的	-13084
膜结构	-13085
队员们	-13086
脱色	-13087
命中率	-13088
政治局	-13089
即时	-13090
票据	-13091
ind	-13092
加热器	-13093
州区	-13094
直销	-13095
纯度	-13096
已经开始	-13097
怀孕期间	-13098
文化交流	-13099
而知	-13100
透漏	-13101
▁武汉	-13102
企业提供	-13103
巧合	-13104
无忧	-13105
时许	-13106
原则上	-13107
交通便利	-13108
前十	-13109
▁不要	-13110
增长率	-13111
有两种	-13112
:"	-13113
收视	-13114
不平衡	-13115
反腐败	-13116
生活和	-13117
创造价值	-13118
管理水平	-13119
操纵	-13120
政策和	-13121
的用户	-13122
疫苗接种	-13123
保洁	-13124
本次活动	-13125
明顯	-13126
商业模式	-13127
不让	-13128
升至	-13129
抽象	-13130
易爆	-13131
注明	-13132
越是	-13133
逃避	-13134
俗话说	-13135
管理等	-13136
法定代表人	-13137
宜居	-13138
真实性	-13139
也不例外	-13140
也要注意	-13141
!!	-13142
也是有	-13143
发表了	-13144
久之	-13145
巡回	-13146
谋求	-13147
进来	-13148
酒的	-13149
风暴	-13150
决定的	-13151
欧洲杯	-13152
宝贝	-13153
狀況	-13154
班的	-13155
种族	-13156
组织实施	-13157
工藝	-13158
身体素质	-13159
商机	-13160
準備	-13161
羡慕	-13162
财物	-13163
过低	-13164
送往	-13165
作风建设	-13166
聘用	-13167
▁一些	-13168
CM	-13169
井盖	-13170
自尊	-13171
装有	-13172
规划和	-13173
他会	-13174
亲友	-13175
升学	-13176
成長	-13177
辩护	-13178
▁02	-13179
一下子	-13180
文物保护	-13181
。)	-13182
早晚	-13183
得到的	-13184
要做到	-13185
▁东	-13186
的比赛中	-13187
食品药品	-13188
中日	-13189
应变	-13190
數據	-13191
說明	-13192
戴口罩	-13193
等原因	-13194
公证	-13195
体育馆	-13196
碳中和	-13197
巡查	-13198
道教	-13199
乾隆	-13200
外交部	-13201
▁在这种	-13202
初始	-13203
点滴	-13204
”:	-13205
的神	-13206
该片	-13207
kip	-13208
上半	-13209
手部	-13210
笑着	-13211
他强调	-13212
联系方式	-13213
凝结	-13214
订购	-13215
贴心	-13216
太极拳	-13217
上腺	-13218
哪儿	-13219
固然	-13220
耗材	-13221
生产力	-13222
交手	-13223
保税	-13224
卫冕	-13225
进行处理	-13226
菜单	-13227
1.1	-13228
因地	-13229
进水	-13230
类药物	-13231
协定	-13232
原告	-13233
惠民	-13234
构成了	-13235
▁f	-13236
三相	-13237
年和	-13238
接觸	-13239
稿件	-13240
缠绕	-13241
不成	-13242
众人	-13243
侧面	-13244
国旗	-13245
答复	-13246
在家里	-13247
理论与	-13248
获得国家	-13249
设备有限公司	-13250
即是	-13251
要去	-13252
▁这里	-13253
分数线	-13254
工程质量	-13255
重要指示	-13256
尊严	-13257
沉默	-13258
闭幕	-13259
统一到	-13260
1996	-13261
学士学位	-13262
有害气体	-13263
生活质量	-13264
带的	-13265
序幕	-13266
机理	-13267
浪潮	-13268
相近	-13269
在现场	-13270
手足	-13271
发挥着	-13272
附加值	-13273
一举	-13274
宫外	-13275
居多	-13276
具有高	-13277
结构紧凑	-13278
开户	-13279
天才	-13280
板和	-13281
马里	-13282
都不是	-13283
多万	-13284
干旱	-13285
世界各国	-13286
开机	-13287
植树	-13288
自在	-13289
不是一	-13290
体制机制	-13291
更大贡献	-13292
科研机构	-13293
维护保养	-13294
足球俱乐部	-13295
美白	-13296
人死亡	-13297
球墨	-13298
用法	-13299
饮食上	-13300
合作共赢	-13301
▁2011	-13302
▁会议指出	-13303
不难	-13304
价格的	-13305
系列活动	-13306
追求卓越	-13307
钥匙	-13308
您可以	-13309
马拉松	-13310
科学管理	-13311
众生	-13312
名校	-13313
天猫	-13314
立志	-13315
自动控制	-13316
余篇	-13317
柚子	-13318
过剩	-13319
今后的	-13320
使用者	-13321
大大的	-13322
安装方便	-13323
▁电	-13324
数的	-13325
可达到	-13326
的办学	-13327
市场主体	-13328
3。	-13329
骨头	-13330
先进水平	-13331
给人一种	-13332
人情	-13333
来电	-13334
其实是	-13335
探测器	-13336
然后用	-13337
▁白癜风患者	-13338
大了	-13339
息息	-13340
见过	-13341
长年	-13342
11-	-13343
8%。	-13344
zui	-13345
▁既然	-13346
加工工艺	-13347
塑料制品	-13348
】:	-13349
三项	-13350
纯粹	-13351
的理解	-13352
不会出现	-13353
剧场	-13354
失利	-13355
开办	-13356
耐寒	-13357
团队的	-13358
孩子们的	-13359
市场规模	-13360
做梦	-13361
关键的	-13362
极高的	-13363
今晚	-13364
和控制	-13365
指挥部	-13366
行动计划	-13367
切入	-13368
改正	-13369
组分	-13370
送给	-13371
显微镜	-13372
暴露在	-13373
尽量不要	-13374
医嘱	-13375
预选	-13376
生产中	-13377
红木家具	-13378
网络营销	-13379
不通	-13380
首饰	-13381
让观众	-13382
。。。。	-13383
伤心	-13384
余年	-13385
钢制	-13386
据统计	-13387
脊柱	-13388
要求和	-13389
看完	-13390
讓人	-13391
议会	-13392
双方的	-13393
可有效	-13394
抓获	-13395
过程的	-13396
健康成长	-13397
小时候	-13398
执法人员	-13399
的安全性	-13400
可选	-13401
无菌	-13402
防伪	-13403
无一	-13404
无所	-13405
简要	-13406
续约	-13407
打破了	-13408
有机溶剂	-13409
格尔	-13410
硝酸	-13411
维权	-13412
隔墙板	-13413
侧重	-13414
可能的	-13415
局限性	-13416
布莱	-13417
我希望诸位	-13418
上百	-13419
型和	-13420
提案	-13421
创造出	-13422
组织部	-13423
Cr	-13424
一幅	-13425
在第	-13426
地利	-13427
红肿	-13428
美学	-13429
两个确立	-13430
月末	-13431
瓦楞	-13432
下车	-13433
难得	-13434
有能力	-13435
刺激性的	-13436
磨练	-13437
药学	-13438
妇联	-13439
文凭	-13440
等业务	-13441
坚实基础	-13442
不平	-13443
出入	-13444
当成	-13445
碳钢	-13446
与客户	-13447
持之以	-13448
▁注	-13449
指责	-13450
着色	-13451
完全恢复	-13452
▁2010	-13453
杠杆	-13454
滋润	-13455
结肠	-13456
问责	-13457
不及时	-13458
二次污染	-13459
的程度	-13460
一夜	-13461
也叫	-13462
億元	-13463
之类的	-13464
年龄段	-13465
决胜	-13466
子孙	-13467
震动	-13468
十分的	-13469
之间的关系	-13470
室的	-13471
棉花	-13472
状的	-13473
时间短	-13474
怎么样的	-13475
非常简单	-13476
心思	-13477
样式	-13478
源自	-13479
迅猛	-13480
不再是	-13481
掌握了	-13482
募集	-13483
少林	-13484
拥护	-13485
造血	-13486
科技的	-13487
但是如果	-13488
在这种情况下	-13489
暑假	-13490
生津	-13491
阵阵	-13492
帮助企业	-13493
但对于	-13494
南京市	-13495
小时的	-13496
为国	-13497
公章	-13498
而易	-13499
修行	-13500
讲师	-13501
可以把	-13502
一手	-13503
经开	-13504
低成本	-13505
占领	-13506
相识	-13507
钢化	-13508
”——	-13509
及其它	-13510
在公司	-13511
相色谱	-13512
现代社会	-13513
、8	-13514
北海	-13515
外地	-13516
渔业	-13517
滿足	-13518
知情	-13519
贫困地区	-13520
偿还	-13521
八项	-13522
应战	-13523
弥漫	-13524
手上	-13525
好自己的	-13526
产品的质量	-13527
02	-13528
开店	-13529
较轻	-13530
熟悉的	-13531
圣诞	-13532
▁當	-13533
下半	-13534
政协委员	-13535
时会	-13536
用戶	-13537
凭借着	-13538
职业道德	-13539
医生的指导下	-13540
丁俊	-13541
下水	-13542
吊顶	-13543
精液	-13544
金的	-13545
食品加工	-13546
▁孙	-13547
一首	-13548
特效	-13549
中国大陆	-13550
不需	-13551
亦可	-13552
用餐	-13553
飞速	-13554
▁不同	-13555
▁香港	-13556
其中有	-13557
在剧中	-13558
对我们的	-13559
一眼	-13560
吸音	-13561
臭味	-13562
齐心	-13563
地下水	-13564
主要生产	-13565
字体	-13566
制造的	-13567
帮助下	-13568
铝单板	-13569
与众	-13570
,18	-13571
▁游戏	-13572
复查	-13573
实训基地	-13574
面積	-13575
能满足	-13576
艾滋病	-13577
那么多	-13578
职能部门	-13579
下调	-13580
容貌	-13581
瑜伽	-13582
铭记	-13583
和相关	-13584
的特色	-13585
研究与	-13586
时至	-13587
特区	-13588
纸质	-13589
重任	-13590
25.	-13591
为群众	-13592
要提高	-13593
领先地位	-13594
不畅	-13595
主业	-13596
加装	-13597
带入	-13598
车牌	-13599
车载	-13600
介绍的	-13601
器具	-13602
就此	-13603
都应该	-13604
区位	-13605
深刻领会	-13606
制宜	-13607
名叫	-13608
暂行	-13609
舉辦	-13610
亲情	-13611
年中	-13612
欺骗	-13613
阐释	-13614
随即	-13615
”。“	-13616
南山	-13617
又不	-13618
客房	-13619
无痛人流	-13620
区域内	-13621
多层次	-13622
主线	-13623
了几	-13624
门类	-13625
保质期	-13626
分钟左右	-13627
在自己的	-13628
落到实处	-13629
奥迪	-13630
进行分析	-13631
故宫	-13632
曹操	-13633
美术馆	-13634
卡车	-13635
发于	-13636
网球	-13637
家用电器	-13638
衰弱	-13639
阿姨	-13640
旅行社	-13641
企业集团	-13642
▁近期	-13643
红十字	-13644
美术学院	-13645
新型冠状病毒	-13646
久了	-13647
争相	-13648
产于	-13649
冬瓜	-13650
花朵	-13651
萃取	-13652
中使用	-13653
人体内	-13654
营养素	-13655
1600	-13656
刺激性食物	-13657
儿科	-13658
快餐	-13659
西湖	-13660
过早	-13661
采光	-13662
加盟商	-13663
综合利用	-13664
做试管婴儿	-13665
▁明	-13666
区内	-13667
排骨	-13668
问题时	-13669
压铸	-13670
等各	-13671
非常丰富	-13672
5,	-13673
全队	-13674
止咳	-13675
点赞	-13676
马竞	-13677
伊拉克	-13678
其次是	-13679
和各种	-13680
总部位于	-13681
税务总局	-13682
迄今为止	-13683
在建	-13684
學院	-13685
安东	-13686
底盘	-13687
球门	-13688
足迹	-13689
护肤品	-13690
的实际	-13691
加工中心	-13692
包围	-13693
新篇章	-13694
最好不要	-13695
付费	-13696
余个	-13697
來自	-13698
与传统	-13699
两周	-13700
中层	-13701
赞扬	-13702
体系的	-13703
的大量	-13704
社会组织	-13705
高地	-13706
都必须	-13707
上岗	-13708
体能	-13709
保管	-13710
月在	-13711
朗诵	-13712
美方	-13713
訓練	-13714
年同期	-13715
选取	-13716
合作协议	-13717
采用的是	-13718
不败	-13719
压滤	-13720
行動	-13721
民主党	-13722
失业保险	-13723
持之以恒	-13724
▁U	-13725
找准	-13726
觀眾	-13727
▁其他	-13728
折磨	-13729
的去	-13730
宣传教育	-13731
赌博	-13732
中科院	-13733
制度的	-13734
关键技术	-13735
卫生部	-13736
空气能	-13737
设计方案	-13738
黑素细胞	-13739
交汇	-13740
变性	-13741
。——	-13742
丁俊晖	-13743
性能的	-13744
有以下	-13745
共鸣	-13746
分明	-13747
生根	-13748
变得更	-13749
大会上	-13750
男人的	-13751
疾病的发生	-13752
解决这个问题	-13753
质量管理体系认证	-13754
▁欧	-13755
宁市	-13756
概况	-13757
应用在	-13758
如果你想	-13759
建筑施工	-13760
意识形态	-13761
白癜风是一种	-13762
得不	-13763
高密度	-13764
不断加强	-13765
树种	-13766
篮网	-13767
辞职	-13768
遥控	-13769
冰冰	-13770
他们对	-13771
年轻的	-13772
投标人	-13773
服务机构	-13774
久而	-13775
买到	-13776
型钢	-13777
杀虫	-13778
含量高	-13779
热交换	-13780
便会	-13781
搭档	-13782
維護	-13783
▁孕妇	-13784
的知识	-13785
知名企业	-13786
一小	-13787
反感	-13788
寂寞	-13789
腐蝕	-13790
调料	-13791
转为	-13792
实实在	-13793
求发展	-13794
世界经济	-13795
99.	-13796
以來	-13797
声称	-13798
肾上腺	-13799
▁公司拥有	-13800
市场占有率	-13801
RC	-13802
乳胶	-13803
箱体	-13804
茄子	-13805
纺织品	-13806
昂贵	-13807
麦克	-13808
卵泡	-13809
严重者	-13810
第二届	-13811
专业人员	-13812
会影响到	-13813
进一步增强	-13814
一角	-13815
仍未	-13816
周五	-13817
紧跟	-13818
運輸	-13819
上下游	-13820
不建议	-13821
尤文图斯	-13822
实现中华民族伟大复兴	-13823
一遍	-13824
▁朱	-13825
剥离	-13826
变异	-13827
租房	-13828
生殖器	-13829
还可能	-13830
妨碍	-13831
手里	-13832
清朝	-13833
管辖	-13834
结实	-13835
致敬	-13836
,15	-13837
宫外孕	-13838
更适合	-13839
舞台上	-13840
办案	-13841
勒斯	-13842
性欲	-13843
致以	-13844
临床表现	-13845
时长	-13846
阳极	-13847
▁患者	-13848
分钟内	-13849
奥林匹	-13850
差异化	-13851
平滑	-13852
有任何	-13853
一種	-13854
堅持	-13855
太太	-13856
克难	-13857
反响	-13858
无味	-13859
药店	-13860
中加入	-13861
中止	-13862
巨人	-13863
讲解了	-13864
都具有	-13865
产业集群	-13866
重新加入	-13867
工业和信息化	-13868
你想	-13869
后会	-13870
天内	-13871
扁平	-13872
▁新华社	-13873
因素的影响	-13874
▁content	-13875
功能和	-13876
室内的	-13877
万元以上	-13878
不会产生	-13879
有自己的	-13880
亲戚	-13881
兩人	-13882
首相	-13883
无疑是	-13884
可以起到	-13885
示范基地	-13886
高级职称	-13887
佳绩	-13888
腰部	-13889
荷载	-13890
近百	-13891
为患者	-13892
挖掘机	-13893
多特蒙德	-13894
红酒	-13895
远射	-13896
马逊	-13897
的水平	-13898
厨师	-13899
戒烟	-13900
捕捉	-13901
的双	-13902
类等	-13903
芒果	-13904
▁三是	-13905
视网膜	-13906
座谈会上	-13907
或者其他	-13908
系统集成	-13909
需要如何	-13910
下雨	-13911
也应	-13912
低调	-13913
行长	-13914
的状况	-13915
货币政策	-13916
全胜	-13917
床垫	-13918
牙龈	-13919
知道了	-13920
避孕药	-13921
也会导致	-13922
把自己的	-13923
正常使用	-13924
,2013	-13925
助剂	-13926
总资产	-13927
资源和	-13928
年輕	-13929
肛门	-13930
万千瓦	-13931
转变为	-13932
发了	-13933
耐酸	-13934
竞争优势	-13935
奔跑	-13936
点缀	-13937
ut	-13938
▁s	-13939
基准	-13940
慕尼	-13941
创新型	-13942
男主角	-13943
的道路	-13944
食物的	-13945
小微企业	-13946
生产车间	-13947
自由贸易	-13948
充沛	-13949
切片	-13950
突发事件	-13951
兒童	-13952
叠加	-13953
围栏	-13954
建功	-13955
职教	-13956
腰椎	-13957
稀土	-13958
黄豆	-13959
AAA	-13960
银行业	-13961
保湿	-13962
带走	-13963
报告中	-13964
在工作中	-13965
奢侈	-13966
小便	-13967
情况进行	-13968
慕尼黑	-13969
穆里尼奥	-13970
抢险	-13971
炎的	-13972
这点	-13973
引发了	-13974
蓬勃发展	-13975
▁Skip	-13976
海参	-13977
衷心	-13978
视线	-13979
餐馆	-13980
意见建议	-13981
。2022	-13982
治病	-13983
条件和	-13984
压缩空气	-13985
工作压力	-13986
▁Q	-13987
宽带	-13988
它是一种	-13989
卡尔	-13990
对着	-13991
持平	-13992
播映	-13993
楼宇	-13994
内马尔	-13995
对皮肤	-13996
椭圆形	-13997
▁受	-13998
上皮	-13999
媒體	-14000
無論	-14001
较量	-14002
电机的	-14003
耐酸碱	-14004
不觉	-14005
喷嘴	-14006
穿透	-14007
慢慢的	-14008
对于一些	-14009
渗漏	-14010
不准	-14011
二的	-14012
本草	-14013
素有	-14014
互联互通	-14015
身边的	-14016
党的十八大以来	-14017
豆浆	-14018
在日常	-14019
类产品	-14020
▁苏	-14021
三四	-14022
庞大	-14023
红薯	-14024
附着力	-14025
不断增加	-14026
全方位的	-14027
亚泰	-14028
数目	-14029
未知	-14030
湿热	-14031
甘油	-14032
而异	-14033
▁上述	-14034
出货	-14035
海带	-14036
签名	-14037
衣柜	-14038
酿酒	-14039
直言	-14040
回到了	-14041
投资的	-14042
项目中	-14043
黑芝麻	-14044
已达	-14045
巴斯	-14046
优美的	-14047
可作为	-14048
为了避免	-14049
实务	-14050
射击	-14051
法和	-14052
热身	-14053
翅膀	-14054
24.	-14055
变化的	-14056
日正式	-14057
都有着	-14058
其后	-14059
老師	-14060
部落	-14061
0.6	-14062
新一届	-14063
中南	-14064
单体	-14065
報告	-14066
也表示	-14067
对我的	-14068
让客户	-14069
都有哪些	-14070
峡谷	-14071
诚挚	-14072
长途	-14073
阶级	-14074
为我国	-14075
推移	-14076
的人工	-14077
主要是因为	-14078
减压	-14079
忍不住	-14080
测试仪	-14081
技术开发	-14082
猫咪	-14083
白蚁	-14084
的話	-14085
违背	-14086
:1.	-14087
目标是	-14088
一起来看看吧	-14089
东亚	-14090
性及	-14091
法案	-14092
本病	-14093
油画	-14094
率达	-14095
调配	-14096
参与者	-14097
的控制	-14098
钱包	-14099
---	-14100
与社会	-14101
单位和	-14102
义务教育	-14103
LO	-14104
我说	-14105
送来	-14106
2-1	-14107
主要负责人	-14108
疾控	-14109
CBA	-14110
会受到	-14111
新局面	-14112
签订了	-14113
胜利召开	-14114
值为	-14115
后台	-14116
腹胀	-14117
西洋	-14118
計畫	-14119
建设中	-14120
必须是	-14121
三代	-14122
不齐	-14123
侵袭	-14124
违法违规	-14125
安定	-14126
条约	-14127
进入到	-14128
颜色的	-14129
▁等	-14130
为一	-14131
党走	-14132
出來	-14133
座椅	-14134
滋养	-14135
畜禽	-14136
▁世界	-14137
土工布	-14138
而有	-14139
外国语	-14140
得名	-14141
胎盘	-14142
早期症状	-14143
xx	-14144
战线	-14145
火热	-14146
热潮	-14147
现货	-14148
转身	-14149
符合国家	-14150
开的	-14151
海底	-14152
炎热	-14153
王国	-14154
无意间	-14155
构成的	-14156
進一步	-14157
结果显示	-14158
资源优势	-14159
清香	-14160
銀行	-14161
▁这次	-14162
增长的	-14163
的重要因素	-14164
但对	-14165
十佳	-14166
改制	-14167
能量的	-14168
不良影响	-14169
多方面的	-14170
生产总值	-14171
病灶	-14172
模特	-14173
监视	-14174
赞助	-14175
首度	-14176
的开发	-14177
碳酸钙	-14178
公约	-14179
为目的	-14180
是怎么回事	-14181
写的	-14182
对流	-14183
挤塑	-14184
活着	-14185
笔试	-14186
答应	-14187
后遗症	-14188
理论学习	-14189
下肢	-14190
何时	-14191
左脚	-14192
护照	-14193
递交	-14194
的语言	-14195
的音乐	-14196
根治	-14197
▁而在	-14198
温度和	-14199
的特殊	-14200
城县	-14201
澎湃	-14202
胰腺	-14203
试行	-14204
加盟店	-14205
因为它是	-14206
支队	-14207
周围的	-14208
公式	-14209
前身	-14210
喝茶	-14211
奖杯	-14212
成才	-14213
抛弃	-14214
理学	-14215
让人们	-14216
心力	-14217
推拉	-14218
板上	-14219
科幻	-14220
綜合	-14221
当前和	-14222
漂亮的	-14223
预处理	-14224
临床医学	-14225
如果患者	-14226
进一步完善	-14227
临近	-14228
仪器设备	-14229
造船	-14230
也有一些	-14231
代表性	-14232
大闸蟹	-14233
的电影	-14234
不顾	-14235
二度	-14236
人居	-14237
先进的生产	-14238
之作	-14239
测绘	-14240
的法律	-14241
醒来	-14242
450	-14243
配备了	-14244
应用程序	-14245
(3	-14246
会同	-14247
办好	-14248
永磁	-14249
包装材料	-14250
奋斗目标	-14251
人有	-14252
句子	-14253
外来	-14254
失信	-14255
疏通	-14256
这在	-14257
BS	-14258
抗病	-14259
清澈	-14260
发展为	-14261
单个	-14262
多月	-14263
惊艳	-14264
紧扣	-14265
试样	-14266
身价	-14267
灵敏度	-14268
的伟大	-14269
的照片	-14270
学术交流	-14271
诚信经营	-14272
仍将	-14273
往返	-14274
疏散	-14275
及服务	-14276
可以对	-14277
07	-14278
纯净	-14279
定期检查	-14280
技术的发展	-14281
地将	-14282
气和	-14283
落下	-14284
题为	-14285
不了解	-14286
9%	-14287
▁曾	-14288
乘车	-14289
故乡	-14290
光亮	-14291
好多	-14292
红包	-14293
是不会	-14294
凝固	-14295
盗窃	-14296
笔记本	-14297
光伏发电	-14298
机械工业	-14299
相关规定	-14300
針對	-14301
投资基金	-14302
厌氧	-14303
司令	-14304
红花	-14305
表决	-14306
选址	-14307
抓住了	-14308
有机肥	-14309
这方面	-14310
。2013	-14311
冷轧	-14312
判定	-14313
摄制	-14314
硅酸	-14315
计时	-14316
年上半年	-14317
DC	-14318
上港	-14319
会更	-14320
出示	-14321
宣誓	-14322
环境影响	-14323
研究报告	-14324
结构设计	-14325
几千	-14326
复旦	-14327
婆婆	-14328
本色	-14329
火的	-14330
膝盖	-14331
表率	-14332
但从	-14333
热力	-14334
皱纹	-14335
肺部	-14336
将通过	-14337
艺术的	-14338
型牛皮癣	-14339
得太	-14340
東西	-14341
站的	-14342
菌群	-14343
表格	-14344
部門	-14345
金斯	-14346
静静	-14347
传达了	-14348
工程造价	-14349
危險	-14350
快船	-14351
设在	-14352
邻居	-14353
▁用于	-14354
确定了	-14355
一堂	-14356
在其中	-14357
并获得	-14358
是什么意思	-14359
国学	-14360
城的	-14361
高位	-14362
不能够	-14363
▁唐	-14364
呵护	-14365
油污	-14366
越來	-14367
错失	-14368
不作为	-14369
打造的	-14370
蒸发器	-14371
贫困户	-14372
展馆	-14373
法师	-14374
矿泉水	-14375
回避	-14376
男主	-14377
综合体	-14378
不错的选择	-14379
調整	-14380
却没有	-14381
的考生	-14382
上是	-14383
不作	-14384
整個	-14385
饰品	-14386
高山	-14387
▁广东	-14388
摄像头	-14389
制止	-14390
售前	-14391
最終	-14392
跟进	-14393
工商户	-14394
引发的	-14395
中的应用	-14396
航运	-14397
拿到了	-14398
的饮食	-14399
知识的	-14400
第二大	-14401
工作原理	-14402
助于	-14403
凯尔特人	-14404
建筑物的	-14405
**	-14406
9-	-14407
准确把握	-14408
灵感	-14409
首节	-14410
包装机	-14411
在校生	-14412
历史悠久	-14413
大家可以	-14414
白癜风发病	-14415
底层	-14416
扭转	-14417
权限	-14418
震惊	-14419
即使在	-14420
合伙人	-14421
和非	-14422
爵士	-14423
药师	-14424
預防	-14425
▁材料	-14426
▁现代	-14427
女性在	-14428
部分组成	-14429
對方	-14430
攀升	-14431
特點	-14432
赛季的	-14433
国家战略	-14434
还含有	-14435
4,	-14436
并没	-14437
晚年	-14438
根基	-14439
沉降	-14440
演員	-14441
蜂窝	-14442
岁以上	-14443
中心主任	-14444
住房和城乡建设	-14445
转运	-14446
追逐	-14447
浓度的	-14448
类似的	-14449
锂离子	-14450
食品添加剂	-14451
切忌	-14452
哈萨	-14453
主办方	-14454
委員會	-14455
▁银屑病	-14456
所以患者	-14457
迁移	-14458
▁中医	-14459
在购买	-14460
工作服	-14461
在场	-14462
配制	-14463
高雅	-14464
在自己	-14465
一事	-14466
换届	-14467
阴影	-14468
25%	-14469
出来了	-14470
垃圾分类	-14471
方便快捷	-14472
年华	-14473
车祸	-14474
▁15	-14475
网络上	-14476
消化吸收	-14477
经济损失	-14478
ra	-14479
女篮	-14480
格斯	-14481
照顧	-14482
留给	-14483
会选择	-14484
的动力	-14485
生产加工	-14486
03	-14487
、7	-14488
借贷	-14489
听从	-14490
活化	-14491
登山	-14492
精制	-14493
说说	-14494
直升机	-14495
入睡	-14496
势必	-14497
1.7	-14498
5.5	-14499
一个小	-14500
相关工作	-14501
NO	-14502
两项	-14503
拆迁	-14504
季后赛	-14505
月下旬	-14506
宣言	-14507
我们有	-14508
而来的	-14509
责任心	-14510
无私奉献	-14511
包茎	-14512
就很	-14513
尿频	-14514
ers	-14515
市委书记	-14516
的工作中	-14517
乳酸	-14518
怎么做	-14519
的检测	-14520
经络	-14521
中之重	-14522
即便是	-14523
的高速	-14524
经过多年的	-14525
假设	-14526
松弛	-14527
蚂蚁	-14528
为他	-14529
哥伦	-14530
电位	-14531
赛道	-14532
久而久之	-14533
百年奋斗目标	-14534
動物	-14535
機關	-14536
踢球	-14537
也因此	-14538
制造企业	-14539
娛樂	-14540
座位	-14541
抉择	-14542
少年的	-14543
的安装	-14544
园林绿化	-14545
家庭教育	-14546
再利用	-14547
很高兴	-14548
离退休	-14549
顾之忧	-14550
並且	-14551
串联	-14552
人之	-14553
总共	-14554
恐慌	-14555
最长	-14556
辦理	-14557
鞋子	-14558
教师的	-14559
专家指出	-14560
回收利用	-14561
工作环境	-14562
下班	-14563
八大	-14564
较短	-14565
重力	-14566
、12	-14567
医学会	-14568
人不	-14569
出身	-14570
杀灭	-14571
格拉	-14572
酒吧	-14573
让用户	-14574
市委常委	-14575
下次	-14576
价廉	-14577
先将	-14578
沮丧	-14579
為主	-14580
煮熟	-14581
双方在	-14582
洗礼	-14583
公司与	-14584
不用担心	-14585
参赛选手	-14586
胶原蛋白	-14587
▁■	-14588
坏死	-14589
机型	-14590
▁技术	-14591
为建设	-14592
的范围	-14593
匠心	-14594
略有	-14595
習慣	-14596
豪门	-14597
艺术品	-14598
较小的	-14599
BC	-14600
严苛	-14601
事发	-14602
做过	-14603
防冻	-14604
保温层	-14605
深入贯彻落实	-14606
在小	-14607
失衡	-14608
发展前景	-14609
一中	-14610
勘查	-14611
確保	-14612
的个人	-14613
重点实验室	-14614
其间	-14615
年到	-14616
次氯	-14617
镜子	-14618
ess	-14619
的权利	-14620
化学成分	-14621
答辩	-14622
风速	-14623
▁13、	-14624
个体工商户	-14625
空气净化器	-14626
book	-14627
觉得自己	-14628
同比快速增长	-14629
应邀	-14630
死角	-14631
相较	-14632
聯合	-14633
这种方式	-14634
管理有限公司	-14635
敬畏	-14636
火力	-14637
界限	-14638
而这	-14639
。2.	-14640
公开赛	-14641
青春期	-14642
中国市场	-14643
呼吸困难	-14644
坚持不懈	-14645
全面建成小康社会	-14646
巨星	-14647
并表示	-14648
攻坚战	-14649
的施工	-14650
专业人才	-14651
相当严重	-14652
喜庆	-14653
腌制	-14654
▁孩子	-14655
的氛围	-14656
品牌建设	-14657
外观设计	-14658
安检	-14659
车上	-14660
小编就	-14661
第三代	-14662
公司产品	-14663
▁个	-14664
揭示	-14665
敦煌	-14666
特意	-14667
莲花	-14668
跟党走	-14669
回了	-14670
暑期	-14671
黑白	-14672
的客户	-14673
也有很多	-14674
之星	-14675
公元前	-14676
网友们	-14677
一个时期	-14678
热源	-14679
秒钟	-14680
日均	-14681
家里的	-14682
是一所	-14683
开工建设	-14684
疫情影响	-14685
往年	-14686
这不是	-14687
也是如此	-14688
公共交通	-14689
柴油发电机组	-14690
无愧	-14691
、20	-14692
少量的	-14693
及以上学历	-14694
CR	-14695
钻石	-14696
因为他	-14697
更加多	-14698
的高温	-14699
科研项目	-14700
稳定性好	-14701
我希望诸位也能好好地体会这句话	-14702
享用	-14703
各自的	-14704
工业园	-14705
民法典	-14706
上下功夫	-14707
丰厚	-14708
優勢	-14709
行道	-14710
重心	-14711
在每个	-14712
对孩子	-14713
强企业	-14714
标志性	-14715
粘合剂	-14716
等领域的	-14717
中说	-14718
并用	-14719
开具	-14720
这让	-14721
混合物	-14722
都是有	-14723
1300	-14724
HD	-14725
▁宋	-14726
上限	-14727
争做	-14728
整顿	-14729
无色	-14730
耕地	-14731
阴凉	-14732
只是在	-14733
西安市	-14734
尔克	-14735
做此梦	-14736
天然的	-14737
▁十	-14738
出不	-14739
整體	-14740
集团董事长	-14741
会谈	-14742
施加	-14743
桌椅	-14744
缺少的	-14745
县域	-14746
环境监测	-14747
新闻发布会	-14748
生产过程中	-14749
于心	-14750
长得	-14751
马丁	-14752
了起来	-14753
投资人	-14754
抗老化	-14755
液位计	-14756
光洁	-14757
视听	-14758
科技部	-14759
▁d	-14760
双边	-14761
悲剧	-14762
也成为	-14763
独有的	-14764
的生活方式	-14765
▁★	-14766
记者从	-14767
樱花	-14768
负于	-14769
體驗	-14770
ell	-14771
和设备	-14772
应立即	-14773
经济体	-14774
牙膏	-14775
素材	-14776
车内	-14777
加湿	-14778
教學	-14779
研判	-14780
的商品	-14781
能达到	-14782
大兴	-14783
实实在在	-14784
是世界上	-14785
花岗	-14786
适中	-14787
▁18	-14788
ub	-14789
含金	-14790
面条	-14791
杜兰特	-14792
1994	-14793
经常会	-14794
思想和行动	-14795
崇尚	-14796
淡水	-14797
花期	-14798
▁在此	-14799
率达到	-14800
采访时表示	-14801
好吃	-14802
管理与	-14803
告诉我们	-14804
产出	-14805
可调	-14806
局地	-14807
确切	-14808
》:“	-14809
及各种	-14810
地去	-14811
当我	-14812
教务	-14813
混淆	-14814
进账	-14815
企业形象	-14816
烟花爆竹	-14817
ps	-14818
因人	-14819
大片	-14820
未婚	-14821
产教融合	-14822
范围内的	-14823
二醇	-14824
互惠	-14825
网的	-14826
体育局	-14827
一键	-14828
开来	-14829
有为	-14830
直达	-14831
胶体	-14832
中心和	-14833
才知道	-14834
所带来的	-14835
扎实推进	-14836
疾病的治疗	-14837
2/	-14838
ne	-14839
销往	-14840
则需要	-14841
卫健委	-14842
的实力	-14843
三分之一	-14844
世人	-14845
两类	-14846
悄悄	-14847
调味品	-14848
国家发改委	-14849
称重	-14850
是最好的	-14851
地在	-14852
女王	-14853
惠州	-14854
。”“	-14855
双一流	-14856
因地制宜	-14857
三农	-14858
上方	-14859
仿古	-14860
名城	-14861
奋勇	-14862
字的	-14863
少儿	-14864
得天	-14865
抢断	-14866
江山	-14867
纪录片	-14868
Hz	-14869
专卖	-14870
变换	-14871
纖維	-14872
经开区	-14873
▁众所周知	-14874
发展改革委	-14875
SM	-14876
中风	-14877
房的	-14878
献策	-14879
议题	-14880
▁无论	-14881
喜爱的	-14882
放置在	-14883
商标注册	-14884
圆柱	-14885
憧憬	-14886
观看了	-14887
设计中	-14888
透明的	-14889
向下	-14890
基石	-14891
那天	-14892
污染的	-14893
科技企业	-14894
随着时间的	-14895
世的	-14896
人體	-14897
司长	-14898
尺度	-14899
恪守	-14900
日语	-14901
板等	-14902
胸怀	-14903
技术及	-14904
重大项目	-14905
牙周	-14906
雷霆	-14907
不仅有	-14908
我們的	-14909
2030	-14910
取名	-14911
开封	-14912
并具有	-14913
工艺流程	-14914
不畏	-14915
饼干	-14916
40°	-14917
战斗力	-14918
效果的	-14919
收盘	-14920
教导	-14921
管理部	-14922
刀片	-14923
来访	-14924
可选择	-14925
青海省	-14926
別人	-14927
抵制	-14928
看病	-14929
跳跃	-14930
预订	-14931
六年	-14932
封建	-14933
药性	-14934
轮的	-14935
飞船	-14936
处处长	-14937
所高校	-14938
生产商	-14939
50%,	-14940
妇幼保健	-14941
;《	-14942
認識	-14943
轮机	-14944
试试	-14945
露天	-14946
(19	-14947
可谓是	-14948
维护和	-14949
在线观看	-14950
国会	-14951
常見	-14952
放宽	-14953
栏杆	-14954
亿元的	-14955
月以来	-14956
随时随地	-14957
創造	-14958
薪资	-14959
极强的	-14960
的各项	-14961
胰岛素	-14962
节约能源	-14963
加強	-14964
小小	-14965
中央企业	-14966
积极作用	-14967
不治	-14968
务工	-14969
清代	-14970
配上	-14971
显著的	-14972
的高级	-14973
分為	-14974
含水	-14975
实操	-14976
党工委	-14977
学生会	-14978
來源	-14979
酸菜	-14980
拯救	-14981
更低	-14982
结业	-14983
要高	-14984
该国	-14985
工业机器人	-14986
基调	-14987
真情	-14988
▁研究	-14989
两人的	-14990
产业基地	-14991
兴旺	-14992
国债	-14993
未必	-14994
个月内	-14995
丰硕	-14996
没人	-14997
责任人	-14998
▁胡	-14999
▁龙	-15000
意境	-15001
母校	-15002
产业的发展	-15003
坚定理想信念	-15004
生态文明建设	-15005
▁◆	-15006
勃勃	-15007
回路	-15008
封口	-15009
战国	-15010
醫學	-15011
保证金	-15012
总公司	-15013
温度的	-15014
到底是一种	-15015
三类	-15016
但仍	-15017
壽命	-15018
大臣	-15019
万的	-15020
兼具	-15021
老家	-15022
第十二	-15023
婚后	-15024
招牌	-15025
群岛	-15026
身穿	-15027
0.4	-15028
大多数人	-15029
球墨铸铁	-15030
nd	-15031
令营	-15032
低迷	-15033
教堂	-15034
表层	-15035
送出	-15036
十九大	-15037
开始后	-15038
茅台酒	-15039
教学质量	-15040
精神状态	-15041
自身免疫	-15042
观影	-15043
在学习	-15044
集中于	-15045
文联	-15046
毛孔	-15047
立的	-15048
服务等	-15049
以上就是	-15050
受力	-15051
殊荣	-15052
脖子	-15053
踊跃	-15054
,24	-15055
304	-15056
中西	-15057
买了	-15058
他将	-15059
新聞	-15060
是的	-15061
氏体	-15062
联想	-15063
风量	-15064
211	-15065
等作用	-15066
为代表的	-15067
所产生的	-15068
党的十九届六中全会精神	-15069
填埋	-15070
长传	-15071
支队伍	-15072
先进个人	-15073
pa	-15074
军民	-15075
并就	-15076
粒度	-15077
开发商	-15078
显示出	-15079
的信心	-15080
生产过程	-15081
▁家	-15082
四处	-15083
引用	-15084
有钱	-15085
潜水	-15086
男方	-15087
病发	-15088
和市场	-15089
深层次	-15090
阶段性	-15091
崇高	-15092
普京	-15093
东莞市	-15094
胶粘剂	-15095
阐述了	-15096
比较大的	-15097
宽容	-15098
沐浴	-15099
详尽	-15100
车库	-15101
分辨率	-15102
希望对	-15103
比亚迪	-15104
能够满足	-15105
MW	-15106
一侧	-15107
名词	-15108
周六	-15109
設施	-15110
还是很	-15111
▁泰	-15112
冲刺	-15113
国道	-15114
斑点	-15115
此刻	-15116
测算	-15117
还与	-15118
作为中国	-15119
可以促进	-15120
进行了深入	-15121
书的	-15122
多变	-15123
山大	-15124
脚下	-15125
五星	-15126
這麼	-15127
ine	-15128
确保了	-15129
青岛市	-15130
相互作用	-15131
正常情况下	-15132
反超	-15133
校内	-15134
演示	-15135
评议	-15136
▁河南	-15137
不发生	-15138
什么呢	-15139
在企业	-15140
成长为	-15141
病原体	-15142
连接器	-15143
新网	-15144
比拟	-15145
▁人们	-15146
▁当天	-15147
和方法	-15148
每一个人	-15149
积极贡献	-15150
负面影响	-15151
布里	-15152
收官	-15153
改版	-15154
跨界	-15155
马龙	-15156
去年的	-15157
是无法	-15158
溶于水	-15159
这些食物	-15160
城际	-15161
根系	-15162
热心	-15163
甲醇	-15164
蛋白质的	-15165
下行	-15166
小块	-15167
脑部	-15168
航母	-15169
關注	-15170
▁后来	-15171
历史性	-15172
就会有	-15173
造成伤害	-15174
多孔	-15175
文中	-15176
网格	-15177
▁总结	-15178
思想上	-15179
融洽	-15180
108	-15181
食品的	-15182
越来越多的人	-15183
越小	-15184
身后	-15185
中发现	-15186
说明了	-15187
赛场上	-15188
终究	-15189
危险的	-15190
开启了	-15191
技术在	-15192
日本的	-15193
国际市场	-15194
州的	-15195
形的	-15196
月起	-15197
誓词	-15198
不道德	-15199
计划的	-15200
▁北	-15201
不相	-15202
胃癌	-15203
赞赏	-15204
保温隔热	-15205
怎么样的存在	-15206
▁吃	-15207
超高	-15208
本产品	-15209
级资质	-15210
前所未有的	-15211
三七	-15212
人员在	-15213
市政协	-15214
夸张	-15215
曝气	-15216
热度	-15217
重回	-15218
在没有	-15219
游泳池	-15220
部分的	-15221
尽量减少	-15222
糖尿病患者	-15223
纠葛	-15224
▁文章	-15225
管理者	-15226
该设备	-15227
值得信赖	-15228
经营的	-15229
▁外	-15230
從而	-15231
抗原	-15232
豆瓣	-15233
主办的	-15234
大力推进	-15235
凝胶	-15236
旅程	-15237
游离	-15238
米饭	-15239
路人	-15240
工作台	-15241
人与自然	-15242
深刻认识	-15243
被认为是	-15244
并无	-15245
水池	-15246
不规律	-15247
嘉兴	-15248
地基	-15249
球后	-15250
进场	-15251
他们是	-15252
上新台阶	-15253
中国政府	-15254
亲近	-15255
农林	-15256
拖延	-15257
牙刷	-15258
特兰	-15259
答题	-15260
选型	-15261
新型的	-15262
可能出现	-15263
夺取	-15264
燃煤	-15265
工程有限公司	-15266
到底是一种怎么样的存在	-15267
棕色	-15268
纵向	-15269
较弱	-15270
营养丰富	-15271
大大提高了	-15272
飲食	-15273
丰田	-15274
增長	-15275
正气	-15276
牵涉	-15277
钻研	-15278
难过	-15279
表面积	-15280
一个非常	-15281
工业设计	-15282
民族团结	-15283
SS	-15284
峰值	-15285
梅开	-15286
26.	-15287
后代	-15288
完好	-15289
红牌	-15290
105	-15291
zhi	-15292
停留在	-15293
汽车的	-15294
的交流	-15295
威尼斯人	-15296
经济技术	-15297
值守	-15298
地毯	-15299
山上	-15300
录制	-15301
方方面	-15302
早发现	-15303
这个人	-15304
那时候	-15305
一格	-15306
烧伤	-15307
不懈努力	-15308
为什么要	-15309
质量管理体系	-15310
卷帘	-15311
去皮	-15312
探究	-15313
22.	-15314
▁至于	-15315
处理器	-15316
力学性能	-15317
1～	-15318
便可	-15319
很差	-15320
再一次	-15321
变得越来越	-15322
久久	-15323
八一	-15324
可以吃	-15325
女演员	-15326
的措施	-15327
流出	-15328
深切	-15329
红线	-15330
階段	-15331
精神文明	-15332
为消费者提供	-15333
不算	-15334
專家	-15335
戴着	-15336
分布式	-15337
附属医院	-15338
省会	-15339
亚马逊	-15340
同行业	-15341
青年人	-15342
中小学生	-15343
EC	-15344
人权	-15345
報導	-15346
外围	-15347
祥和	-15348
西门	-15349
遴选	-15350
▁本站	-15351
大家对	-15352
有问题	-15353
责任制	-15354
1993	-15355
注册商标	-15356
自己喜欢	-15357
自己说的	-15358
质量稳定	-15359
同名	-15360
澄清	-15361
亿欧元	-15362
正常人	-15363
人脸识别	-15364
)”	-15365
多糖	-15366
妙的	-15367
校准	-15368
穴位	-15369
迈向	-15370
通告	-15371
仔细观察	-15372
工业协会	-15373
研发团队	-15374
nb	-15375
江区	-15376
荔枝	-15377
闭经	-15378
先进的技术	-15379
cc	-15380
把控	-15381
折射	-15382
稱為	-15383
马达	-15384
以前的	-15385
所在的	-15386
又会如何	-15387
是被	-15388
一点点	-15389
倍以上	-15390
留下的	-15391
喷射	-15392
载人	-15393
输给	-15394
▁不锈钢	-15395
所说	-15396
为主体	-15397
生态系统	-15398
搜集	-15399
新品	-15400
最强	-15401
标注	-15402
熟知	-15403
较早	-15404
面色	-15405
个专业	-15406
以减少	-15407
发挥作用	-15408
技术力量雄厚	-15409
发型	-15410
喷泉	-15411
落的	-15412
角质	-15413
优秀传统文化	-15414
截图	-15415
油水	-15416
电台	-15417
——“	-15418
妇科疾病	-15419
▁古	-15420
▁把	-15421
彩虹	-15422
果断	-15423
红利	-15424
绝望	-15425
降压	-15426
23.	-15427
比上月	-15428
要强化	-15429
人力资源和社会保障	-15430
两场	-15431
内斯	-15432
出土	-15433
大城市	-15434
工作组	-15435
目标的	-15436
严密	-15437
在各	-15438
网约	-15439
漫长的	-15440
的报告	-15441
社会上	-15442
中国国际	-15443
生活环境	-15444
qi	-15445
▁Y	-15446
是其	-15447
煮沸	-15448
每句话	-15449
清晰的	-15450
水平的提高	-15451
剩下的	-15452
我们党	-15453
明明	-15454
科比	-15455
英勇	-15456
通常在	-15457
健康安全	-15458
党总支书记	-15459
内壁	-15460
的四	-15461
缺血	-15462
实用的	-15463
不同类型的	-15464
多个国家和地区	-15465
▁单	-15466
卡斯	-15467
垫片	-15468
粘贴	-15469
耳鸣	-15470
鲜美	-15471
珠三角	-15472
AN	-15473
下來	-15474
炎等	-15475
盆地	-15476
常用于	-15477
hu	-15478
千克	-15479
名胜	-15480
料酒	-15481
的分	-15482
,2012	-15483
一组	-15484
玩笑	-15485
谣言	-15486
迪士	-15487
的工作原理	-15488
战中	-15489
男士	-15490
看过	-15491
▁综上所述	-15492
莱坞	-15493
清楚地	-15494
蔬菜和	-15495
质量好	-15496
增长速度	-15497
很长时间	-15498
普遍认为	-15499
出产	-15500
却在	-15501
和有	-15502
尼尔	-15503
▁只有	-15504
据报道	-15505
比较低	-15506
浏览器	-15507
的好坏	-15508
IF	-15509
探寻	-15510
来之	-15511
总工会	-15512
患上了	-15513
▁后	-15514
三层	-15515
亲和	-15516
对标	-15517
辅料	-15518
性激素	-15519
收到了	-15520
有很多种	-15521
-5	-15522
勘探	-15523
少先	-15524
康熙	-15525
建模	-15526
肝癌	-15527
营运	-15528
麻辣	-15529
也会有	-15530
1995	-15531
工商管理	-15532
▁l	-15533
价钱	-15534
厂的	-15535
28.	-15536
工作岗位	-15537
恢复健康	-15538
男性朋友	-15539
发展有限公司	-15540
acebook	-15541
主打	-15542
剧组	-15543
饥饿	-15544
中西部	-15545
活力的	-15546
讲话精神	-15547
无症状感染者	-15548
之分	-15549
人意	-15550
打响	-15551
远大	-15552
分钟的	-15553
勒布朗	-15554
一般采用	-15555
情侣	-15556
260	-15557
想知道	-15558
成员国	-15559
手续费	-15560
然后将	-15561
红斑痣	-15562
————	-15563
清潔	-15564
一会儿	-15565
和信息	-15566
有多种	-15567
克罗地亚	-15568
▁先	-15569
事的	-15570
首创	-15571
传染性	-15572
实施的	-15573
▁(6)	-15574
它們	-15575
截面	-15576
粮油	-15577
▁我們	-15578
迪士尼	-15579
客户要求	-15580
加压	-15581
在做	-15582
湿疣	-15583
趋于	-15584
如果说	-15585
精美的	-15586
很大的影响	-15587
体操	-15588
半径	-15589
承建	-15590
昆山	-15591
供给侧	-15592
主播	-15593
当晚	-15594
是属于	-15595
的人民	-15596
耐老化	-15597
起源于	-15598
熔融	-15599
电荷	-15600
广泛使用	-15601
引人注目	-15602
与您	-15603
争执	-15604
国标	-15605
序列	-15606
钓鱼	-15607
▁编辑	-15608
纯净水	-15609
耐久性	-15610
这一天	-15611
严格要求	-15612
党的领导	-15613
取得的成绩	-15614
在天	-15615
德华	-15616
消声	-15617
纯洁	-15618
送货	-15619
间歇	-15620
阿斯	-15621
亲爱的	-15622
内容包括	-15623
充气	-15624
喷洒	-15625
屡屡	-15626
胸闷	-15627
又一个	-15628
问题和	-15629
分支机构	-15630
回流	-15631
有余	-15632
被测	-15633
提高到	-15634
協會	-15635
。11	-15636
规格的	-15637
这部剧	-15638
一起来了解一下	-15639
床位	-15640
影子	-15641
磁力	-15642
范圍	-15643
身处	-15644
问题上	-15645
详细了解	-15646
三家	-15647
坐标	-15648
部委	-15649
。4、	-15650
实训室	-15651
专业技能	-15652
鲜红斑痣	-15653
之本	-15654
浓浓	-15655
甘草	-15656
不饱和	-15657
经济带	-15658
隶属于	-15659
攻坚克难	-15660
价的	-15661
刊物	-15662
创下	-15663
好人	-15664
要好	-15665
轻重	-15666
降级	-15667
鱼鳞	-15668
喜欢吃	-15669
应用型	-15670
产业升级	-15671
恰恰	-15672
跌幅	-15673
好消息	-15674
要切实	-15675
优良传统	-15676
农业生产	-15677
富士	-15678
抽查	-15679
来做	-15680
消肿	-15681
骨髓	-15682
中国式	-15683
尤其在	-15684
毛细血管	-15685
设备安装	-15686
不惜	-15687
才可	-15688
拿起	-15689
更安全	-15690
的性格	-15691
命运共同体	-15692
▁两	-15693
大笑	-15694
等着	-15695
art	-15696
深刻印象	-15697
向外	-15698
起义	-15699
路边	-15700
led	-15701
几十年	-15702
小时后	-15703
想要的	-15704
如做此梦	-15705
锐意进取	-15706
AM	-15707
二代	-15708
回想	-15709
年年	-15710
建言	-15711
明朝	-15712
缝隙	-15713
8.5	-15714
创造力	-15715
防腐蚀	-15716
她是	-15717
平日	-15718
所以要	-15719
更需要	-15720
乡村旅游	-15721
操作系统	-15722
与水	-15723
传授	-15724
打卡	-15725
赞美	-15726
面膜	-15727
为依托	-15728
就是因为	-15729
大雨	-15730
求助	-15731
。12	-15732
第十三	-15733
高尔夫	-15734
▁美	-15735
并举	-15736
录像	-15737
均采用	-15738
植物油	-15739
和维生素	-15740
的企业精神	-15741
PD	-15742
、9	-15743
减灾	-15744
固态	-15745
在乎	-15746
淡化	-15747
胶水	-15748
遵义	-15749
酒业	-15750
的科学	-15751
森林公园	-15752
充值	-15753
出任	-15754
太陽	-15755
无意	-15756
极佳	-15757
大功率	-15758
获得感	-15759
货物的	-15760
收回	-15761
滋阴	-15762
缺口	-15763
这张	-15764
专业人士	-15765
应急救援	-15766
广大党员干部	-15767
地暖	-15768
尘埃	-15769
都可	-15770
一些人	-15771
指导和	-15772
盲目的	-15773
体型	-15774
没收	-15775
渐进	-15776
▁医生	-15777
不论是	-15778
容易发生	-15779
教育事业	-15780
安宁	-15781
死的	-15782
磨削	-15783
考量	-15784
的首要	-15785
▁接下来	-15786
自己说的每句话	-15787
单打	-15788
打得	-15789
撕裂	-15790
格力	-15791
漏电	-15792
需求量	-15793
绝大部分	-15794
表面光滑	-15795
两端	-15796
升华	-15797
孔隙	-15798
就将	-15799
带到	-15800
梦幻	-15801
言行	-15802
高精	-15803
黑豆	-15804
干净的	-15805
本专业	-15806
合理安排	-15807
,2010	-15808
传闻	-15809
微软	-15810
附睾	-15811
危险性	-15812
自己是	-15813
任何一个	-15814
只有一个	-15815
RO	-15816
又在	-15817
变白	-15818
柿子	-15819
全国的	-15820
文明的	-15821
在市场上	-15822
诚信为本	-15823
财务管理	-15824
个人所得税	-15825
副本	-15826
日晒	-15827
胶合	-15828
小伙伴	-15829
病虫害	-15830
八项规定	-15831
普通话	-15832
积极治疗	-15833
发芽	-15834
园艺	-15835
早早	-15836
热衷	-15837
受害者	-15838
的结合	-15839
遇到的	-15840
佳节	-15841
新京	-15842
流行病	-15843
這樣的	-15844
▁2008	-15845
等荣誉称号	-15846
堡垒	-15847
谈论	-15848
里有	-15849
随身	-15850
▁浙江	-15851
不能吃	-15852
他人之	-15853
提取物	-15854
期间的	-15855
常住	-15856
證明	-15857
的追求	-15858
表面上	-15859
鲜活	-15860
吸尘器	-15861
的认可	-15862
教育工作	-15863
养血	-15864
化纤	-15865
均在	-15866
换代	-15867
本期	-15868
应急预案	-15869
方向发展	-15870
全国各族人民	-15871
探头	-15872
花样	-15873
MPa	-15874
患者应	-15875
手术室	-15876
的一半	-15877
的作用下	-15878
-50	-15879
技术等	-15880
杰出的	-15881
人机	-15882
我有	-15883
包含了	-15884
更多的是	-15885
年第	-15886
把关	-15887
杰克	-15888
競爭	-15889
乘用车	-15890
次会议	-15891
In	-15892
以求	-15893
软骨	-15894
雾化	-15895
对产品	-15896
群体的	-15897
机械性能	-15898
候车	-15899
养颜	-15900
米粉	-15901
高贵	-15902
夫斯基	-15903
肯定会	-15904
全球经济	-15905
学院院长	-15906
财产安全	-15907
一汽	-15908
又被	-15909
娃娃	-15910
提炼	-15911
熔点	-15912
体会到	-15913
独一无	-15914
白细胞	-15915
先锋模范	-15916
争先	-15917
事关	-15918
凡是	-15919
腿部	-15920
自家	-15921
顶层	-15922
东南部	-15923
的水分	-15924
第四节	-15925
目前正在	-15926
自重	-15927
贵族	-15928
古老的	-15929
投融资	-15930
演唱会	-15931
相关信息	-15932
达成协议	-15933
雄安新区	-15934
▁郭	-15935
半个	-15936
总分	-15937
摆在	-15938
清爽	-15939
里克	-15940
骨科	-15941
▁16	-15942
的活性	-15943
顺利完成	-15944
7)	-15945
多边	-15946
寄生虫	-15947
系统性	-15948
牛皮癣的治疗	-15949
平民	-15950
推薦	-15951
會有	-15952
静态	-15953
if	-15954
能效	-15955
越长	-15956
是美国	-15957
增量	-15958
布尔	-15959
纷呈	-15960
给水	-15961
会逐渐	-15962
第三节	-15963
新时代的	-15964
代理人	-15965
的局面	-15966
生产和销售	-15967
华丽	-15968
受灾	-15969
▁拥有	-15970
显示器	-15971
大力支持	-15972
公关	-15973
卖家	-15974
一大批	-15975
玩游戏	-15976
接班	-15977
組成	-15978
银杏	-15979
机体的	-15980
排名第一	-15981
七年	-15982
不限	-15983
婚纱	-15984
银川	-15985
阳气	-15986
世界第一	-15987
(2	-15988
闭环	-15989
提醒大家	-15990
满怀	-15991
连败	-15992
严格控制	-15993
估算	-15994
导游	-15995
展品	-15996
巡逻	-15997
折不	-15998
而行	-15999
月开始	-16000
哥伦比亚	-16001
相比之下	-16002
随着年龄	-16003
一千	-16004
丝毫	-16005
正值	-16006
罚球	-16007
表扬	-16008
遇上	-16009
乐团	-16010
商人	-16011
回购	-16012
曲张	-16013
肉眼	-16014
的地区	-16015
二氧化硫	-16016
可以获得	-16017
认真落实	-16018
用好	-16019
老大	-16020
bet	-16021
工程等	-16022
标准和	-16023
缺点是	-16024
预防措施	-16025
充分体现了	-16026
聚合氯化铝	-16027
单机	-16028
及時	-16029
块钱	-16030
担负	-16031
招募	-16032
运载	-16033
隐蔽	-16034
電話	-16035
保持了	-16036
执行力	-16037
氧化碳	-16038
,2009	-16039
侵略	-16040
可乐	-16041
右手	-16042
后备	-16043
桂花	-16044
中国女足	-16045
主题活动	-16046
持续发展	-16047
酪氨酸酶	-16048
女单	-16049
无聊	-16050
明智	-16051
模样	-16052
神經	-16053
▁电影	-16054
含量的	-16055
理解和	-16056
直接接触	-16057
人们的生活	-16058
招待	-16059
生命周期	-16060
诱发因素	-16061
县的	-16062
受邀	-16063
甲烷	-16064
維持	-16065
规避	-16066
只要是	-16067
召开的	-16068
处罚金	-16069
设备进行	-16070
大同	-16071
洗碗	-16072
演变	-16073
频频	-16074
▁更多	-16075
厂家的	-16076
应用中	-16077
银行的	-16078
标牌	-16079
發揮	-16080
▁第六	-16081
用实际行动	-16082
▁长	-16083
光彩	-16084
就餐	-16085
日渐	-16086
杨家	-16087
母婴	-16088
雾霾	-16089
的战绩	-16090
要按照	-16091
适合的	-16092
错过了	-16093
陌生人	-16094
对其进行	-16095
专著	-16096
带式	-16097
時代	-16098
自驾	-16099
▁建议	-16100
构建了	-16101
会员单位	-16102
早日康复	-16103
▁斯	-16104
楼层	-16105
莱万	-16106
未成年	-16107
▁易	-16108
都说	-16109
处以	-16110
把手	-16111
白点	-16112
距離	-16113
的人文	-16114
的色彩	-16115
资质的	-16116
历代	-16117
家装	-16118
潜能	-16119
背面	-16120
的情況	-16121
医院治疗	-16122
当前和今后	-16123
反腐	-16124
清凉	-16125
铝箔	-16126
加工厂	-16127
腹腔镜	-16128
9000	-16129
优秀人才	-16130
底料	-16131
词汇	-16132
在致辞	-16133
并及时	-16134
软件开发	-16135
。2012	-16136
後來	-16137
激增	-16138
特地	-16139
给与	-16140
離開	-16141
洗涤剂	-16142
规划建设	-16143
填报	-16144
安康	-16145
晚餐	-16146
繁忙	-16147
耳鼻	-16148
话语	-16149
过载	-16150
市人民政府	-16151
生态环境保护	-16152
助手	-16153
歌词	-16154
路透	-16155
醋酸	-16156
颠覆	-16157
▁汽车	-16158
召开了	-16159
含金量	-16160
行政管理	-16161
要进一步	-16162
经济发展的	-16163
上调	-16164
主罚	-16165
导入	-16166
浴室	-16167
和学生	-16168
总产值	-16169
抗衰老	-16170
的分析	-16171
买入	-16172
徐州	-16173
每個	-16174
自立	-16175
尿道炎	-16176
的任务	-16177
拍攝	-16178
概述	-16179
工业的	-16180
更方便	-16181
温湿度	-16182
的动作	-16183
永远不会	-16184
墙上	-16185
夏日	-16186
節目	-16187
罗伯	-16188
▁14、	-16189
也是比较	-16190
推广应用	-16191
非常大的	-16192
外籍	-16193
强直	-16194
欢喜	-16195
丰富了	-16196
工程中	-16197
各级党组织	-16198
▁台	-16199
分之	-16200
心得	-16201
终生	-16202
花草	-16203
跟上	-16204
为学校	-16205
以至于	-16206
意义上	-16207
签约仪式	-16208
这部电影	-16209
激光打标机	-16210
分组	-16211
感人	-16212
沙滩	-16213
畢業	-16214
白血	-16215
也有人	-16216
和孩子	-16217
尽全力	-16218
奥林匹克	-16219
老年人的	-16220
喷淋	-16221
图为	-16222
布斯	-16223
明代	-16224
相對	-16225
问卷	-16226
POS	-16227
▁智能	-16228
个性化的	-16229
做大做强	-16230
工业互联网	-16231
兵团	-16232
双层	-16233
腐烂	-16234
过得	-16235
1-3	-16236
COD	-16237
经纪人	-16238
宣传活动	-16239
1~	-16240
八个	-16241
初次	-16242
三是要	-16243
为主线	-16244
双眼皮	-16245
下达	-16246
守住	-16247
特产	-16248
穿孔	-16249
食管	-16250
高龄	-16251
第一家	-16252
▁习近平	-16253
▁多年来	-16254
为首	-16255
录用	-16256
调和	-16257
和销售	-16258
国务院关于	-16259
Ph	-16260
肉质	-16261
我们是	-16262
树立了	-16263
管道的	-16264
1100	-16265
三名	-16266
两组	-16267
之王	-16268
交融	-16269
優質	-16270
农牧	-16271
看不	-16272
肤色	-16273
在不同	-16274
类风湿	-16275
相当大的	-16276
让自己的	-16277
最大限度地	-16278
巴拉	-16279
龙的	-16280
产品中	-16281
工业中	-16282
的人口	-16283
阻燃剂	-16284
领域中	-16285
完善的售后服务	-16286
变大	-16287
史密	-16288
奥拉	-16289
皮书	-16290
细微	-16291
并结合	-16292
排放量	-16293
产业园区	-16294
四级	-16295
失常	-16296
征信	-16297
性与	-16298
毗邻	-16299
全套	-16300
国人	-16301
渤海	-16302
阴虚	-16303
晒太阳	-16304
的决心	-16305
为主题的	-16306
电商平台	-16307
上台	-16308
机票	-16309
终结	-16310
保温板	-16311
eb	-16312
兴业	-16313
原著	-16314
团伙	-16315
山地	-16316
急于	-16317
潜伏	-16318
甜美	-16319
性功能	-16320
新老客户	-16321
供图	-16322
手術	-16323
大家庭	-16324
等其他	-16325
为了保证	-16326
根本任务	-16327
齐心协力	-16328
工作的重要	-16329
勇夺	-16330
欧联	-16331
多方面	-16332
规范的	-16333
专业服务	-16334
办公室主任	-16335
但她	-16336
分歧	-16337
放开	-16338
新赛季	-16339
模块化	-16340
一到	-16341
醫生	-16342
▁昨天	-16343
竞争中	-16344
具有一定	-16345
食欲不振	-16346
ET	-16347
与你	-16348
出境	-16349
若有	-16350
阿联	-16351
加油站	-16352
实施了	-16353
自信心	-16354
中央电视台	-16355
踏上	-16356
还得	-16357
长辈	-16358
各行业	-16359
增加到	-16360
专家表示	-16361
虽说	-16362
会根据	-16363
落实到	-16364
发现问题	-16365
大腿	-16366
命名为	-16367
广州队	-16368
方式的	-16369
第一届	-16370
博士生导师	-16371
七一	-16372
原先	-16373
来回	-16374
瘦身	-16375
125	-16376
▁我的	-16377
我爱你	-16378
日活动	-16379
时间是	-16380
▁实际上	-16381
女兒	-16382
小将	-16383
想必	-16384
跻身	-16385
长短	-16386
不均匀	-16387
创作的	-16388
浓厚的	-16389
的高端	-16390
继发性	-16391
偏向	-16392
受贿	-16393
易懂	-16394
蓝牙	-16395
设备制造	-16396
下沉	-16397
大打	-16398
眼底	-16399
宫颈炎	-16400
病毒的	-16401
采取措施	-16402
▁光	-16403
▁热	-16404
也与	-16405
化验	-16406
又叫	-16407
抗议	-16408
的无	-16409
-15	-16410
挪威	-16411
滤芯	-16412
降噪	-16413
相比较	-16414
外形美观	-16415
刷牙	-16416
患了	-16417
时分	-16418
百花	-16419
风向	-16420
的意见	-16421
公益活动	-16422
RS	-16423
偏低	-16424
尽职	-16425
推射	-16426
祖先	-16427
该病	-16428
鸟类	-16429
学专业	-16430
经济和	-16431
必不可少	-16432
月经周期	-16433
换乘	-16434
艾伦	-16435
人口的	-16436
作品的	-16437
发生于	-16438
成本高	-16439
奢华	-16440
几年的	-16441
老人的	-16442
IV	-16443
交织	-16444
早产	-16445
气压	-16446
着床	-16447
公里的	-16448
所以我	-16449
运营管理	-16450
CPI	-16451
设立的	-16452
型银屑病	-16453
技术应用	-16454
深入了解	-16455
▁能	-16456
几位	-16457
告诉我	-16458
有保障	-16459
法律服务	-16460
捍卫	-16461
油性	-16462
深夜	-16463
男单	-16464
纳斯	-16465
的人数	-16466
将由	-16467
该项	-16468
大学等	-16469
没有了	-16470
犯罪的	-16471
让患者	-16472
协同发展	-16473
颁奖典礼	-16474
上榜	-16475
书院	-16476
大中	-16477
梦之	-16478
画的	-16479
在水中	-16480
▁适用于	-16481
动的	-16482
另行	-16483
在会上	-16484
在安装	-16485
最初的	-16486
▁于	-16487
偏高	-16488
凝心	-16489
果然	-16490
栽种	-16491
然後	-16492
中小型	-16493
党的百年奋斗	-16494
不合	-16495
夺下	-16496
通往	-16497
中心等	-16498
在一定	-16499
面上的	-16500
支部书记	-16501
牢牢把握	-16502
精神因素	-16503
AP	-16504
共和	-16505
磨机	-16506
科大	-16507
缔造	-16508
老干部	-16509
结构调整	-16510
绿色建筑	-16511
定为	-16512
明月	-16513
是经	-16514
见解	-16515
彰显了	-16516
后顾之忧	-16517
志愿者们	-16518
并被	-16519
明清	-16520
穿上	-16521
白斑病	-16522
????	-16523
▁生活中	-16524
▁何	-16525
或将	-16526
敬老	-16527
▁南京	-16528
女孩子	-16529
的限制	-16530
研发的	-16531
拥有一支	-16532
▁2009	-16533
三轮	-16534
乌拉	-16535
听了	-16536
改装	-16537
穿戴	-16538
优势互补	-16539
排放标准	-16540
不外	-16541
也希望	-16542
化工厂	-16543
Cl	-16544
在那	-16545
打扮	-16546
搞笑	-16547
科教	-16548
终极	-16549
锅内	-16550
,16	-16551
▁利用	-16552
具备了	-16553
助学金	-16554
实力和	-16555
淋漓尽	-16556
的希望	-16557
资格证	-16558
▁问	-16559
套路	-16560
源地	-16561
长约	-16562
政府和	-16563
集团在	-16564
何种	-16565
拉萨	-16566
散文	-16567
议员	-16568
远处	-16569
飞跃	-16570
在很多	-16571
的使命	-16572
外商投资	-16573
人寿	-16574
▁网络	-16575
时事政治	-16576
连续多年	-16577
分校	-16578
执行官	-16579
的男人	-16580
的网络	-16581
对人体的	-16582
综合治理	-16583
万元人民币	-16584
公園	-16585
化痰	-16586
是与	-16587
氮气	-16588
30.	-16589
都无法	-16590
皮肤疾病	-16591
下垂	-16592
头号	-16593
紧缺	-16594
高热	-16595
小规模	-16596
根本性	-16597
检查和	-16598
的一生	-16599
可以提供	-16600
电子邮件	-16601
工学	-16602
无处	-16603
童话	-16604
与应用	-16605
的一天	-16606
生产技术	-16607
钢化玻璃	-16608
军训	-16609
开出	-16610
漂浮	-16611
生抽	-16612
网站上	-16613
象征着	-16614
白癜风的发病	-16615
一刻	-16616
上篮	-16617
同城	-16618
屠宰	-16619
留念	-16620
要进行	-16621
入场	-16622
军的	-16623
却不	-16624
年薪	-16625
理化	-16626
菜肴	-16627
便携式	-16628
当中的	-16629
的事件	-16630
就是为了	-16631
现有员工	-16632
的原因之一	-16633
困難	-16634
客流	-16635
▁01	-16636
▁大会	-16637
人员和	-16638
及周边	-16639
的对象	-16640
还存在	-16641
培训基地	-16642
主干	-16643
团圆	-16644
准确地	-16645
和心理	-16646
五花	-16647
伊始	-16648
无不	-16649
续航	-16650
公安部	-16651
和学习	-16652
甚至会	-16653
这部分	-16654
铁矿石	-16655
从而提高	-16656
上诉	-16657
嘴巴	-16658
应以	-16659
水域	-16660
粘稠	-16661
抗腐蚀	-16662
联赛的	-16663
在有	-16664
挑食	-16665
文档	-16666
盆景	-16667
直埋	-16668
省力	-16669
胜任	-16670
市场和	-16671
而引起	-16672
非常多	-16673
一阵	-16674
各县	-16675
泽马	-16676
當然	-16677
酒类	-16678
发给	-16679
纵横	-16680
了大量	-16681
消泡剂	-16682
有很多的	-16683
企业所得税	-16684
高级工程师	-16685
工程专业承包	-16686
氮化	-16687
进化	-16688
工人的	-16689
出现异常	-16690
没有办法	-16691
上前	-16692
借此	-16693
薄的	-16694
高超	-16695
作用于	-16696
美好生活	-16697
呼吸道感染	-16698
都有自己的	-16699
安县	-16700
安神	-16701
少见	-16702
巴尔	-16703
相伴	-16704
会更加	-16705
和家长	-16706
尖锐湿疣	-16707
工程施工总承包	-16708
▁内	-16709
就近	-16710
待人	-16711
教会	-16712
的她	-16713
通透	-16714
雇主	-16715
指明了	-16716
有效期	-16717
相邻	-16718
消毒剂	-16719
的魅力	-16720
可以降低	-16721
实践经验	-16722
再接	-16723
微微	-16724
捐献	-16725
灵芝孢子	-16726
艺术学院	-16727
领先优势	-16728
敏锐	-16729
落叶	-16730
▁英国	-16731
不会对	-16732
中进行	-16733
亚克力	-16734
而产生	-16735
生活污水	-16736
心血管疾病	-16737
不愈	-16738
兒子	-16739
农商	-16740
威海	-16741
強調	-16742
德拉	-16743
煤灰	-16744
摄入量	-16745
的经验	-16746
主权	-16747
保險	-16748
文科	-16749
昨晚	-16750
铁道	-16751
你必须	-16752
的人力	-16753
肾功能	-16754
专项整治	-16755
几乎没有	-16756
为大家介绍	-16757
变迁	-16758
悬念	-16759
抬头	-16760
波形	-16761
粘性	-16762
西汉	-16763
冷却水	-16764
范围广	-16765
一级学科	-16766
一向	-16767
加息	-16768
油等	-16769
领略	-16770
麻木	-16771
▁图为	-16772
也随之	-16773
优点是	-16774
水溶液	-16775
音乐会	-16776
体育运动	-16777
次党代会	-16778
红色基因	-16779
吃得	-16780
希尔	-16781
連續	-16782
da	-16783
之感	-16784
的王	-16785
不能满足	-16786
师范学院	-16787
亚硝	-16788
车轮	-16789
也有所	-16790
死亡率	-16791
精细化	-16792
能够帮助	-16793
学制	-16794
的生	-16795
翡翠	-16796
耳机	-16797
酸痛	-16798
最近的	-16799
会展中心	-16800
我们的生活	-16801
新发展格局	-16802
了近	-16803
和李	-16804
敦促	-16805
欺诈	-16806
测温	-16807
痊愈	-16808
耐受	-16809
走的	-16810
首先是	-16811
只有这样	-16812
法律规定	-16813
突出问题	-16814
内容仅供参考	-16815
又可	-16816
启用	-16817
福特	-16818
红糖	-16819
美感	-16820
举动	-16821
植被	-16822
毛病	-16823
轮廓	-16824
与普通	-16825
会比较	-16826
理论知识	-16827
这样一来	-16828
以下有期徒刑	-16829
9、	-16830
不和	-16831
存的	-16832
暴食	-16833
泥浆	-16834
红豆	-16835
計算	-16836
29.	-16837
可提供	-16838
等场所	-16839
保健食品	-16840
售货	-16841
感官	-16842
米尔	-16843
邯郸	-16844
亿美元的	-16845
信息服务	-16846
卫浴	-16847
彼得	-16848
挑戰	-16849
求真	-16850
这片	-16851
离心机	-16852
副总	-16853
工矿	-16854
热议	-16855
重启	-16856
与作用	-16857
万事	-16858
三月	-16859
漫长	-16860
限额	-16861
固化剂	-16862
客户服务	-16863
实用新型专利	-16864
科技股份有限公司	-16865
价为	-16866
感謝	-16867
忽视了	-16868
是人类	-16869
源源	-16870
考证	-16871
铸就	-16872
副产品	-16873
慢性病	-16874
互利共赢	-16875
pe	-16876
一二	-16877
也给	-16878
双面	-16879
它会	-16880
性等	-16881
日用	-16882
一些小	-16883
友好的	-16884
已通过	-16885
的一份	-16886
积极参加	-16887
人民为中心	-16888
可持续发展的	-16889
壁纸	-16890
強度	-16891
才行	-16892
流转	-16893
粽子	-16894
不会影响	-16895
梅开二度	-16896
原文	-16897
意見	-16898
肿块	-16899
对他们	-16900
管理学	-16901
广大用户	-16902
先容	-16903
预赛	-16904
入职	-16905
卧式	-16906
归纳	-16907
席会议	-16908
统一思想	-16909
ation	-16910
干涉	-16911
欧式	-16912
绘制	-16913
开展的	-16914
经典的	-16915
都已经	-16916
辅助治疗	-16917
▁超	-16918
现身	-16919
莅临	-16920
▁江苏	-16921
夏令营	-16922
都可能	-16923
人工流产	-16924
工作中的	-16925
经久耐用	-16926
产销	-16927
后可	-16928
氣體	-16929
汉堡	-16930
突变	-16931
閱讀	-16932
高技术	-16933
取得胜利	-16934
汽车零部件	-16935
不光	-16936
与否	-16937
原体	-16938
推拿	-16939
花香	-16940
与环境	-16941
二十四	-16942
净资产	-16943
端午节	-16944
造成严重	-16945
工程院院士	-16946
ph	-16947
后天	-16948
春运	-16949
每种	-16950
罐头	-16951
进气	-16952
石英砂	-16953
VS	-16954
基体	-16955
多重	-16956
电感	-16957
红星	-16958
寒冷的	-16959
网约车	-16960
肯定是	-16961
车辆的	-16962
从来没有	-16963
武帝	-16964
润肺	-16965
III	-16966
▁所有	-16967
各领域	-16968
婚外情	-16969
伙伴关系	-16970
如果发现	-16971
聚苯乙烯	-16972
为新	-16973
研發	-16974
等你	-16975
给您	-16976
和保护	-16977
植物的	-16978
面对面	-16979
安全保障	-16980
之都	-16981
督察	-16982
分离器	-16983
大小的	-16984
周公	-16985
涨价	-16986
清廉	-16987
队和	-16988
在施工	-16989
1992	-16990
内容丰富	-16991
方方面面	-16992
深入人心	-16993
监管部门	-16994
战略合作协议	-16995
ard	-16996
小孩子	-16997
性质的	-16998
▁校	-16999
之首	-17000
所欲	-17001
禁令	-17002
肩膀	-17003
各地区	-17004
宫颈癌	-17005
接触到	-17006
九州	-17007
宇航	-17008
盛世	-17009
窒息	-17010
领头	-17011
常规赛	-17012
的模式	-17013
等地区	-17014
产品品质	-17015
思想和行动统一到	-17016
休假	-17017
居室	-17018
心目	-17019
忧虑	-17020
101	-17021
对社会	-17022
到目前为止	-17023
最高人民法院	-17024
一波	-17025
世上	-17026
丧生	-17027
刘某	-17028
唐朝	-17029
年长	-17030
痴呆	-17031
试题	-17032
有的是	-17033
经历过	-17034
PO	-17035
分担	-17036
前方	-17037
好在	-17038
文创	-17039
特尔	-17040
颇为	-17041
27.	-17042
所用的	-17043
第二轮	-17044
建设工作	-17045
本科学历	-17046
造成影响	-17047
音乐学院	-17048
成績	-17049
烘烤	-17050
盛典	-17051
经受	-17052
但不能	-17053
视频会议	-17054
高职院校	-17055
早期的	-17056
實驗	-17057
曲折	-17058
粘土	-17059
紫砂	-17060
纸板	-17061
获评	-17062
血小	-17063
难治	-17064
有一次	-17065
结束时	-17066
意想不到	-17067
顺利进行	-17068
成正	-17069
政权	-17070
潜心	-17071
解说	-17072
▁学生	-17073
的原理	-17074
中华文化	-17075
明确规定	-17076
质量问题	-17077
青年教师	-17078
自然科学基金	-17079
ye	-17080
于此	-17081
出征	-17082
残酷	-17083
罗茨	-17084
说服	-17085
在他的	-17086
理财产品	-17087
细菌感染	-17088
不爱	-17089
五谷	-17090
交易平台	-17091
发表论文	-17092
政府工作报告	-17093
之所	-17094
台词	-17095
用房	-17096
说出	-17097
要通过	-17098
先进设备	-17099
克里	-17100
内裤	-17101
挽救	-17102
章节	-17103
跳舞	-17104
快乐的	-17105
的最后	-17106
主任医师	-17107
密切接触	-17108
疫情期间	-17109
区长	-17110
却又	-17111
回味	-17112
尸体	-17113
干粉	-17114
画册	-17115
越野	-17116
可满足	-17117
是公司	-17118
主要分为	-17119
操作简便	-17120
最常见的	-17121
六十	-17122
报到	-17123
专访时	-17124
为全国	-17125
使用中	-17126
是一座	-17127
理念和	-17128
电子烟	-17129
的正确	-17130
等行业的	-17131
▁法	-17132
不法	-17133
五四	-17134
作曲	-17135
占总	-17136
甄选	-17137
还对	-17138
退火	-17139
云平台	-17140
会降低	-17141
作用是	-17142
毕业生就业	-17143
DI	-17144
田间	-17145
受精卵	-17146
自贸区	-17147
需要有	-17148
对白癜风	-17149
。2010	-17150
▁杜	-17151
当做	-17152
特拉	-17153
彩钢板	-17154
的工艺	-17155
代理记账	-17156
密切关注	-17157
传统文化的	-17158
很容易导致	-17159
密性	-17160
这块	-17161
珍贵的	-17162
50%。	-17163
不良情绪	-17164
完全可以	-17165
离子交换	-17166
继续执行	-17167
装饰材料	-17168
全家	-17169
觀察	-17170
不代表	-17171
受访者	-17172
进程中	-17173
自动驾驶	-17174
的重要举措	-17175
(5	-17176
增塑	-17177
换气	-17178
文案	-17179
日月	-17180
油品	-17181
管家	-17182
酸甜	-17183
比其他	-17184
预选赛	-17185
公司注册	-17186
日出生于	-17187
积极主动	-17188
值的	-17189
发球	-17190
多用	-17191
奔驰	-17192
扰乱	-17193
美誉	-17194
触及	-17195
不承担	-17196
亚运会	-17197
普洱茶	-17198
休闲娱乐	-17199
受欢迎的	-17200
静脉曲张	-17201
锂离子电池	-17202
日和	-17203
此病	-17204
问世	-17205
坚强的	-17206
总数的	-17207
局副局长	-17208
意义上的	-17209
部副部长	-17210
。2011	-17211
不留	-17212
如其	-17213
断面	-17214
钻井	-17215
高举	-17216
他希望	-17217
开发出	-17218
得天独	-17219
深思熟	-17220
大家一起	-17221
20000	-17222
按键	-17223
直射	-17224
看重	-17225
粒径	-17226
肿大	-17227
誓言	-17228
须经	-17229
室内外	-17230
的实施	-17231
紧接着	-17232
见证了	-17233
就是这样	-17234
积极推动	-17235
的发展趋势	-17236
把他	-17237
黄体	-17238
112	-17239
不仅在	-17240
乳白色	-17241
会因为	-17242
可提高	-17243
等功效	-17244
绿水青山	-17245
▁本文摘要	-17246
匆匆	-17247
共同的	-17248
的能量	-17249
AT	-17250
不着	-17251
了两	-17252
兰德	-17253
轴向	-17254
▁个人	-17255
国民党	-17256
爱尔兰	-17257
交友	-17258
听见	-17259
毁灭	-17260
片段	-17261
缺水	-17262
芬兰	-17263
无任何	-17264
还表示	-17265
部电影	-17266
原因之一	-17267
相对湿度	-17268
进行调整	-17269
概论	-17270
現象	-17271
萨尔	-17272
预热	-17273
了解下	-17274
和美国	-17275
哪家好	-17276
商品的	-17277
性发作	-17278
涉及的	-17279
启动仪式	-17280
团结带领	-17281
中被	-17282
何况	-17283
多食	-17284
微米	-17285
滴虫	-17286
西游	-17287
就好像	-17288
副理事长	-17289
宽敞	-17290
巴士	-17291
離子	-17292
你应该	-17293
关键时刻	-17294
卫生组织	-17295
技能大赛	-17296
子宫内膜异位	-17297
吸湿	-17298
沸腾	-17299
的李	-17300
自营	-17301
遮盖	-17302
与美国	-17303
市中心	-17304
同学们的	-17305
圆满完成	-17306
形成一个	-17307
锻炼身体	-17308
2～	-17309
学分	-17310
苦瓜	-17311
让它	-17312
第二季	-17313
这样就	-17314
容易产生	-17315
市公安局	-17316
需要根据	-17317
日讯	-17318
一家人	-17319
史密斯	-17320
和提高	-17321
强制性	-17322
等重要	-17323
余热	-17324
加拉	-17325
清算	-17326
齐聚	-17327
▁2,	-17328
加强与	-17329
在欧洲	-17330
国内市场	-17331
东道	-17332
围棋	-17333
多是	-17334
套餐	-17335
寺庙	-17336
泥土	-17337
矿井	-17338
硬盘	-17339
为全球	-17340
你们的	-17341
有趣的	-17342
坚持治疗	-17343
本身就是	-17344
借口	-17345
免受	-17346
命题	-17347
回馈	-17348
收割	-17349
正直	-17350
站立	-17351
让其	-17352
我们所	-17353
抗癫痫	-17354
ya	-17355
▁地	-17356
削减	-17357
导线	-17358
橘子	-17359
给她	-17360
那不	-17361
随处	-17362
紧固件	-17363
引领作用	-17364
说过这样一句话	-17365
波尔	-17366
正因为	-17367
中全会精神	-17368
白癜风的病因	-17369
充滿	-17370
受限	-17371
結束	-17372
东北部	-17373
包装袋	-17374
的办法	-17375
也不知道	-17376
也是可以	-17377
保有	-17378
擔任	-17379
绝热	-17380
馒头	-17381
。3.	-17382
大型企业	-17383
进行全面	-17384
-6	-17385
▁卡	-17386
侦探	-17387
函授	-17388
敏捷	-17389
敬意	-17390
求实	-17391
当年的	-17392
建议大家	-17393
伯纳	-17394
偏出	-17395
兼备	-17396
平淡	-17397
清气	-17398
端子	-17399
置身	-17400
争夺战	-17401
工作了	-17402
充分认识	-17403
癫痫病医院	-17404
乔治	-17405
从容	-17406
他又	-17407
准时	-17408
和无	-17409
套管	-17410
参与到	-17411
可能在	-17412
式发展	-17413
30%,	-17414
梅州客家	-17415
(4	-17416
企图	-17417
对付	-17418
方能	-17419
流的	-17420
集结	-17421
效率和	-17422
购买的	-17423
专门从事	-17424
co	-17425
▁米	-17426
名思	-17427
尾气	-17428
肥大	-17429
育种	-17430
重塑	-17431
钢的	-17432
黄海	-17433
▁据报道	-17434
与会人员	-17435
合作交流	-17436
综合考虑	-17437
诚实守信	-17438
积累了丰富的	-17439
中去	-17440
向好	-17441
禁毒	-17442
表的	-17443
和分析	-17444
最佳的	-17445
热电偶	-17446
在我们的	-17447
的带领下	-17448
一定能	-17449
各种各样	-17450
▁生	-17451
吃完	-17452
和外	-17453
▁任何	-17454
ee	-17455
年里	-17456
流速	-17457
SEO	-17458
▁四川	-17459
子宫颈	-17460
生产出	-17461
▁报道称	-17462
产品开发	-17463
可以增加	-17464
高度评价	-17465
十分重要的	-17466
下单	-17467
你有	-17468
呼声	-17469
头疼	-17470
智商	-17471
笔画	-17472
金球	-17473
耐候性	-17474
这不仅	-17475
微信小程序	-17476
内蒙古自治区	-17477
-4	-17478
似的	-17479
千亿	-17480
华润	-17481
安居	-17482
富豪	-17483
水器	-17484
照料	-17485
爱岗	-17486
发出的	-17487
慢慢地	-17488
绿色低碳	-17489
哈萨克斯坦	-17490
也更	-17491
宁德	-17492
山脉	-17493
玉石	-17494
议案	-17495
闲置	-17496
高强	-17497
融入到	-17498
软硬件	-17499
需要对	-17500
在国内外	-17501
第二阶段	-17502
烫伤	-17503
量少	-17504
做到的	-17505
可以做	-17506
岁以下	-17507
开始的	-17508
现实的	-17509
以下几个方面	-17510
功用	-17511
斩获	-17512
有機	-17513
隔绝	-17514
被害人	-17515
中国足球	-17516
+1	-17517
▁a	-17518
电控	-17519
留守	-17520
血脉	-17521
系列的	-17522
高风险	-17523
检测结果	-17524
出让	-17525
当好	-17526
领土	-17527
万能	-17528
产区	-17529
幾乎	-17530
说起	-17531
阶层	-17532
到最后	-17533
向大家	-17534
指定的	-17535
据介绍	-17536
深思熟虑	-17537
叔叔	-17538
复产	-17539
帮你	-17540
牌照	-17541
糖果	-17542
足坛	-17543
会加重	-17544
玩家们	-17545
运行的	-17546
严重不足	-17547
他与	-17548
源泉	-17549
开拓者	-17550
世代	-17551
旅遊	-17552
痛风	-17553
起初	-17554
240	-17555
含水量	-17556
处理好	-17557
教研室	-17558
每天都	-17559
的高新技术	-17560
艰巨	-17561
不到位	-17562
乳制品	-17563
多年前	-17564
考试科目	-17565
中等职业学校	-17566
!」	-17567
呼叫	-17568
團體	-17569
弊端	-17570
收拾	-17571
送去	-17572
▁于是	-17573
因为我	-17574
领先水平	-17575
为由	-17576
和尚	-17577
在被	-17578
对讲	-17579
永昌	-17580
预售	-17581
的职业	-17582
中国文化	-17583
纪委监委	-17584
▁常	-17585
严寒	-17586
设想	-17587
辦法	-17588
隔墙	-17589
和研究	-17590
理论上	-17591
继电器	-17592
也会影响	-17593
宏观经济	-17594
综艺节目	-17595
cn	-17596
▁h	-17597
各异	-17598
时不	-17599
余万元	-17600
电解质	-17601
绿色的	-17602
:3	-17603
交错	-17604
反抗	-17605
和张	-17606
奖牌	-17607
▁简介	-17608
再接再	-17609
我们一起	-17610
尽情	-17611
的茶	-17612
信息和	-17613
的检查	-17614
重要性	-17615
佩戴口罩	-17616
重中之重	-17617
一脚	-17618
帝王	-17619
查验	-17620
皮下	-17621
秋冬	-17622
3-0	-17623
一切都	-17624
证明了	-17625
不是一个	-17626
旅游景点	-17627
消防救援	-17628
相关人员	-17629
调查研究	-17630
,2011	-17631
八年	-17632
劣质	-17633
可信	-17634
和多	-17635
系的	-17636
脓性	-17637
-12	-17638
女朋友	-17639
的概率	-17640
临床试验	-17641
吸纳	-17642
油和	-17643
珠江	-17644
能有	-17645
了一段	-17646
到这里	-17647
方便的	-17648
重复使用	-17649
培養	-17650
但是一	-17651
李克强	-17652
我们知道	-17653
游乐设备	-17654
前辈	-17655
壮观	-17656
望远	-17657
一次次	-17658
可能有	-17659
时间段	-17660
的气氛	-17661
但是对于	-17662
其中之一	-17663
是一样的	-17664
欧阳	-17665
海港	-17666
的开	-17667
的信念	-17668
这些人	-17669
洞察	-17670
酸酯	-17671
ity	-17672
一步步	-17673
与现代	-17674
相比于	-17675
稳定性和	-17676
无意间说过这样一句话	-17677
烹调	-17678
不要太	-17679
所学校	-17680
MS	-17681
▁奥	-17682
乐队	-17683
吐槽	-17684
球形	-17685
而解	-17686
不小的	-17687
电容器	-17688
接种疫苗	-17689
▁会议要求	-17690
固定资产投资	-17691
为我	-17692
杀手	-17693
大中型	-17694
出现白斑	-17695
有机废气	-17696
服务能力	-17697
劣势	-17698
动机	-17699
封面	-17700
班车	-17701
紧绷	-17702
分布于	-17703
封闭式	-17704
来之不易	-17705
深入贯彻	-17706
PG	-17707
▁心	-17708
前茅	-17709
文具	-17710
浸润	-17711
多万元	-17712
完整性	-17713
清洗剂	-17714
临界	-17715
保利	-17716
即为	-17717
建工	-17718
通便	-17719
顏色	-17720
本泽马	-17721
比去年	-17722
调整为	-17723
促进作用	-17724
一定要选择	-17725
观摩	-17726
驰名	-17727
细致的	-17728
各个方面	-17729
一头	-17730
储藏	-17731
后在	-17732
堆放	-17733
姆巴	-17734
杏仁	-17735
生命力	-17736
诊断为	-17737
一新	-17738
毁坏	-17739
烟酒	-17740
辦公	-17741
铁皮	-17742
鼻腔	-17743
也同样	-17744
废水的	-17745
或其它	-17746
服务企业	-17747
该怎么办	-17748
凭着	-17749
▁想要	-17750
不只是	-17751
等措施	-17752
▁15、	-17753
产品销售	-17754
年的时间	-17755
是不同的	-17756
维生素和	-17757
万千	-17758
为题	-17759
义乌	-17760
刻画	-17761
吞吐	-17762
廊坊	-17763
增长了	-17764
意识的	-17765
温暖的	-17766
的一家	-17767
高度的	-17768
调查显示	-17769
下面我们就	-17770
》:	-17771
宜昌	-17772
屬於	-17773
而过	-17774
討論	-17775
金黄	-17776
负责人表示	-17777
”?	-17778
不计	-17779
去掉	-17780
投出	-17781
血流	-17782
魔术	-17783
空间站	-17784
能促进	-17785
防腐剂	-17786
主要应用于	-17787
诊断和治疗	-17788
七个	-17789
备份	-17790
奈何	-17791
最差	-17792
3-4	-17793
了一套	-17794
商学院	-17795
傍晚	-17796
可按	-17797
心上	-17798
热熔	-17799
上进行	-17800
她们的	-17801
多种多样	-17802
燃料电池	-17803
对新	-17804
自如	-17805
课外	-17806
都与	-17807
大多是	-17808
传感器的	-17809
发布公告	-17810
死者	-17811
工程和	-17812
这方面的	-17813
饮食方面	-17814
-8	-17815
书房	-17816
分区	-17817
同樣	-17818
国籍	-17819
顺风	-17820
和健康	-17821
20%,	-17822
质量保证	-17823
是不一样的	-17824
▁山	-17825
时时	-17826
暴饮	-17827
私立	-17828
国际上	-17829
必须有	-17830
玫瑰花	-17831
诊断及	-17832
首席执行官	-17833
奉行	-17834
昼夜	-17835
流向	-17836
裁定	-17837
追加	-17838
圖片	-17839
磨床	-17840
自查	-17841
芜湖	-17842
螺母	-17843
(10	-17844
zhong	-17845
传出	-17846
口臭	-17847
只为	-17848
崩溃	-17849
恐龙	-17850
时速	-17851
每股	-17852
做好了	-17853
的步伐	-17854
范围的	-17855
也可用于	-17856
国际社会	-17857
毅力	-17858
關鍵	-17859
高涨	-17860
和一些	-17861
干燥机	-17862
联赛第	-17863
科研人员	-17864
大纲	-17865
通达	-17866
麻痹	-17867
皮肤科	-17868
而发生	-17869
专项行动	-17870
东北地区	-17871
劳逸	-17872
福祉	-17873
些时候	-17874
由国家	-17875
发展机遇	-17876
则在	-17877
吉尔	-17878
四位	-17879
盆栽	-17880
耐水	-17881
高雄	-17882
微小	-17883
橱柜	-17884
的黑	-17885
開放	-17886
1-1	-17887
提供更	-17888
一笑	-17889
国情	-17890
找寻	-17891
自带	-17892
影响着	-17893
领导者	-17894
为您服务	-17895
中国共产党成立	-17896
bu	-17897
吃到	-17898
坦克	-17899
扫码	-17900
海尔	-17901
咖啡因	-17902
代表性的	-17903
清洗干净	-17904
委员会主任	-17905
发红	-17906
很不	-17907
条形	-17908
身着	-17909
0.7	-17910
▁梦境	-17911
▁百	-17912
公分	-17913
分院	-17914
夹具	-17915
普法	-17916
白茶	-17917
神圣	-17918
首演	-17919
▁当时	-17920
充分考虑	-17921
项目经理	-17922
团的	-17923
磨粉	-17924
杯冠军	-17925
自然界	-17926
独行	-17927
率队	-17928
性刺激	-17929
是采用	-17930
来确定	-17931
每小时	-17932
而努力	-17933
工作实际	-17934
像素	-17935
區域	-17936
民进	-17937
。。。	-17938
的土地	-17939
具有很高的	-17940
尽其	-17941
浮雕	-17942
关心的	-17943
最大化	-17944
国际标准	-17945
大力弘扬	-17946
du	-17947
条码	-17948
辈子	-17949
来完成	-17950
等组成	-17951
还会有	-17952
工艺美术	-17953
色素脱失	-17954
表面活性	-17955
经济的发展	-17956
VC	-17957
两轮	-17958
误诊	-17959
you	-17960
模式的	-17961
10%,	-17962
睡眠质量	-17963
▁也	-17964
传销	-17965
流泪	-17966
面子	-17967
认可的	-17968
金刚石	-17969
万股	-17970
十条	-17971
好莱坞	-17972
万年	-17973
上汽	-17974
功德	-17975
存量	-17976
得住	-17977
特大	-17978
省时	-17979
知晓	-17980
这笔	-17981
高溫	-17982
和朋友	-17983
建筑节能	-17984
这样的话	-17985
买房	-17986
代办	-17987
依规	-17988
沉迷	-17989
裝置	-17990
解散	-17991
配角	-17992
2.8	-17993
▁学习	-17994
自然环境	-17995
网片	-17996
耕耘	-17997
负离子	-17998
就业方向	-17999
数据采集	-18000
南市	-18001
取证	-18002
循環	-18003
痔疮	-18004
神的	-18005
一般都	-18006
的视频	-18007
离合器	-18008
等都是	-18009
▁石	-18010
京剧	-18011
旧址	-18012
每隔	-18013
选材	-18014
成果转化	-18015
课堂教学	-18016
建华	-18017
跑到	-18018
近些	-18019
▁生活	-18020
粉煤灰	-18021
颗粒物	-18022
一笔	-18023
听得	-18024
室內	-18025
席位	-18026
朝气	-18027
防震	-18028
艺术设计	-18029
中欧	-18030
会所	-18031
强者	-18032
获利	-18033
对应的	-18034
等材料	-18035
TS	-18036
军区	-18037
多大	-18038
陈述	-18039
2.2	-18040
便捷的	-18041
发展新	-18042
妇产科	-18043
配电箱	-18044
克莱	-18045
共进	-18046
果肉	-18047
常务理事	-18048
产品的研发	-18049
数字化转型	-18050
DS	-18051
储蓄	-18052
此举	-18053
些什么	-18054
加强了	-18055
和教育	-18056
好处的	-18057
疫情的	-18058
淋漓尽致	-18059
越来越好	-18060
寄托	-18061
或少	-18062
期满	-18063
他们将	-18064
工作任务	-18065
比较容易	-18066
多台	-18067
性感	-18068
拇指	-18069
由来	-18070
伊斯兰	-18071
搅拌均匀	-18072
失踪	-18073
学一	-18074
定于	-18075
昏迷	-18076
相爱	-18077
困难和	-18078
大健康	-18079
类食物	-18080
品行	-18081
可以向	-18082
使用过程中	-18083
国家统计局	-18084
发挥重要作用	-18085
3》	-18086
炒作	-18087
英國	-18088
锅里	-18089
,14	-18090
千瓦时	-18091
在那里	-18092
平均值	-18093
我们都知道	-18094
GO	-18095
了个	-18096
召集	-18097
客商	-18098
心跳	-18099
▁50	-18100
也逐渐	-18101
只是一	-18102
液体的	-18103
共产主义	-18104
建军	-18105
在城市	-18106
的伤害	-18107
的象征	-18108
为了防止	-18109
党的十九大精神	-18110
之城	-18111
拥堵	-18112
检索	-18113
用具	-18114
的非	-18115
也不用	-18116
西班牙人	-18117
ge	-18118
十个	-18119
巴马	-18120
式和	-18121
成药	-18122
生鲜	-18123
耗能	-18124
被困	-18125
黄酮	-18126
▁位于	-18127
干事创业	-18128
。2009	-18129
先用	-18130
平坦	-18131
》,《	-18132
开设了	-18133
明白了	-18134
党和人民	-18135
大声	-18136
名学生	-18137
在各种	-18138
的运行	-18139
发展空间	-18140
ti	-18141
中对	-18142
中建	-18143
人類	-18144
刚度	-18145
国米	-18146
防卫	-18147
-11	-18148
2.4	-18149
▁03	-18150
了下来	-18151
在当地	-18152
是具有	-18153
要学会	-18154
履职尽责	-18155
▁另一方面	-18156
▁查看更多	-18157
▁木	-18158
不乏	-18159
委屈	-18160
情緒	-18161
羊角	-18162
限期	-18163
人心的	-18164
淋巴结	-18165
级以上	-18166
工匠精神	-18167
有关要求	-18168
视觉效果	-18169
诱发白癜风	-18170
会把	-18171
涡轮	-18172
等国	-18173
使我们	-18174
可能會	-18175
改善了	-18176
第三届	-18177
乐于	-18178
刊登	-18179
原谅	-18180
号的	-18181
幕后	-18182
母猪	-18183
3.2	-18184
癌细胞	-18185
驾驶证	-18186
唐山	-18187
在哪	-18188
荷花	-18189
追捧	-18190
陆军	-18191
▁天津	-18192
中饰演	-18193
温度为	-18194
活动现场	-18195
继续保持	-18196
自然灾害	-18197
入户	-18198
公牛	-18199
惩处	-18200
手機	-18201
金牛	-18202
高大	-18203
▁郑州	-18204
化处理	-18205
总比分	-18206
成分是	-18207
0.00	-18208
两点	-18209
午餐	-18210
地为	-18211
情操	-18212
纵深	-18213
衬衫	-18214
中医院	-18215
塞尔维亚	-18216
灵芝孢子粉	-18217
增压	-18218
的单	-18219
的病人	-18220
透明度	-18221
▁100	-18222
电子元器件	-18223
栖息	-18224
迷茫	-18225
静止	-18226
几分钟	-18227
创新和	-18228
复发的	-18229
贡献自己的	-18230
?」	-18231
作法	-18232
全是	-18233
西药	-18234
内容和	-18235
很快就	-18236
日本队	-18237
谋发展	-18238
资料图	-18239
长沙市	-18240
慢性疾病	-18241
则为	-18242
同學	-18243
結婚	-18244
通关	-18245
all	-18246
但现在	-18247
类物质	-18248
辽宁队	-18249
从而影响	-18250
次氯酸钠	-18251
往下	-18252
父親	-18253
补水	-18254
這裡	-18255
港澳台	-18256
组组长	-18257
入党誓词	-18258
动脉硬化	-18259
国有资产	-18260
迅速发展	-18261
之风	-18262
優秀	-18263
元素的	-18264
已成功	-18265
一体化的	-18266
安排部署	-18267
引起重视	-18268
之类	-18269
后人	-18270
泡水	-18271
石粉	-18272
胞胎	-18273
保障了	-18274
耐化学	-18275
公益事业	-18276
供销	-18277
假的	-18278
刻意	-18279
地把	-18280
地貌	-18281
束缚	-18282
-60	-18283
▁安全	-18284
这些都	-18285
历任	-18286
没了	-18287
镜片	-18288
是解决	-18289
的情感	-18290
项目和	-18291
非常丰富的	-18292
CB	-18293
中俄	-18294
凹凸	-18295
商圈	-18296
数为	-18297
逐漸	-18298
以服务	-18299
做出贡献	-18300
大家都知道	-18301
▁梁	-18302
叙述	-18303
心肺	-18304
无声	-18305
死后	-18306
殡葬	-18307
热风	-18308
牌子	-18309
▁设备	-18310
倾向于	-18311
和他的	-18312
国家对	-18313
治疗后	-18314
老龄化	-18315
这种现象	-18316
▁让	-18317
分差	-18318
水垢	-18319
继而	-18320
间盘	-18321
服务水平	-18322
本职工作	-18323
三百	-18324
攻略	-18325
文的	-18326
此项	-18327
璀璨	-18328
补足	-18329
購買	-18330
跟我	-18331
过错	-18332
最早的	-18333
参加工作	-18334
的影响力	-18335
皮肤病医院	-18336
參考	-18337
我能	-18338
新手	-18339
锤炼	-18340
香油	-18341
驾车	-18342
目标和	-18343
沟通交流	-18344
爸爸妈妈	-18345
了大	-18346
以為	-18347
关切	-18348
当归	-18349
漂白	-18350
积聚	-18351
鲁迅	-18352
▁需要	-18353
对学生	-18354
抗日战争	-18355
政策措施	-18356
参加了会议	-18357
▁进入	-18358
个进球	-18359
新业态	-18360
空气的	-18361
保护环境	-18362
开拓进取	-18363
注册公司	-18364
八强	-18365
再一	-18366
助孕	-18367
日程	-18368
有何	-18369
等症	-18370
与技术	-18371
維生素	-18372
▁據	-18373
也已	-18374
免除	-18375
寄予	-18376
挂钩	-18377
物件	-18378
罗纳	-18379
背叛	-18380
辨识	-18381
不会被	-18382
免费的	-18383
实力雄厚	-18384
▁江	-18385
会将	-18386
德比	-18387
日新	-18388
本节	-18389
点火	-18390
并取得	-18391
激发了	-18392
复旦大学	-18393
是很重要的	-18394
政府信息公开	-18395
▁次	-18396
地标	-18397
增殖	-18398
托运	-18399
波特	-18400
深海	-18401
站长	-18402
123	-18403
意思是	-18404
1990	-18405
货物运输	-18406
不服	-18407
成考	-18408
桥架	-18409
甜味	-18410
男足	-18411
▁提供	-18412
崭新的	-18413
▁预示着	-18414
如果出现	-18415
工作要求	-18416
不由	-18417
你們	-18418
关卡	-18419
只在	-18420
吃药	-18421
家常	-18422
老将	-18423
讲授	-18424
的反应	-18425
美国人	-18426
劳动强度	-18427
性关节炎	-18428
▁回	-18429
如实	-18430
家风	-18431
形体	-18432
當地	-18433
粘附	-18434
菠萝	-18435
集约	-18436
不明显	-18437
力量的	-18438
回顾了	-18439
自己和	-18440
平均水平	-18441
息息相关	-18442
▁我们都知道	-18443
▁更	-18444
挣扎	-18445
转账	-18446
邀請	-18447
SCI	-18448
为保证	-18449
作品中	-18450
就在于	-18451
开发了	-18452
或者说	-18453
的资金	-18454
级别的	-18455
一些问题	-18456
中医药大学	-18457
时而	-18458
看点	-18459
贵宾	-18460
邮票	-18461
使用权	-18462
劳动关系	-18463
结构合理	-18464
营销模式	-18465
中国共产党的	-18466
伪造	-18467
壁厚	-18468
智利	-18469
職業	-18470
重阳	-18471
很重要的	-18472
税务机关	-18473
2~	-18474
精灵	-18475
老实	-18476
节食	-18477
希望在	-18478
每个月	-18479
第二名	-18480
量身定制	-18481
9001:	-18482
发展中国家	-18483
却被	-18484
对人	-18485
插座	-18486
深造	-18487
至於	-18488
谷物	-18489
防洪	-18490
麦当	-18491
微循环	-18492
落实好	-18493
你会发现	-18494
制造工艺	-18495
空气净化	-18496
土建	-18497
文人	-18498
月光	-18499
没法	-18500
測量	-18501
管和	-18502
约会	-18503
绝佳	-18504
轻便	-18505
▁国内	-18506
核电站	-18507
洗干净	-18508
的进行	-18509
能够让	-18510
以待	-18511
听觉	-18512
旺季	-18513
私自	-18514
纲领	-18515
缓缓	-18516
迎刃	-18517
副省长	-18518
原发性	-18519
方向的	-18520
观众们	-18521
剧照	-18522
年版	-18523
惠及	-18524
提振	-18525
村落	-18526
疏导	-18527
車輛	-18528
辜负	-18529
遇难	-18530
)、《	-18531
如果能	-18532
的员工	-18533
的场所	-18534
还会出现	-18535
始皇	-18536
退化	-18537
逆变	-18538
分别在	-18539
中国足协	-18540
帮助他们	-18541
报告显示	-18542
同济	-18543
本案	-18544
特聘	-18545
穿梭	-18546
好不好	-18547
有害的	-18548
过度的	-18549
迎刃而解	-18550
七大	-18551
头顶	-18552
越低	-18553
各企业	-18554
消化的	-18555
诸葛亮	-18556
可以用来	-18557
香型白酒	-18558
有限公司成立于	-18559
▁饰	-18560
防灾	-18561
鱼的	-18562
专家的	-18563
局限于	-18564
是关键	-18565
劳逸结合	-18566
成员单位	-18567
金华	-18568
男朋友	-18569
一直坚持	-18570
冲锋	-18571
化物	-18572
摔倒	-18573
有线	-18574
雨雪	-18575
和蔬菜	-18576
源热泵	-18577
为自己的	-18578
可以避免	-18579
砥砺前行	-18580
低速	-18581
化瘀	-18582
片机	-18583
越发	-18584
阻断	-18585
马刺	-18586
鼓勵	-18587
克服了	-18588
消息称	-18589
等工业	-18590
被视为	-18591
了然	-18592
太湖	-18593
貓咪	-18594
已超过	-18595
新工艺	-18596
现如今	-18597
絮凝剂	-18598
节日的	-18599
一段时间后	-18600
Pa	-18601
会很	-18602
封锁	-18603
画卷	-18604
花果	-18605
词语	-18606
该院	-18607
主人公	-18608
比普通	-18609
安全问题	-18610
暴饮暴食	-18611
都有可能	-18612
保溫	-18613
的字	-18614
以及在	-18615
健康状况	-18616
神经衰弱	-18617
有限公司是一家	-18618
▁g	-18619
建议患者	-18620
设计理念	-18621
自然保护区	-18622
动车	-18623
夺标	-18624
忠实	-18625
恢復	-18626
暴跌	-18627
湿气	-18628
良心	-18629
营利	-18630
通话	-18631
我们还	-18632
的提升	-18633
等大型	-18634
易燃易爆	-18635
la	-18636
實施	-18637
拉德	-18638
沿途	-18639
能与	-18640
在任何	-18641
的一款	-18642
融为一体	-18643
交界	-18644
偷偷	-18645
尔蒙	-18646
投保	-18647
掩盖	-18648
xue	-18649
成长的	-18650
等多家	-18651
不同的是	-18652
体育总局	-18653
▁青	-18654
中華	-18655
就地	-18656
扫黑	-18657
星球	-18658
梯队	-18659
秦皇	-18660
經歷	-18661
莎士	-18662
要先	-18663
▁有的	-18664
同时对	-18665
看一下	-18666
早期治疗	-18667
水利水电	-18668
空气污染	-18669
经济开发区	-18670
强壮	-18671
手脚	-18672
▁、“	-18673
▁要想	-18674
你自己	-18675
另一半	-18676
开放式	-18677
更多地	-18678
虽然是	-18679
努力学习	-18680
得出结论	-18681
出赛	-18682
就得	-18683
病患	-18684
製作	-18685
路易	-18686
减速器	-18687
孩子在	-18688
的独特	-18689
典型案例	-18690
培养目标	-18691
浙江大学	-18692
即使是这样	-18693
两边	-18694
令其	-18695
布线	-18696
成員	-18697
我还	-18698
理智	-18699
议院	-18700
▁系统	-18701
也有着	-18702
可进行	-18703
方法的	-18704
比较小	-18705
第三个	-18706
顾名思	-18707
十分重要	-18708
质量第一	-18709
▁郑	-18710
其所	-18711
加时	-18712
博润	-18713
发声	-18714
极力	-18715
舒畅	-18716
花粉	-18717
键盘	-18718
第十四	-18719
政治建设	-18720
俱全	-18721
拼命	-18722
海运	-18723
上升到	-18724
单纯的	-18725
抗病毒	-18726
贵金属	-18727
▁世界杯	-18728
各不相同	-18729
目前已经	-18730
受热	-18731
黄山	-18732
和一个	-18733
一致认为	-18734
房地产市场	-18735
听听	-18736
门禁	-18737
不属于	-18738
压力和	-18739
家公司	-18740
开发和	-18741
提高工作效率	-18742
基数	-18743
戴上	-18744
自制	-18745
尼克斯	-18746
球员的	-18747
Si	-18748
自建	-18749
补时	-18750
▁综合	-18751
佛山市	-18752
尼西亚	-18753
持续推进	-18754
顾名思义	-18755
受潮	-18756
突击	-18757
中获得	-18758
本单位	-18759
血小板	-18760
再接再厉	-18761
装备制造业	-18762
白癜风的发生	-18763
东海	-18764
周日	-18765
长足	-18766
为主导	-18767
对这些	-18768
思政课	-18769
相适应	-18770
参加活动	-18771
的高质量	-18772
有针对性的	-18773
也称	-18774
同情	-18775
波澜	-18776
深得	-18777
的本	-18778
绚丽	-18779
融化	-18780
返乡	-18781
0.9	-18782
▁14	-18783
有人说	-18784
相当大	-18785
第一部	-18786
通报了	-18787
产生影响	-18788
含有大量的	-18789
告訴	-18790
差点	-18791
月子	-18792
精诚	-18793
▁4)	-18794
诺贝尔	-18795
相对较低	-18796
还有就是	-18797
征求意见稿	-18798
科学与技术	-18799
当前和今后一个时期	-18800
3～	-18801
三餐	-18802
个县	-18803
亿人	-18804
只剩	-18805
星光	-18806
陷阱	-18807
制定的	-18808
现场的	-18809
税务局	-18810
万科	-18811
上都	-18812
导率	-18813
压滤机	-18814
可以与	-18815
毕业证	-18816
▁另	-18817
再去	-18818
初衷	-18819
发音	-18820
好玩	-18821
开窗	-18822
抢抓	-18823
排烟	-18824
类和	-18825
银保	-18826
▁双方	-18827
公众号	-18828
后期的	-18829
那样的	-18830
gong	-18831
也很重要	-18832
有可能是	-18833
功底	-18834
禁用	-18835
贴标	-18836
▁河北	-18837
研究机构	-18838
增至	-18839
应收	-18840
房地	-18841
无须	-18842
母親	-18843
耳聋	-18844
中国在	-18845
节目的	-18846
这才是	-18847
进行检测	-18848
重大成就	-18849
并不意味着	-18850
先锋模范作用	-18851
事項	-18852
博格	-18853
怀着	-18854
楼盘	-18855
水等	-18856
研学	-18857
福田	-18858
耐压	-18859
讲好	-18860
还为	-18861
ord	-18862
依然是	-18863
反应釜	-18864
水产品	-18865
采取了	-18866
开发利用	-18867
怎么治疗	-18868
检察机关	-18869
莎士比亚	-18870
党务	-18871
冷的	-18872
动工	-18873
匈牙	-18874
花瓣	-18875
西装	-18876
创业板	-18877
因为你	-18878
打造了	-18879
但是由于	-18880
▁2007	-18881
军委	-18882
切莫	-18883
呈現	-18884
和王	-18885
水面	-18886
起动	-18887
104	-18888
总量的	-18889
有网友	-18890
新中国成立	-18891
开好	-18892
揭幕	-18893
武侠	-18894
闪光	-18895
已达到	-18896
牵涉到	-18897
所以对于	-18898
担当作为	-18899
一定要及时	-18900
咀嚼	-18901
四方	-18902
晓明	-18903
转折	-18904
等优势	-18905
基本情况	-18906
岛屿	-18907
巨额	-18908
正確	-18909
蛋黄	-18910
中长期	-18911
反映出	-18912
地质灾害	-18913
多元化的	-18914
▁哈	-18915
五官	-18916
海中	-18917
稳中	-18918
一体机	-18919
平台和	-18920
的消费	-18921
中央八项规定	-18922
两级	-18923
兰花	-18924
刚好	-18925
动荡	-18926
卵石	-18927
培訓	-18928
多酚	-18929
成名	-18930
的钱	-18931
磅礴	-18932
虽有	-18933
這一	-18934
可出现	-18935
的情形	-18936
的衣服	-18937
四个方面	-18938
正在进行	-18939
联赛冠军	-18940
心悸	-18941
研修	-18942
鱼肉	-18943
经济技术开发区	-18944
EV	-18945
以南	-18946
射频	-18947
进驻	-18948
造林	-18949
上一层	-18950
天左右	-18951
年我国	-18952
的区域	-18953
社会发展	-18954
:2	-18955
切口	-18956
药效	-18957
香菜	-18958
106	-18959
;2、	-18960
什么样	-18961
培养了	-18962
有效性	-18963
用户需求	-18964
积极分子	-18965
不为	-18966
五月	-18967
德罗	-18968
树枝	-18969
格雷	-18970
逃跑	-18971
不得已	-18972
应该在	-18973
足球队	-18974
两个方面	-18975
主要产品	-18976
学术论文	-18977
统计资料	-18978
防火涂料	-18979
需要考虑	-18980
铝合金门窗	-18981
动人	-18982
挂号	-18983
不要在	-18984
姆巴佩	-18985
帮助的	-18986
润滑剂	-18987
提供一个	-18988
研究方向	-18989
试验设备	-18990
浇注	-18991
這次	-18992
金色	-18993
多注意	-18994
所有权	-18995
的地位	-18996
中国制造	-18997
所以大家	-18998
国家和地区的	-18999
★★	-19000
真挚	-19001
跟你	-19002
3.6	-19003
突破了	-19004
中国国家	-19005
企业经营	-19006
根据不同的	-19007
▁為	-19008
北约	-19009
推送	-19010
武夷	-19011
苍白	-19012
迟缓	-19013
事件的	-19014
噪音低	-19015
奥地利	-19016
巴黎圣	-19017
选择性	-19018
可以这样	-19019
没有得到	-19020
乙酸	-19021
冷热	-19022
安区	-19023
性病	-19024
生態	-19025
公司已	-19026
在今后	-19027
知道自己	-19028
高层建筑	-19029
▁跳	-19030
之于	-19031
亦是	-19032
微观	-19033
民意	-19034
生子	-19035
舉行	-19036
香烟	-19037
ate	-19038
的到来	-19039
管理层	-19040
资源化	-19041
预防和	-19042
更多的人	-19043
管理学院	-19044
低头	-19045
立业	-19046
细小	-19047
酸洗	-19048
闸门	-19049
大型的	-19050
承载能力	-19051
▁乐	-19052
与上	-19053
商業	-19054
横跨	-19055
起居	-19056
▁男性	-19057
精子的	-19058
不确定性	-19059
精准扶贫	-19060
无尘	-19061
荷叶	-19062
變得	-19063
ore	-19064
专业性	-19065
的一位	-19066
瞩目的	-19067
亿立方米	-19068
加气	-19069
升值	-19070
叛逆	-19071
天鹅	-19072
户型	-19073
无损	-19074
特邀	-19075
資格	-19076
车厢	-19077
下降了	-19078
以更加	-19079
年平均	-19080
要考虑	-19081
如何选择	-19082
选题	-19083
一起去	-19084
升降机	-19085
精致的	-19086
文明单位	-19087
质量为本	-19088
上手	-19089
倘若	-19090
周三	-19091
家家	-19092
极度	-19093
燃放	-19094
▁--	-19095
最主要	-19096
来说是	-19097
计划在	-19098
1988	-19099
ht	-19100
供應	-19101
振东	-19102
流血	-19103
190	-19104
企业对	-19105
两只	-19106
加分	-19107
微粒	-19108
稀缺	-19109
置疑	-19110
翻新	-19111
思想的	-19112
想象的	-19113
研究室	-19114
签署了	-19115
一旦发现	-19116
化工原料	-19117
平方米的	-19118
一味	-19119
养猪	-19120
利好	-19121
德勒	-19122
我國	-19123
时任	-19124
竞猜	-19125
车队	-19126
工作情况	-19127
分层	-19128
北极	-19129
应运	-19130
玄武	-19131
风尚	-19132
75%	-19133
不足以	-19134
培训和	-19135
▁值得注意的是	-19136
,"	-19137
3~	-19138
保姆	-19139
抢占	-19140
离职	-19141
可行的	-19142
一定的意义	-19143
现实生活中	-19144
奇艺	-19145
媽媽	-19146
寒假	-19147
溯源	-19148
裁决	-19149
话剧	-19150
和世界	-19151
多喝水	-19152
综合症	-19153
部主任	-19154
AG	-19155
之源	-19156
低落	-19157
轻钢	-19158
邓小平	-19159
含糖	-19160
奇才	-19161
宽广	-19162
情趣	-19163
桌面	-19164
物力	-19165
计数	-19166
在国外	-19167
的精彩	-19168
使用效果	-19169
基础知识	-19170
千人	-19171
連接	-19172
ren	-19173
健康和	-19174
学校和	-19175
实在是	-19176
爱情的	-19177
我们已经	-19178
再创	-19179
小品	-19180
春夏	-19181
有其	-19182
真實	-19183
行事	-19184
等环节	-19185
等设备	-19186
老同志	-19187
黑木耳	-19188
中国女排	-19189
年轻人的	-19190
治疗费用	-19191
认真贯彻落实	-19192
售卖	-19193
奠基	-19194
拨打	-19195
本的	-19196
果树	-19197
死刑	-19198
灯笼	-19199
自我的	-19200
应用技术	-19201
信息化建设	-19202
博大	-19203
容忍	-19204
摩羯	-19205
术前	-19206
規模	-19207
▁西安	-19208
速度和	-19209
高素质的	-19210
心愿	-19211
教书	-19212
波罗	-19213
报警器	-19214
环氧地坪	-19215
的治疗方案	-19216
规模最大的	-19217
▁w	-19218
做饭	-19219
奇幻	-19220
循序	-19221
焊缝	-19222
相亲	-19223
穿刺	-19224
碳排放	-19225
祖国的	-19226
第二个百年奋斗目标	-19227
不该	-19228
攝影	-19229
是把	-19230
预先	-19231
不可思	-19232
嵌入式	-19233
人民生活	-19234
我们现在	-19235
▁+	-19236
不经	-19237
入门	-19238
并由	-19239
强行	-19240
扭曲	-19241
解剖	-19242
酵母	-19243
也都是	-19244
被执行	-19245
一定程度	-19246
其实就是	-19247
这一问题	-19248
白癜风的症状	-19249
科技成果转化	-19250
cr	-19251
做工	-19252
地向	-19253
▁功效	-19254
▁建筑	-19255
一生的	-19256
开放的	-19257
可以作为	-19258
各方面的	-19259
这就需要	-19260
专员	-19261
内存	-19262
备考	-19263
好坏	-19264
导管	-19265
并列	-19266
幽门	-19267
油箱	-19268
皇冠	-19269
省钱	-19270
答卷	-19271
必需的	-19272
制度改革	-19273
家庭成员	-19274
有三	-19275
朝廷	-19276
溝通	-19277
达峰	-19278
这边	-19279
多余的	-19280
师生的	-19281
方式和	-19282
附加赛	-19283
:00,	-19284
保护作用	-19285
真正做到	-19286
科技公司	-19287
交流与合作	-19288
仍然代表了	-19289
修身	-19290
判罚	-19291
當中	-19292
积淀	-19293
纯正	-19294
自理	-19295
黄芪	-19296
118	-19297
惊人的	-19298
才能在	-19299
投集团	-19300
尾巴	-19301
心底	-19302
齐鲁	-19303
打下了	-19304
凝心聚力	-19305
压力容器	-19306
坚定信心	-19307
主食	-19308
后将	-19309
国奥	-19310
最受	-19311
氧量	-19312
胜地	-19313
▁最终	-19314
但随着	-19315
占据了	-19316
始终把	-19317
物体的	-19318
全体师生	-19319
很可能会	-19320
服务项目	-19321
▁拉	-19322
分光	-19323
化为	-19324
撤离	-19325
置换	-19326
街区	-19327
镇静	-19328
个赛季	-19329
和化学	-19330
商品房	-19331
的成果	-19332
施工人员	-19333
特色鲜明	-19334
行政执法	-19335
仍然代表了一定的意义	-19336
软膏	-19337
打开了	-19338
日夜夜	-19339
来判断	-19340
个人卫生	-19341
爱岗敬业	-19342
商铺	-19343
它与	-19344
挂在	-19345
35.	-19346
优秀教师	-19347
患者朋友	-19348
符合条件的	-19349
多在	-19350
库房	-19351
断电	-19352
烧开	-19353
私营	-19354
莲子	-19355
中草药	-19356
出一个	-19357
在讲话	-19358
用清水	-19359
龟头炎	-19360
3500	-19361
族自治区	-19362
不可缺少的	-19363
扳手	-19364
攻势	-19365
经销	-19366
转弯	-19367
,13	-19368
座的人	-19369
旗舰店	-19370
的热门	-19371
利润总额	-19372
比较复杂	-19373
美国总统	-19374
▁清	-19375
一轮	-19376
交代	-19377
全域	-19378
冲破	-19379
外力	-19380
热线	-19381
代表作	-19382
精神压力	-19383
加斯	-19384
欧宝	-19385
礼貌	-19386
不正当	-19387
不间断	-19388
城乡居民	-19389
的产品质量	-19390
沧桑	-19391
议程	-19392
输球	-19393
钻孔	-19394
在同一	-19395
始终以	-19396
就会被	-19397
那么在	-19398
饮食中	-19399
日日夜夜	-19400
热烈欢迎	-19401
三元	-19402
从前	-19403
免征	-19404
等重大	-19405
培养学生	-19406
ma	-19407
我都	-19408
指向	-19409
认清	-19410
,17	-19411
2.3	-19412
入口处	-19413
对客户	-19414
是人体	-19415
香港的	-19416
刘备	-19417
弱的	-19418
砂石	-19419
制作工艺	-19420
廉洁自律	-19421
所使用的	-19422
皮肤瘙痒	-19423
党的二十大胜利召开	-19424
五是	-19425
悉尼	-19426
防风	-19427
旅游局	-19428
的文章	-19429
工伤保险	-19430
吊车	-19431
村镇	-19432
手中的	-19433
开展工作	-19434
数据表明	-19435
提供了一个	-19436
未有	-19437
状元	-19438
看望	-19439
美援	-19440
将根据	-19441
污染源	-19442
深深的	-19443
共同富裕	-19444
组织领导	-19445
到正规医院	-19446
轻质隔墙板	-19447
也比	-19448
农贸	-19449
凉爽	-19450
扬尘	-19451
灌木	-19452
矢志	-19453
網絡	-19454
血壓	-19455
領導	-19456
如果想要	-19457
技术咨询	-19458
温室大棚	-19459
环境因素	-19460
分销	-19461
古今	-19462
測試	-19463
神州	-19464
韵味	-19465
-18	-19466
但也有	-19467
玻璃的	-19468
电视机	-19469
慎重考虑	-19470
研究开发	-19471
为胜	-19472
封装	-19473
但没有	-19474
就容易	-19475
消防车	-19476
的理论	-19477
的金属	-19478
秦始皇	-19479
自然人	-19480
荷尔蒙	-19481
Mo	-19482
公办	-19483
库森	-19484
教职	-19485
梦中	-19486
特许	-19487
切削液	-19488
最适合	-19489
等不同	-19490
成为一名	-19491
▁元	-19492
主委	-19493
井冈	-19494
博客	-19495
展演	-19496
崇拜	-19497
提议	-19498
此种	-19499
自发	-19500
集资	-19501
监事会	-19502
有可能会	-19503
着力打造	-19504
结构性改革	-19505
对立	-19506
德森	-19507
打扫	-19508
收受	-19509
新浪	-19510
果皮	-19511
起火	-19512
它不仅	-19513
。2008	-19514
下发	-19515
交响	-19516
交联	-19517
如一	-19518
威斯	-19519
甜食	-19520
和其它	-19521
清洗机	-19522
面积约	-19523
在比赛中	-19524
充足的睡眠	-19525
××	-19526
省心	-19527
同时又	-19528
▁得此梦	-19529
服务工作	-19530
▁!	-19531
▁非	-19532
真皮	-19533
人物的	-19534
约翰逊	-19535
的人梦见	-19536
七八	-19537
亦有	-19538
冷漠	-19539
勒沃	-19540
少于	-19541
精通	-19542
美金	-19543
设法	-19544
招投标	-19545
注册的	-19546
福州市	-19547
能起到	-19548
可以用于	-19549
物流公司	-19550
电子设备	-19551
及各	-19552
屈服	-19553
杂草	-19554
谈谈	-19555
▁1,	-19556
促进会	-19557
佛像	-19558
公报	-19559
在同	-19560
坎坷	-19561
菜品	-19562
鳞片	-19563
出不穷	-19564
和使命	-19565
在新的	-19566
爱的人	-19567
硅橡胶	-19568
第二位	-19569
血液中	-19570
考试成绩	-19571
我家	-19572
移送	-19573
關節	-19574
难关	-19575
高发	-19576
固定在	-19577
并提出	-19578
追溯到	-19579
金黄色	-19580
文化底蕴	-19581
天王	-19582
孝敬	-19583
生了	-19584
確定	-19585
耐蚀	-19586
逃离	-19587
预留	-19588
也更加	-19589
物理学	-19590
团队合作	-19591
学习宣传贯彻党的二十大精神	-19592
(《	-19593
九龙	-19594
教程	-19595
望着	-19596
理科	-19597
白宫	-19598
赛车	-19599
陈某	-19600
▁推荐	-19601
中秋节	-19602
生动的	-19603
培训中心	-19604
文化生活	-19605
的环境下	-19606
目前国内	-19607
不渝	-19608
出击	-19609
心地	-19610
然的	-19611
辩证	-19612
迎合	-19613
起重机的	-19614
古朴	-19615
看著	-19616
被选	-19617
身亡	-19618
▁德国	-19619
用什么	-19620
而且是	-19621
邀请了	-19622
在互联网	-19623
投资者的	-19624
东京奥运会	-19625
单位和个人	-19626
低端	-19627
只见	-19628
彩灯	-19629
有名	-19630
民心	-19631
耐劳	-19632
▁每天	-19633
宣读了	-19634
我喜欢	-19635
月份的	-19636
股份制	-19637
系统疾病	-19638
妇幼保健院	-19639
▁從	-19640
不强	-19641
推测	-19642
洛夫	-19643
耗费	-19644
账款	-19645
养殖场	-19646
在工业	-19647
的专家	-19648
共同努力下	-19649
质量体系认证	-19650
为中	-19651
亲身	-19652
以最	-19653
紧盯	-19654
远方	-19655
阿胶	-19656
企业与	-19657
第一大	-19658
衷心的	-19659
设计院	-19660
工作领导小组	-19661
(6	-19662
专精	-19663
木工	-19664
每当	-19665
綠色	-19666
追赶	-19667
230	-19668
切实增强	-19669
▁以上就是关于	-19670
书豪	-19671
刷卡	-19672
征服	-19673
货源	-19674
魔法	-19675
了一支	-19676
电路板	-19677
能提高	-19678
特别适用于	-19679
冬至	-19680
暖心	-19681
酗酒	-19682
GMP	-19683
IPO	-19684
实质性	-19685
木地板	-19686
生活有	-19687
通过的	-19688
全民健身	-19689
有着丰富的	-19690
也从	-19691
城管	-19692
就是指	-19693
接受的	-19694
美援朝	-19695
中心城市	-19696
其中一个	-19697
全网	-19698
和省	-19699
沉重	-19700
阶梯	-19701
ina	-19702
▁女人	-19703
温度下	-19704
时要注意	-19705
美观大方	-19706
人民群众的	-19707
中市	-19708
受阻	-19709
多点	-19710
心律	-19711
用料	-19712
:10	-19713
▁中央	-19714
债权人	-19715
在主场	-19716
教育资源	-19717
严守	-19718
冷淡	-19719
前夕	-19720
王者	-19721
防雷	-19722
jian	-19723
佼佼	-19724
函数	-19725
外貌	-19726
捞出	-19727
给人以	-19728
▁在这个	-19729
很容易被	-19730
科学研究院	-19731
三方	-19732
云集	-19733
住户	-19734
太后	-19735
日记	-19736
百叶	-19737
肾虚	-19738
表白	-19739
小学生	-19740
才会有	-19741
柴油机	-19742
勒沃库森	-19743
天府	-19744
小白	-19745
岭南	-19746
筷子	-19747
起飞	-19748
加工业	-19749
可以去	-19750
如果想	-19751
很明显	-19752
▁聚氨酯	-19753
也不一样	-19754
施工单位	-19755
本次会议	-19756
免費	-19757
放眼	-19758
另一方	-19759
的原料	-19760
的宣传	-19761
建设单位	-19762
通过网络	-19763
NH	-19764
一国	-19765
跌倒	-19766
▁人生	-19767
东道主	-19768
教育学	-19769
是否会	-19770
活动和	-19771
环境优美	-19772
让消费者	-19773
6,	-19774
ST	-19775
写出	-19776
均由	-19777
巨蟹	-19778
再进行	-19779
团成员	-19780
实际的	-19781
带孩子	-19782
来提高	-19783
耐冲击	-19784
可以采用	-19785
矿产资源	-19786
在此基础上	-19787
fa	-19788
甲苯	-19789
装潢	-19790
體育	-19791
-40	-19792
1.9	-19793
net	-19794
母亲的	-19795
在不同的	-19796
生物多样性	-19797
不只	-19798
减税	-19799
声波	-19800
白热	-19801
面具	-19802
體系	-19803
教学成果	-19804
防护措施	-19805
得了白癜风	-19806
技术有限公司	-19807
全景	-19808
大陸	-19809
弱者	-19810
我将	-19811
支行	-19812
断路	-19813
逃生	-19814
麒麟	-19815
价格为	-19816
只能在	-19817
要继续	-19818
中共党员	-19819
多个国家	-19820
提供服务	-19821
面向全国	-19822
僵局	-19823
减低	-19824
南美	-19825
琉璃	-19826
包括了	-19827
技术上	-19828
操作者	-19829
不利影响	-19830
层出不穷	-19831
经济建设	-19832
原型	-19833
渲染	-19834
的反	-19835
实现对	-19836
的一场	-19837
教学工作	-19838
比去年同期	-19839
St	-19840
在她	-19841
的说	-19842
线和	-19843
▁长期	-19844
的建议	-19845
资格的	-19846
可以防止	-19847
尽量选择	-19848
性差	-19849
正月	-19850
父子	-19851
主裁判	-19852
作物的	-19853
开展经营活动	-19854
久坐	-19855
你看	-19856
坏了	-19857
如是	-19858
意为	-19859
满贯	-19860
能手	-19861
造影	-19862
不能用	-19863
每一天	-19864
食用菌	-19865
不断优化	-19866
获得胜利	-19867
专场	-19868
中耳	-19869
余种	-19870
水下	-19871
老挝	-19872
这只	-19873
電腦	-19874
与创新	-19875
匈牙利	-19876
句话说	-19877
我已经	-19878
水电站	-19879
20%。	-19880
储量	-19881
全称	-19882
加载	-19883
学到	-19884
底座	-19885
延展	-19886
采矿	-19887
三季度	-19888
心中有	-19889
显而易	-19890
的都是	-19891
适应性强	-19892
学风	-19893
巾帼	-19894
考点	-19895
习大大	-19896
天花板	-19897
个工作日	-19898
在此期间	-19899
增强体质	-19900
建筑行业	-19901
旅游资源	-19902
星级酒店	-19903
法定节假日	-19904
伪劣	-19905
小巧	-19906
新娘	-19907
期权	-19908
花色	-19909
雪山	-19910
头球攻门	-19911
有足够的	-19912
家务	-19913
沿袭	-19914
赶赴	-19915
USB	-19916
就像是	-19917
痘痘	-19918
藏在	-19919
虫草	-19920
有明显	-19921
的首选	-19922
专利申请	-19923
广州恒大	-19924
二号	-19925
元年	-19926
时限	-19927
术语	-19928
粉状	-19929
草本	-19930
贴切	-19931
钣金	-19932
出台了	-19933
的季节	-19934
运用于	-19935
那么就	-19936
年毕业于	-19937
性皮肤病	-19938
示范企业	-19939
”!	-19940
云母	-19941
体贴	-19942
大都	-19943
忌食	-19944
民國	-19945
精索	-19946
闪烁	-19947
▁特点	-19948
交易的	-19949
复合型	-19950
总的来说	-19951
下药	-19952
多做	-19953
年份	-19954
排球	-19955
残奥	-19956
韧带	-19957
的最高	-19958
▁如果您	-19959
社会效益	-19960
让孩子们	-19961
还可能会	-19962
印度尼西亚	-19963
十月	-19964
千玺	-19965
外套	-19966
投注	-19967
掘金	-19968
时就	-19969
热轧	-19970
筹集	-19971
肾炎	-19972
運行	-19973
问答	-19974
佼佼者	-19975
农家乐	-19976
可能与	-19977
收获了	-19978
电加热	-19979
的身影	-19980
▁无论是	-19981
管理平台	-19982
化身	-19983
温控	-19984
税额	-19985
聲明	-19986
苛刻	-19987
还击	-19988
采纳	-19989
金砖	-19990
隐瞒	-19991
鸡精	-19992
和政治	-19993
的热爱	-19994
做的事情	-19995
你好	-19996
壁画	-19997
意義	-19998
燕麦	-19999
纸上	-20000
配以	-20001
主要原因	-20002
各界朋友	-20003
年世界杯	-20004
主要产品有	-20005
一副	-20006
弱势	-20007
文书	-20008
演习	-20009
硅藻	-20010
[...]
